#include "magic_wand_model_data.h"


// We need to keep the data array aligned on some architectures.

#ifdef __has_attribute

#define HAVE_ATTRIBUTE(x) __has_attribute(x)

#else

#define HAVE_ATTRIBUTE(x) 0

#endif

#if HAVE_ATTRIBUTE(aligned) || (defined(__GNUC__) && !defined(__clang__))

#define DATA_ALIGN_ATTRIBUTE __attribute__((aligned(4)))

#else

#define DATA_ALIGN_ATTRIBUTE

#endif


const unsigned char g_magic_wand_model_data[] DATA_ALIGN_ATTRIBUTE = {

  // Paste the data of the char array in `src/model.cc` here

  0x08, 0x00, 0x00, 0x00, 0x54, 0x46, 0x4c, 0x33, 0x62, 0xff, 0xff, 0xff,
  0x03, 0x00, 0x00, 0x00, 0x10, 0x00, 0x00, 0x00, 0x24, 0x00, 0x00, 0x00,
  0x78, 0x00, 0x00, 0x00, 0x24, 0x00, 0x00, 0x00, 0x05, 0x00, 0x00, 0x00,
  0x78, 0x05, 0x00, 0x00, 0xb0, 0x04, 0x00, 0x00, 0xe0, 0x02, 0x00, 0x00,
  0x60, 0x02, 0x00, 0x00, 0x54, 0x01, 0x00, 0x00, 0x01, 0x00, 0x00, 0x00,
  0x78, 0x00, 0x00, 0x00, 0x13, 0x00, 0x00, 0x00, 0x90, 0x2f, 0x00, 0x00,
  0x8c, 0x2f, 0x00, 0x00, 0x98, 0x2e, 0x00, 0x00, 0x28, 0x2e, 0x00, 0x00,
  0xbc, 0x2d, 0x00, 0x00, 0x6c, 0x11, 0x00, 0x00, 0x98, 0x10, 0x00, 0x00,
  0xbc, 0x0e, 0x00, 0x00, 0x60, 0x06, 0x00, 0x00, 0xfc, 0x05, 0x00, 0x00,
  0x78, 0x05, 0x00, 0x00, 0x64, 0x2f, 0x00, 0x00, 0x60, 0x2f, 0x00, 0x00,
  0x5c, 0x2f, 0x00, 0x00, 0x58, 0x2f, 0x00, 0x00, 0x54, 0x2f, 0x00, 0x00,
  0x50, 0x2f, 0x00, 0x00, 0x4c, 0x2f, 0x00, 0x00, 0x48, 0x2f, 0x00, 0x00,
  0x0f, 0x00, 0x00, 0x00, 0x4d, 0x4c, 0x49, 0x52, 0x20, 0x43, 0x6f, 0x6e,
  0x76, 0x65, 0x72, 0x74, 0x65, 0x64, 0x2e, 0x00, 0x00, 0x00, 0x0e, 0x00,
  0x18, 0x00, 0x04, 0x00, 0x08, 0x00, 0x0c, 0x00, 0x10, 0x00, 0x14, 0x00,
  0x0e, 0x00, 0x00, 0x00, 0x14, 0x00, 0x00, 0x00, 0x5c, 0x00, 0x00, 0x00,
  0x60, 0x00, 0x00, 0x00, 0x64, 0x00, 0x00, 0x00, 0x84, 0x00, 0x00, 0x00,
  0x12, 0x00, 0x00, 0x00, 0xc0, 0x2e, 0x00, 0x00, 0x5c, 0x2e, 0x00, 0x00,
  0xb4, 0x2d, 0x00, 0x00, 0x58, 0x2d, 0x00, 0x00, 0xf0, 0x2c, 0x00, 0x00,
  0x9c, 0x10, 0x00, 0x00, 0xc0, 0x0f, 0x00, 0x00, 0xe4, 0x0d, 0x00, 0x00,
  0xa0, 0x05, 0x00, 0x00, 0x3c, 0x05, 0x00, 0x00, 0xb0, 0x04, 0x00, 0x00,
  0xe8, 0x03, 0x00, 0x00, 0x38, 0x03, 0x00, 0x00, 0xa4, 0x02, 0x00, 0x00,
  0x10, 0x02, 0x00, 0x00, 0x90, 0x01, 0x00, 0x00, 0xfc, 0x00, 0x00, 0x00,
  0x80, 0x00, 0x00, 0x00, 0x01, 0x00, 0x00, 0x00, 0x00, 0x00, 0x00, 0x00,
  0x01, 0x00, 0x00, 0x00, 0x11, 0x00, 0x00, 0x00, 0x08, 0x00, 0x00, 0x00,
  0x1c, 0x04, 0x00, 0x00, 0x58, 0x03, 0x00, 0x00, 0xc8, 0x02, 0x00, 0x00,
  0x24, 0x02, 0x00, 0x00, 0xac, 0x01, 0x00, 0x00, 0x10, 0x01, 0x00, 0x00,
  0x94, 0x00, 0x00, 0x00, 0x10, 0x00, 0x00, 0x00, 0x04, 0x00, 0x00, 0x00,
  0x6d, 0x61, 0x69, 0x6e, 0x00, 0x00, 0x00, 0x00, 0x8e, 0xff, 0xff, 0xff,
  0x00, 0x00, 0x00, 0x09, 0x04, 0x00, 0x00, 0x00, 0x1c, 0x00, 0x00, 0x00,
  0x10, 0x00, 0x00, 0x00, 0x04, 0x00, 0x00, 0x00, 0x92, 0xd2, 0xff, 0xff,
  0x00, 0x00, 0x80, 0x3f, 0x01, 0x00, 0x00, 0x00, 0x11, 0x00, 0x00, 0x00,
  0x01, 0x00, 0x00, 0x00, 0x10, 0x00, 0x00, 0x00, 0xf6, 0xfb, 0xff, 0xff,
  0x00, 0x00, 0x00, 0x19, 0x01, 0x00, 0x00, 0x00, 0x12, 0xd2, 0xff, 0xff,
  0x10, 0x00, 0x00, 0x00, 0x12, 0x00, 0x00, 0x00, 0x14, 0x00, 0x00, 0x00,
  0x20, 0x00, 0x00, 0x00, 0x02, 0x00, 0x00, 0x00, 0x01, 0x00, 0x00, 0x00,
  0x02, 0x00, 0x00, 0x00, 0x08, 0x00, 0x00, 0x00, 0x49, 0x64, 0x65, 0x6e,
  0x74, 0x69, 0x74, 0x79, 0x00, 0x00, 0x00, 0x00, 0x4c, 0xd2, 0xff, 0xff,
  0x00, 0x00, 0x0e, 0x00, 0x18, 0x00, 0x08, 0x00, 0x0c, 0x00, 0x10, 0x00,
  0x07, 0x00, 0x14, 0x00, 0x0e, 0x00, 0x00, 0x00, 0x00, 0x00, 0x00, 0x08,
  0x03, 0x00, 0x00, 0x00, 0x18, 0x00, 0x00, 0x00, 0x0c, 0x00, 0x00, 0x00,
  0x04, 0x00, 0x00, 0x00, 0x20, 0xd2, 0xff, 0xff, 0x01, 0x00, 0x00, 0x00,
  0x10, 0x00, 0x00, 0x00, 0x03, 0x00, 0x00, 0x00, 0x0f, 0x00, 0x00, 0x00,
  0x05, 0x00, 0x00, 0x00, 0x02, 0x00, 0x00, 0x00, 0x8a, 0xd2, 0xff, 0xff,
  0x10, 0x00, 0x00, 0x00, 0x11, 0x00, 0x00, 0x00, 0x14, 0x00, 0x00, 0x00,
  0x30, 0x00, 0x00, 0x00, 0x02, 0x00, 0x00, 0x00, 0x01, 0x00, 0x00, 0x00,
  0x02, 0x00, 0x00, 0x00, 0x1a, 0x00, 0x00, 0x00, 0x73, 0x65, 0x71, 0x75,
  0x65, 0x6e, 0x74, 0x69, 0x61, 0x6c, 0x2f, 0x64, 0x65, 0x6e, 0x73, 0x65,
  0x5f, 0x31, 0x2f, 0x42, 0x69, 0x61, 0x73, 0x41, 0x64, 0x64, 0x00, 0x00,
  0x7c, 0xd2, 0xff, 0xff, 0xd6, 0xfd, 0xff, 0xff, 0x00, 0x00, 0x00, 0x08,
  0x03, 0x00, 0x00, 0x00, 0x24, 0x00, 0x00, 0x00, 0x18, 0x00, 0x00, 0x00,
  0x0c, 0x00, 0x00, 0x00, 0x00, 0x00, 0x06, 0x00, 0x08, 0x00, 0x07, 0x00,
  0x06, 0x00, 0x00, 0x00, 0x00, 0x00, 0x00, 0x01, 0x01, 0x00, 0x00, 0x00,
  0x0f, 0x00, 0x00, 0x00, 0x03, 0x00, 0x00, 0x00, 0x0e, 0x00, 0x00, 0x00,
  0x04, 0x00, 0x00, 0x00, 0x01, 0x00, 0x00, 0x00, 0xfe, 0xfc, 0xff, 0xff,
  0x00, 0x00, 0x00, 0x09, 0x01, 0x00, 0x00, 0x00, 0x1a, 0xd3, 0xff, 0xff,
  0x10, 0x00, 0x00, 0x00, 0x10, 0x00, 0x00, 0x00, 0x14, 0x00, 0x00, 0x00,
  0x2c, 0x00, 0x00, 0x00, 0x02, 0x00, 0x00, 0x00, 0x01, 0x00, 0x00, 0x00,
  0x10, 0x00, 0x00, 0x00, 0x15, 0x00, 0x00, 0x00, 0x73, 0x65, 0x71, 0x75,
  0x65, 0x6e, 0x74, 0x69, 0x61, 0x6c, 0x2f, 0x64, 0x65, 0x6e, 0x73, 0x65,
  0x2f, 0x52, 0x65, 0x6c, 0x75, 0x00, 0x00, 0x00, 0x60, 0xd3, 0xff, 0xff,
  0x00, 0x00, 0x0a, 0x00, 0x10, 0x00, 0x04, 0x00, 0x08, 0x00, 0x0c, 0x00,
  0x0a, 0x00, 0x00, 0x00, 0x02, 0x00, 0x00, 0x00, 0x10, 0x00, 0x00, 0x00,
  0x04, 0x00, 0x00, 0x00, 0x01, 0x00, 0x00, 0x00, 0x0e, 0x00, 0x00, 0x00,
  0x02, 0x00, 0x00, 0x00, 0x0d, 0x00, 0x00, 0x00, 0x03, 0x00, 0x00, 0x00,
  0x7a, 0xfd, 0xff, 0xff, 0x00, 0x00, 0x00, 0x16, 0x01, 0x00, 0x00, 0x00,
  0x96, 0xd3, 0xff, 0xff, 0x10, 0x00, 0x00, 0x00, 0x0f, 0x00, 0x00, 0x00,
  0x14, 0x00, 0x00, 0x00, 0x30, 0x00, 0x00, 0x00, 0x02, 0x00, 0x00, 0x00,
  0x01, 0x00, 0x00, 0x00, 0x70, 0x00, 0x00, 0x00, 0x1a, 0x00, 0x00, 0x00,
  0x73, 0x65, 0x71, 0x75, 0x65, 0x6e, 0x74, 0x69, 0x61, 0x6c, 0x2f, 0x66,
  0x6c, 0x61, 0x74, 0x74, 0x65, 0x6e, 0x2f, 0x52, 0x65, 0x73, 0x68, 0x61,
  0x70, 0x65, 0x00, 0x00, 0x88, 0xd3, 0xff, 0xff, 0xe2, 0xfe, 0xff, 0xff,
  0x00, 0x00, 0x00, 0x05, 0x01, 0x00, 0x00, 0x00, 0x38, 0x00, 0x00, 0x00,
  0x2c, 0x00, 0x00, 0x00, 0x14, 0x00, 0x00, 0x00, 0x00, 0x00, 0x0e, 0x00,
  0x14, 0x00, 0x00, 0x00, 0x10, 0x00, 0x0c, 0x00, 0x08, 0x00, 0x04, 0x00,
  0x0e, 0x00, 0x00, 0x00, 0x03, 0x00, 0x00, 0x00, 0x01, 0x00, 0x00, 0x00,
  0x03, 0x00, 0x00, 0x00, 0x01, 0x00, 0x00, 0x00, 0x01, 0x00, 0x00, 0x00,
  0x0d, 0x00, 0x00, 0x00, 0x01, 0x00, 0x00, 0x00, 0x0c, 0x00, 0x00, 0x00,
  0x26, 0xd4, 0xff, 0xff, 0x10, 0x00, 0x00, 0x00, 0x0e, 0x00, 0x00, 0x00,
  0x1c, 0x00, 0x00, 0x00, 0x40, 0x00, 0x00, 0x00, 0x04, 0x00, 0x00, 0x00,
  0x01, 0x00, 0x00, 0x00, 0x07, 0x00, 0x00, 0x00, 0x01, 0x00, 0x00, 0x00,
  0x10, 0x00, 0x00, 0x00, 0x22, 0x00, 0x00, 0x00, 0x73, 0x65, 0x71, 0x75,
  0x65, 0x6e, 0x74, 0x69, 0x61, 0x6c, 0x2f, 0x6d, 0x61, 0x78, 0x5f, 0x70,
  0x6f, 0x6f, 0x6c, 0x69, 0x6e, 0x67, 0x32, 0x64, 0x5f, 0x31, 0x2f, 0x4d,
  0x61, 0x78, 0x50, 0x6f, 0x6f, 0x6c, 0x00, 0x00, 0x28, 0xd4, 0xff, 0xff,
  0xc2, 0xfe, 0xff, 0xff, 0x00, 0x00, 0x00, 0x01, 0x24, 0x00, 0x00, 0x00,
  0x18, 0x00, 0x00, 0x00, 0x04, 0x00, 0x00, 0x00, 0xb4, 0xfe, 0xff, 0xff,
  0x01, 0x00, 0x00, 0x00, 0x01, 0x00, 0x00, 0x00, 0x00, 0x00, 0x00, 0x01,
  0x01, 0x00, 0x00, 0x00, 0x0c, 0x00, 0x00, 0x00, 0x03, 0x00, 0x00, 0x00,
  0x0b, 0x00, 0x00, 0x00, 0x07, 0x00, 0x00, 0x00, 0x09, 0x00, 0x00, 0x00,
  0xb6, 0xd4, 0xff, 0xff, 0x10, 0x00, 0x00, 0x00, 0x0d, 0x00, 0x00, 0x00,
  0x1c, 0x00, 0x00, 0x00, 0x2c, 0x00, 0x00, 0x00, 0x04, 0x00, 0x00, 0x00,
  0x01, 0x00, 0x00, 0x00, 0x15, 0x00, 0x00, 0x00, 0x01, 0x00, 0x00, 0x00,
  0x10, 0x00, 0x00, 0x00, 0x0c, 0x00, 0x00, 0x00, 0x74, 0x66, 0x6c, 0x2e,
  0x63, 0x6f, 0x6e, 0x76, 0x5f, 0x32, 0x64, 0x31, 0x00, 0x00, 0x00, 0x00,
  0xfc, 0xd4, 0xff, 0xff, 0x00, 0x00, 0x0e, 0x00, 0x1a, 0x00, 0x08, 0x00,
  0x0c, 0x00, 0x10, 0x00, 0x07, 0x00, 0x14, 0x00, 0x0e, 0x00, 0x00, 0x00,
  0x00, 0x00, 0x00, 0x05, 0x01, 0x00, 0x00, 0x00, 0x3c, 0x00, 0x00, 0x00,
  0x30, 0x00, 0x00, 0x00, 0x14, 0x00, 0x00, 0x00, 0x00, 0x00, 0x0e, 0x00,
  0x18, 0x00, 0x17, 0x00, 0x10, 0x00, 0x0c, 0x00, 0x08, 0x00, 0x04, 0x00,
  0x0e, 0x00, 0x00, 0x00, 0x03, 0x00, 0x00, 0x00, 0x03, 0x00, 0x00, 0x00,
  0x03, 0x00, 0x00, 0x00, 0x03, 0x00, 0x00, 0x00, 0x00, 0x00, 0x00, 0x01,
  0x01, 0x00, 0x00, 0x00, 0x0b, 0x00, 0x00, 0x00, 0x01, 0x00, 0x00, 0x00,
  0x0a, 0x00, 0x00, 0x00, 0x46, 0xff, 0xff, 0xff, 0x00, 0x00, 0x00, 0x11,
  0x01, 0x00, 0x00, 0x00, 0x62, 0xd5, 0xff, 0xff, 0x10, 0x00, 0x00, 0x00,
  0x0c, 0x00, 0x00, 0x00, 0x1c, 0x00, 0x00, 0x00, 0x40, 0x00, 0x00, 0x00,
  0x04, 0x00, 0x00, 0x00, 0x01, 0x00, 0x00, 0x00, 0x15, 0x00, 0x00, 0x00,
  0x01, 0x00, 0x00, 0x00, 0x08, 0x00, 0x00, 0x00, 0x20, 0x00, 0x00, 0x00,
  0x73, 0x65, 0x71, 0x75, 0x65, 0x6e, 0x74, 0x69, 0x61, 0x6c, 0x2f, 0x6d,
  0x61, 0x78, 0x5f, 0x70, 0x6f, 0x6f, 0x6c, 0x69, 0x6e, 0x67, 0x32, 0x64,
  0x2f, 0x4d, 0x61, 0x78, 0x50, 0x6f, 0x6f, 0x6c, 0x00, 0x00, 0x00, 0x00,
  0xbc, 0xd5, 0xff, 0xff, 0x00, 0x00, 0x0e, 0x00, 0x14, 0x00, 0x00, 0x00,
  0x08, 0x00, 0x0c, 0x00, 0x07, 0x00, 0x10, 0x00, 0x0e, 0x00, 0x00, 0x00,
  0x00, 0x00, 0x00, 0x01, 0x30, 0x00, 0x00, 0x00, 0x24, 0x00, 0x00, 0x00,
  0x10, 0x00, 0x00, 0x00, 0x0c, 0x00, 0x10, 0x00, 0x00, 0x00, 0x04, 0x00,
  0x08, 0x00, 0x0f, 0x00, 0x0c, 0x00, 0x00, 0x00, 0x01, 0x00, 0x00, 0x00,
  0x01, 0x00, 0x00, 0x00, 0x00, 0x00, 0x00, 0x01, 0x01, 0x00, 0x00, 0x00,
  0x0a, 0x00, 0x00, 0x00, 0x03, 0x00, 0x00, 0x00, 0x00, 0x00, 0x00, 0x00,
  0x06, 0x00, 0x00, 0x00, 0x08, 0x00, 0x00, 0x00, 0x00, 0x00, 0x0a, 0x00,
  0x0c, 0x00, 0x07, 0x00, 0x00, 0x00, 0x08, 0x00, 0x0a, 0x00, 0x00, 0x00,
  0x00, 0x00, 0x00, 0x03, 0x01, 0x00, 0x00, 0x00, 0x26, 0xd6, 0xff, 0xff,
  0x10, 0x00, 0x00, 0x00, 0x0b, 0x00, 0x00, 0x00, 0x1c, 0x00, 0x00, 0x00,
  0x28, 0x00, 0x00, 0x00, 0x04, 0x00, 0x00, 0x00, 0x01, 0x00, 0x00, 0x00,
  0x40, 0x00, 0x00, 0x00, 0x03, 0x00, 0x00, 0x00, 0x08, 0x00, 0x00, 0x00,
  0x0b, 0x00, 0x00, 0x00, 0x74, 0x66, 0x6c, 0x2e, 0x63, 0x6f, 0x6e, 0x76,
  0x5f, 0x32, 0x64, 0x00, 0x10, 0xd6, 0xff, 0xff, 0x06, 0xd7, 0xff, 0xff,
  0x04, 0x00, 0x00, 0x00, 0x40, 0x00, 0x00, 0x00, 0x81, 0xd1, 0xa3, 0xbf,
  0x03, 0x7f, 0xe2, 0x3a, 0x8a, 0x43, 0x62, 0xbd, 0xc4, 0x6e, 0x99, 0x40,
  0xc9, 0x40, 0xa4, 0x3e, 0xfa, 0xff, 0x83, 0x3f, 0xf3, 0x82, 0x9e, 0xbf,
  0x26, 0x48, 0xb7, 0x3f, 0x7a, 0x21, 0xa1, 0xbf, 0x8a, 0x10, 0x3d, 0xbf,
  0xc4, 0x4d, 0x28, 0x3e, 0xd7, 0x53, 0xdd, 0xbe, 0x2e, 0xe7, 0x74, 0x3e,
  0xef, 0xb5, 0x0b, 0x3f, 0x7e, 0x4e, 0x53, 0xbf, 0x34, 0xc4, 0xae, 0xbe,
  0xae, 0xd6, 0xff, 0xff, 0x10, 0x00, 0x00, 0x00, 0x0a, 0x00, 0x00, 0x00,
  0x10, 0x00, 0x00, 0x00, 0x20, 0x00, 0x00, 0x00, 0x01, 0x00, 0x00, 0x00,
  0x10, 0x00, 0x00, 0x00, 0x0d, 0x00, 0x00, 0x00, 0x73, 0x74, 0x64, 0x2e,
  0x63, 0x6f, 0x6e, 0x73, 0x74, 0x61, 0x6e, 0x74, 0x31, 0x00, 0x00, 0x00,
  0x90, 0xd6, 0xff, 0xff, 0x86, 0xd7, 0xff, 0xff, 0x04, 0x00, 0x00, 0x00,
  0x20, 0x00, 0x00, 0x00, 0x89, 0x31, 0x22, 0xc0, 0x3e, 0xae, 0xd4, 0xbe,
  0xbf, 0x08, 0xff, 0x3f, 0xda, 0x57, 0xa6, 0xbe, 0xab, 0xe0, 0x48, 0xc0,
  0x13, 0xad, 0x32, 0xbf, 0x46, 0xb3, 0x7b, 0x3e, 0xfe, 0xab, 0xdc, 0xbe,
  0x0e, 0xd7, 0xff, 0xff, 0x10, 0x00, 0x00, 0x00, 0x09, 0x00, 0x00, 0x00,
  0x10, 0x00, 0x00, 0x00, 0x20, 0x00, 0x00, 0x00, 0x01, 0x00, 0x00, 0x00,
  0x08, 0x00, 0x00, 0x00, 0x0c, 0x00, 0x00, 0x00, 0x73, 0x74, 0x64, 0x2e,
  0x63, 0x6f, 0x6e, 0x73, 0x74, 0x61, 0x6e, 0x74, 0x00, 0x00, 0x00, 0x00,
  0xf0, 0xd6, 0xff, 0xff, 0xe6, 0xd7, 0xff, 0xff, 0x04, 0x00, 0x00, 0x00,
  0x00, 0x08, 0x00, 0x00, 0xf7, 0x3a, 0x15, 0x3f, 0xca, 0x48, 0x3f, 0xbd,
  0x88, 0xb7, 0x2a, 0xbf, 0x4c, 0x42, 0x56, 0xbe, 0x34, 0x55, 0x05, 0x3f,
  0xfd, 0x6f, 0x41, 0x3e, 0x24, 0x4d, 0xd2, 0xbc, 0xd3, 0xb4, 0x4e, 0xbe,
  0x93, 0x42, 0x3f, 0x3f, 0x57, 0xbb, 0x77, 0xbd, 0x01, 0xff, 0xbd, 0xbf,
  0x9f, 0xb4, 0x0c, 0x3e, 0x0c, 0xb1, 0x37, 0xbf, 0x58, 0x5a, 0xad, 0xbd,
  0xab, 0xdc, 0x7f, 0x3c, 0xa3, 0xfb, 0x80, 0xbe, 0xda, 0x08, 0x0c, 0xbe,
  0x33, 0x86, 0xc9, 0x3d, 0x55, 0x6a, 0xd1, 0xbe, 0xa4, 0xc3, 0xfc, 0x3d,
  0x3f, 0x5b, 0x24, 0xbf, 0x75, 0x6a, 0x54, 0xbe, 0x7e, 0x1a, 0x8e, 0xbd,
  0x2d, 0xe6, 0xb9, 0x3e, 0x34, 0x7d, 0x2c, 0xbf, 0x2b, 0xe0, 0x46, 0xbd,
  0xfd, 0x8a, 0x0e, 0x3e, 0x8c, 0xc5, 0x0a, 0x3f, 0x5b, 0x48, 0x34, 0x3e,
  0x5f, 0xda, 0x08, 0xbe, 0x83, 0xd6, 0xa0, 0x3d, 0x1e, 0x99, 0xce, 0x3d,
  0x2b, 0x9a, 0xf5, 0xbe, 0xc4, 0x7b, 0x33, 0xbe, 0x21, 0xc6, 0x9a, 0x3e,
  0xed, 0x5b, 0x1e, 0x3e, 0xe2, 0xee, 0xc1, 0xbe, 0xc8, 0xd2, 0xdd, 0x3c,
  0xef, 0x32, 0xda, 0x3e, 0x17, 0x4a, 0x97, 0x3e, 0xff, 0xff, 0x36, 0xbf,
  0x25, 0xdb, 0x0d, 0xbd, 0x34, 0x54, 0x69, 0xbc, 0x88, 0xa1, 0x20, 0xbb,
  0x32, 0xb2, 0xc9, 0xbe, 0x90, 0x2f, 0x52, 0xbc, 0x38, 0x40, 0x15, 0x3e,
  0x70, 0xbf, 0x29, 0xbd, 0xf0, 0x9c, 0x9c, 0xbe, 0x91, 0xbb, 0x16, 0xbe,
  0x85, 0x3b, 0x96, 0x3d, 0xc7, 0x6f, 0x6d, 0xbe, 0x80, 0x19, 0xb5, 0xbe,
  0x7d, 0x0f, 0x3f, 0x3e, 0x70, 0x44, 0x98, 0x3e, 0x79, 0x9f, 0x67, 0x3e,
  0x47, 0x55, 0x28, 0xbf, 0xaa, 0x66, 0x52, 0xbe, 0x99, 0x3b, 0x78, 0xbd,
  0xb8, 0x4d, 0x93, 0x3c, 0xe4, 0xd8, 0x13, 0xbf, 0x4a, 0x76, 0xa7, 0xbe,
  0x35, 0x74, 0x3b, 0xbd, 0x08, 0x70, 0x6b, 0x3e, 0x17, 0xdd, 0x75, 0xbd,
  0xbb, 0x41, 0x39, 0x3c, 0xfb, 0x60, 0xe2, 0xbd, 0x4b, 0xd4, 0xf0, 0xbd,
  0xff, 0xfe, 0x81, 0xbe, 0xb0, 0xd3, 0xee, 0xbd, 0x6d, 0xa7, 0x51, 0xbe,
  0x30, 0xd1, 0x90, 0xbe, 0x80, 0xaa, 0x32, 0x3e, 0x42, 0x90, 0x56, 0x3d,
  0x12, 0x68, 0x78, 0xbd, 0x39, 0x38, 0xff, 0x3d, 0xec, 0xa4, 0xc7, 0xbd,
  0xf1, 0xdd, 0x59, 0xbc, 0x3f, 0x74, 0x52, 0x3e, 0xbd, 0xc0, 0xd7, 0x3c,
  0x84, 0x91, 0x68, 0x3e, 0xf2, 0xe2, 0x18, 0x3d, 0xe4, 0x5e, 0x5f, 0x3e,
  0x64, 0xc3, 0x7f, 0x3e, 0x7d, 0x17, 0xa0, 0xbd, 0x88, 0x6a, 0xdc, 0x3d,
  0x9e, 0x92, 0x76, 0x3e, 0x6f, 0x6f, 0x41, 0x3d, 0x79, 0x1d, 0x9a, 0x3e,
  0x87, 0x82, 0x58, 0x3e, 0xd5, 0x6a, 0x82, 0xbd, 0xd8, 0x4e, 0x9e, 0x3e,
  0x41, 0x12, 0x36, 0xbe, 0x16, 0x2e, 0x81, 0x3c, 0x06, 0x68, 0x1e, 0x3e,
  0x1f, 0xfc, 0x02, 0x3e, 0x3f, 0x0a, 0xb6, 0xbe, 0x00, 0x6b, 0xdb, 0x3c,
  0xdc, 0x48, 0x32, 0xbe, 0xcc, 0x7d, 0xfa, 0xbe, 0x3d, 0xf3, 0x5d, 0xbe,
  0xf4, 0xff, 0x26, 0x3d, 0xf6, 0x99, 0x0a, 0xbf, 0x58, 0x49, 0x04, 0xbd,
  0x59, 0x94, 0x34, 0xbf, 0x87, 0x9a, 0x33, 0x3b, 0xf4, 0xef, 0x7c, 0xbe,
  0x4c, 0xfe, 0xab, 0xbe, 0xca, 0x3c, 0xbf, 0x3d, 0x5d, 0x81, 0x54, 0xba,
  0x06, 0xd8, 0x47, 0x3e, 0x40, 0x5f, 0x36, 0xbe, 0x95, 0x9a, 0xc3, 0xbc,
  0x27, 0xd5, 0x07, 0xbe, 0x83, 0xf0, 0x23, 0x3e, 0xb2, 0x42, 0xac, 0xbe,
  0x45, 0xc3, 0x17, 0x3c, 0x75, 0x28, 0x87, 0xbe, 0xdf, 0x84, 0xb3, 0xbc,
  0x3f, 0x39, 0x1d, 0xbe, 0x2e, 0x9c, 0xdc, 0xbe, 0xa5, 0x51, 0xbe, 0xbe,
  0xe8, 0x38, 0xb6, 0xbd, 0x09, 0x4a, 0xdc, 0xbe, 0x6e, 0x69, 0xa0, 0xbe,
  0xaf, 0x5e, 0xc0, 0xbe, 0xfd, 0x16, 0x86, 0x3e, 0xdc, 0xac, 0x8c, 0xbd,
  0x8d, 0x8b, 0x68, 0x3f, 0x95, 0xbc, 0x0a, 0x3d, 0x44, 0x4a, 0x0c, 0xbc,
  0xa2, 0xc7, 0xe9, 0x3e, 0x9e, 0xd4, 0x0b, 0x3f, 0xa9, 0xbb, 0x01, 0x3e,
  0x04, 0xc0, 0xfc, 0xbd, 0xf2, 0x49, 0xb2, 0x3d, 0x45, 0xb1, 0x8b, 0xbe,
  0xe1, 0x12, 0x33, 0x3d, 0x7d, 0xae, 0x2a, 0x3c, 0xee, 0xed, 0x5f, 0x3e,
  0x1b, 0xb6, 0x36, 0xbe, 0x77, 0x8c, 0xfd, 0xbb, 0x8b, 0x88, 0x1b, 0xbf,
  0x3a, 0x36, 0x5e, 0x3d, 0xd5, 0x80, 0x29, 0xbd, 0xe9, 0xce, 0x81, 0xbc,
  0xfb, 0x17, 0xa3, 0xbc, 0x55, 0x4c, 0x6c, 0xbe, 0x23, 0x01, 0x1a, 0xbe,
  0x6e, 0xe4, 0x66, 0xbc, 0xd2, 0x6c, 0xd0, 0xbd, 0x7c, 0x30, 0xb7, 0xbd,
  0x0a, 0x71, 0x9d, 0xbe, 0xec, 0xf5, 0x55, 0xbd, 0x5b, 0x66, 0xd9, 0xbd,
  0x2f, 0x87, 0xe1, 0xbd, 0x29, 0xac, 0x1b, 0xbe, 0x36, 0x69, 0x12, 0xbd,
  0xef, 0x5a, 0xcd, 0xbe, 0xab, 0xe2, 0x88, 0xbd, 0xb7, 0x28, 0x13, 0xbf,
  0xcf, 0x5c, 0x8d, 0xbc, 0x1d, 0xbf, 0x21, 0xbd, 0x42, 0x72, 0xd0, 0xbe,
  0x1f, 0x3f, 0x8e, 0xbe, 0xa8, 0x89, 0x67, 0x3e, 0x6b, 0xf6, 0xa9, 0xbe,
  0x78, 0x2a, 0xe9, 0xbd, 0xef, 0x7d, 0x23, 0xbf, 0xaa, 0x2e, 0x00, 0xbd,
  0xf9, 0x8a, 0x19, 0xbc, 0x68, 0x7a, 0xec, 0xbe, 0x26, 0x47, 0x0f, 0xbe,
  0x9b, 0x80, 0xc4, 0xbc, 0x26, 0xda, 0x8c, 0x3d, 0x8e, 0x55, 0xa8, 0xbd,
  0xdb, 0x6b, 0x83, 0xbe, 0xd6, 0x2a, 0x51, 0xbd, 0x96, 0xa2, 0xa9, 0x3d,
  0x9c, 0xec, 0x1e, 0xbd, 0xa1, 0x7b, 0xb6, 0xbe, 0x02, 0x53, 0x19, 0xbf,
  0xf6, 0x33, 0x50, 0xbf, 0xaa, 0x3d, 0x4f, 0x3e, 0xd1, 0x9a, 0x00, 0xbf,
  0x12, 0x16, 0x73, 0xbd, 0x91, 0x69, 0x55, 0xbd, 0xb4, 0x16, 0xf8, 0xbe,
  0x9e, 0x55, 0xa1, 0xbe, 0xef, 0x49, 0x53, 0x3d, 0x17, 0x86, 0x9a, 0x3e,
  0xdd, 0x9e, 0x9d, 0xbc, 0xa7, 0xdc, 0x67, 0x3f, 0x75, 0x31, 0x6d, 0x3c,
  0xff, 0x5c, 0xca, 0xbe, 0xff, 0x11, 0x03, 0xbd, 0x17, 0x44, 0x11, 0x3f,
  0xc8, 0x25, 0xaa, 0x3c, 0xbf, 0x76, 0xd2, 0xbd, 0xd2, 0x76, 0x1f, 0x3d,
  0x21, 0x62, 0x8f, 0x3e, 0x36, 0x64, 0xd1, 0xba, 0x28, 0xa5, 0x30, 0xbf,
  0x72, 0xeb, 0x4d, 0xbe, 0x9b, 0x68, 0xde, 0xbe, 0xde, 0x45, 0x3a, 0xbc,
  0xaf, 0x19, 0xbc, 0x3c, 0x00, 0x2e, 0x92, 0xbd, 0xd5, 0xfa, 0xb3, 0x3d,
  0xe2, 0x52, 0x18, 0xbd, 0x1d, 0xdd, 0x9c, 0xbe, 0x06, 0xd6, 0x48, 0x3f,
  0x8b, 0xdb, 0x3e, 0xbf, 0xf0, 0xc9, 0x18, 0xbb, 0x09, 0xbf, 0x62, 0x3c,
  0x68, 0xfa, 0xc3, 0xbd, 0x39, 0xde, 0x1f, 0xbf, 0xa2, 0xe1, 0x82, 0xbc,
  0x1e, 0x13, 0xa1, 0x3c, 0x03, 0x37, 0x48, 0xbe, 0x86, 0xda, 0xcb, 0x3d,
  0x60, 0x73, 0xc4, 0x3c, 0xdb, 0x25, 0x60, 0x3d, 0x00, 0xa3, 0xc4, 0x3c,
  0xd7, 0xef, 0xc0, 0xbd, 0x65, 0x7a, 0x92, 0xbc, 0x84, 0xbf, 0x5f, 0xbe,
  0x03, 0xd2, 0xcc, 0xbe, 0xd3, 0x4d, 0x4a, 0xbe, 0xc6, 0x3c, 0x87, 0xb9,
  0x7e, 0x69, 0x6e, 0xbe, 0x7a, 0x4c, 0x18, 0xbc, 0x9d, 0xdf, 0x28, 0xbe,
  0x2d, 0x21, 0x48, 0xbc, 0x72, 0x1f, 0x8a, 0xbe, 0xf9, 0x59, 0x73, 0xbe,
  0x94, 0xea, 0x1e, 0xbe, 0x86, 0xb5, 0x97, 0xbc, 0xa7, 0x74, 0x3c, 0xbe,
  0x2a, 0x76, 0x87, 0xbd, 0xa1, 0x0b, 0xbd, 0x3e, 0x17, 0x74, 0x6f, 0xbc,
  0x5b, 0xdf, 0xfb, 0xbd, 0x2a, 0xda, 0x59, 0xbe, 0xc6, 0xb5, 0x84, 0xbe,
  0x7c, 0x26, 0x85, 0xbc, 0xd2, 0x86, 0x45, 0xbd, 0xb5, 0x6a, 0xde, 0x3d,
  0x69, 0xc6, 0x4a, 0x3f, 0xde, 0x79, 0x92, 0x3b, 0x49, 0xb7, 0x47, 0xbd,
  0xc2, 0xc6, 0x90, 0x3f, 0xc3, 0xd5, 0x05, 0xbd, 0x44, 0x20, 0x87, 0xbc,
  0x0e, 0x15, 0x26, 0xbd, 0x6e, 0x63, 0x36, 0xbe, 0x3d, 0x68, 0xd6, 0x3d,
  0x63, 0x35, 0x06, 0xbe, 0x3b, 0x52, 0x2f, 0xbe, 0x83, 0x74, 0x23, 0x3e,
  0xca, 0x6a, 0xf8, 0xbd, 0xb2, 0x8b, 0x0a, 0xbc, 0xea, 0x14, 0x08, 0xbe,
  0xef, 0x50, 0xd6, 0xbd, 0x1f, 0xee, 0x4d, 0x3f, 0xbe, 0xca, 0xaa, 0xbd,
  0x59, 0x86, 0xee, 0xbe, 0xb1, 0x5d, 0x2a, 0x3e, 0x85, 0x6b, 0x27, 0xbe,
  0x42, 0x5c, 0xf1, 0xbc, 0x08, 0x7f, 0x08, 0xbd, 0x16, 0xe7, 0x13, 0xbe,
  0x98, 0xb1, 0x1d, 0x3f, 0x34, 0x1c, 0x7b, 0x3e, 0x77, 0x7f, 0xb3, 0xbe,
  0xde, 0x2f, 0x33, 0x3f, 0x36, 0x4b, 0xb3, 0xbe, 0x81, 0x51, 0x91, 0xbc,
  0x65, 0xc8, 0x24, 0x3e, 0xcf, 0x07, 0x9e, 0x3c, 0x37, 0xb8, 0x30, 0x3e,
  0x1a, 0xc6, 0xf1, 0xbd, 0x6e, 0xfb, 0x0b, 0xbe, 0x62, 0x14, 0x18, 0x3e,
  0xca, 0x1b, 0x54, 0x3e, 0x5a, 0xd5, 0x88, 0xbd, 0x37, 0xfe, 0x86, 0x3e,
  0x2c, 0xad, 0x26, 0xbd, 0x10, 0x68, 0x18, 0x3e, 0x7e, 0xcb, 0x9c, 0x3d,
  0x76, 0xa8, 0x65, 0xbd, 0x12, 0xeb, 0x4b, 0xbe, 0x1d, 0x80, 0x41, 0xbe,
  0x90, 0x5c, 0x26, 0xbe, 0x4d, 0xcf, 0x04, 0x3d, 0x30, 0xf3, 0x93, 0xbe,
  0x77, 0xc6, 0x38, 0xbe, 0x7f, 0x5f, 0x9a, 0xbe, 0x95, 0x0a, 0x9e, 0x3e,
  0xb5, 0xf4, 0xa3, 0xbd, 0xbd, 0x6e, 0xaf, 0x3d, 0xf0, 0x17, 0x6e, 0xbe,
  0x30, 0x7a, 0x8e, 0xbe, 0x25, 0x44, 0x86, 0xbe, 0xa1, 0x3c, 0x44, 0xbd,
  0xe7, 0xd0, 0x58, 0xbe, 0xb8, 0x8e, 0xc8, 0xbd, 0xf5, 0x4f, 0x66, 0xbc,
  0x0a, 0x8b, 0xee, 0xbc, 0x77, 0x2e, 0x30, 0xbe, 0x72, 0x43, 0x8b, 0x3e,
  0x4f, 0xe7, 0x0e, 0xbe, 0x53, 0xda, 0x89, 0x3d, 0x02, 0xf4, 0x64, 0xbd,
  0x93, 0x54, 0x1c, 0x3e, 0xba, 0xac, 0xfc, 0x3d, 0xe3, 0x8d, 0x3a, 0x3c,
  0xbd, 0x99, 0xbf, 0xbd, 0x17, 0x7b, 0xf3, 0xbd, 0xe8, 0xb7, 0x68, 0xbe,
  0x28, 0x75, 0xb6, 0xbd, 0x6a, 0x34, 0x8c, 0xbd, 0xd3, 0xd2, 0x83, 0x3e,
  0xce, 0xb5, 0x40, 0xbd, 0x7f, 0x29, 0xda, 0x3e, 0x4f, 0x3e, 0xfe, 0xbe,
  0xa1, 0xa5, 0x42, 0xbe, 0xf5, 0xc0, 0x09, 0xbe, 0xa6, 0xb1, 0x0c, 0xbe,
  0x8b, 0xaa, 0x9b, 0x3d, 0x3c, 0x6a, 0xd9, 0xbd, 0xf6, 0xd6, 0xbf, 0x3d,
  0x4b, 0x30, 0x5f, 0xbd, 0xc2, 0x9d, 0x0a, 0xbf, 0x22, 0x29, 0xdb, 0xbd,
  0xab, 0x6d, 0x0b, 0xbe, 0xa7, 0xce, 0x5f, 0x3e, 0x37, 0xcb, 0x89, 0x3d,
  0x81, 0x96, 0x42, 0x3c, 0xd2, 0x6d, 0x78, 0xbd, 0xff, 0x19, 0xf6, 0x3d,
  0x2a, 0x0b, 0x0d, 0xbf, 0x64, 0x2d, 0x20, 0xbe, 0x69, 0xa0, 0x52, 0x3b,
  0x93, 0x19, 0x44, 0xbe, 0xd2, 0x8b, 0xe6, 0xbd, 0x2e, 0xd4, 0x89, 0x3e,
  0xf0, 0x65, 0xa5, 0x3e, 0xbd, 0xb5, 0xc9, 0x3e, 0x6c, 0x05, 0x58, 0xbe,
  0xce, 0xe9, 0xbf, 0x3e, 0x93, 0x62, 0x4f, 0xbd, 0x47, 0xf6, 0x70, 0xbe,
  0x88, 0x56, 0x72, 0x3d, 0x36, 0x55, 0x15, 0x3e, 0x97, 0xb5, 0x55, 0xbd,
  0x2d, 0x51, 0x4b, 0xbf, 0x53, 0xb2, 0xa6, 0xbe, 0x5d, 0xb3, 0xcf, 0xbd,
  0x0f, 0xd9, 0xb9, 0xbe, 0xed, 0x5d, 0xba, 0xbd, 0x24, 0x1b, 0x70, 0xbd,
  0xe4, 0x20, 0x1f, 0x3e, 0xba, 0x42, 0x6f, 0x3e, 0xa2, 0x47, 0x97, 0xbe,
  0x0f, 0x05, 0xb3, 0xbd, 0x2a, 0x24, 0x2f, 0x3f, 0x66, 0x40, 0x01, 0x3c,
  0xb7, 0x03, 0x20, 0x3e, 0x9d, 0x7d, 0x40, 0xbe, 0xd4, 0xcb, 0xd2, 0xbc,
  0x37, 0xaa, 0x57, 0xbd, 0x79, 0x42, 0xea, 0x3d, 0x6c, 0x17, 0x14, 0xbd,
  0x0c, 0xb1, 0x74, 0x3e, 0x8c, 0xd7, 0x08, 0x3d, 0xc6, 0x5a, 0x6a, 0x3e,
  0x88, 0x8a, 0xc3, 0xbd, 0x2a, 0x5a, 0x7a, 0xbe, 0x16, 0x87, 0x9c, 0xbc,
  0xb6, 0x8c, 0xaa, 0xbe, 0xac, 0xb2, 0xe2, 0xbd, 0xa2, 0x49, 0x90, 0x3e,
  0x8c, 0x91, 0x2b, 0xbe, 0x37, 0x8b, 0xb6, 0x3c, 0x21, 0xe3, 0x80, 0xbe,
  0x1e, 0x48, 0xb4, 0xbe, 0xd3, 0x6d, 0x8b, 0x3e, 0x2f, 0x1e, 0xb1, 0x3d,
  0xe9, 0xd5, 0x52, 0x3c, 0x04, 0xe3, 0xe0, 0x3e, 0x39, 0xc3, 0x69, 0xbe,
  0x14, 0xa3, 0xa4, 0x3c, 0x25, 0xd7, 0x4b, 0xbe, 0x99, 0xb8, 0x86, 0xbe,
  0x1a, 0x5a, 0x43, 0x3e, 0x43, 0xaf, 0xe3, 0xbd, 0xf3, 0xb9, 0xb9, 0xbd,
  0xdc, 0x40, 0x36, 0x3f, 0xf3, 0x3b, 0x02, 0xbe, 0x91, 0xaa, 0xe3, 0x3e,
  0x5b, 0xdf, 0xbd, 0xbe, 0xb6, 0xc4, 0x90, 0xbe, 0xea, 0x3c, 0x64, 0x3e,
  0xcb, 0x59, 0xc2, 0x3d, 0xdf, 0x94, 0x79, 0xbd, 0x66, 0x02, 0x56, 0x3e,
  0x3e, 0x3e, 0x31, 0xbe, 0x5b, 0xcf, 0x87, 0x3e, 0x7d, 0x13, 0xda, 0xbe,
  0x0a, 0x51, 0x82, 0xbe, 0x7f, 0x3f, 0xee, 0x3d, 0xc0, 0x39, 0xdb, 0xba,
  0x1a, 0x38, 0xa6, 0xbd, 0x2f, 0xba, 0x44, 0x3f, 0x24, 0x73, 0x8c, 0x3c,
  0xb3, 0x45, 0x25, 0xbf, 0x0d, 0x3a, 0x00, 0xbe, 0x6d, 0x56, 0xf3, 0xbc,
  0xf5, 0xae, 0xaf, 0xbd, 0xcd, 0x2c, 0x63, 0xbe, 0x8a, 0x44, 0x42, 0xbd,
  0xed, 0xdb, 0x7a, 0xbf, 0x62, 0x69, 0xdc, 0x3c, 0x36, 0x98, 0x9b, 0xbf,
  0xda, 0x62, 0x63, 0x3e, 0x6a, 0xf2, 0x95, 0x3d, 0xa9, 0x01, 0x35, 0x3e,
  0x36, 0xc6, 0x26, 0xbf, 0x31, 0x50, 0x6e, 0xbd, 0x67, 0x17, 0x41, 0xbf,
  0x4b, 0x14, 0x35, 0xbe, 0xd6, 0x2f, 0x4e, 0xbf, 0x9e, 0x49, 0x4c, 0xbd,
  0xba, 0xce, 0xc9, 0x3c, 0xb6, 0x0c, 0x9c, 0x3d, 0x80, 0xc6, 0xb3, 0xbe,
  0x55, 0x04, 0x92, 0x3e, 0xbc, 0x7a, 0x8b, 0xbf, 0xf6, 0xba, 0x42, 0x3e,
  0x44, 0xd4, 0x78, 0xbe, 0x76, 0x43, 0x4d, 0xbd, 0x1e, 0x1a, 0x30, 0x3d,
  0x1f, 0x11, 0x03, 0xbc, 0x6b, 0xea, 0xb3, 0xbe, 0x5e, 0x9f, 0xbe, 0x3d,
  0xf1, 0xf7, 0x7b, 0xbf, 0x33, 0x1f, 0x24, 0x3e, 0xfe, 0x53, 0xbf, 0x3e,
  0x3c, 0x22, 0x4b, 0xbe, 0xa4, 0xf0, 0x36, 0xbd, 0xb7, 0x85, 0x0b, 0xbe,
  0x7d, 0x45, 0x6f, 0x3e, 0x4a, 0x7d, 0x5e, 0xbd, 0x56, 0x8e, 0x09, 0xbf,
  0x66, 0x3c, 0x8e, 0xbc, 0x2e, 0x05, 0xed, 0x3e, 0x01, 0x79, 0x3e, 0xbe,
  0xa8, 0xec, 0x3a, 0xbe, 0x8c, 0x8b, 0x22, 0x3d, 0xf0, 0x3b, 0x28, 0x3f,
  0xa2, 0x2f, 0xb5, 0x3e, 0x7e, 0x5d, 0x16, 0xbf, 0x70, 0xd8, 0x1f, 0xbd,
  0x02, 0xc4, 0xe4, 0x3d, 0x77, 0x5e, 0x47, 0xbe, 0x91, 0x91, 0x41, 0xbe,
  0x9e, 0xc7, 0xc7, 0xbe, 0xdb, 0x81, 0x76, 0x3e, 0xf8, 0xd6, 0x34, 0xbc,
  0x6d, 0x2f, 0x03, 0xbf, 0x5e, 0x9a, 0xb6, 0xbd, 0xa6, 0x07, 0x69, 0xbe,
  0x53, 0x2a, 0x3a, 0xbe, 0xdb, 0x74, 0x3b, 0xbe, 0xb5, 0xb5, 0x83, 0xbe,
  0x8b, 0xc2, 0x04, 0xbd, 0x6c, 0x48, 0x0e, 0xbd, 0xab, 0x77, 0x3f, 0xbf,
  0x86, 0xda, 0x0a, 0xbe, 0xe0, 0x2f, 0x16, 0x3b, 0x90, 0x23, 0xc3, 0xbe,
  0xea, 0x46, 0x80, 0xbd, 0xcc, 0x38, 0xeb, 0xbb, 0x0d, 0x37, 0x77, 0x3e,
  0xa1, 0xf7, 0x95, 0xbd, 0xeb, 0x6d, 0xb6, 0xbe, 0x75, 0xc3, 0xf5, 0x3e,
  0x10, 0xe8, 0x73, 0xbc, 0x13, 0xc5, 0xd7, 0xbe, 0xfe, 0xc1, 0xbe, 0xbd,
  0xd9, 0x97, 0x1f, 0xbd, 0x25, 0x95, 0xac, 0x3d, 0x3d, 0xa9, 0xf8, 0xbd,
  0x58, 0x69, 0xa5, 0xbe, 0xa9, 0x57, 0xaf, 0x3e, 0x77, 0xbb, 0x34, 0x3d,
  0xe7, 0x9d, 0xe7, 0xbe, 0x7b, 0xf7, 0x8b, 0xbd, 0xd2, 0xa5, 0x5b, 0x3e,
  0x5d, 0xbc, 0x05, 0x3d, 0xa7, 0x29, 0x76, 0xbe, 0x4b, 0x61, 0xba, 0xbe,
  0xa2, 0xb6, 0xcb, 0x3e, 0xb1, 0x6c, 0x41, 0xbe, 0x95, 0x13, 0xdb, 0xbe,
  0x58, 0x13, 0x12, 0xbe, 0x16, 0xa8, 0x66, 0x3c, 0xe8, 0x0b, 0x8a, 0xbd,
  0xd1, 0x2f, 0x80, 0xbe, 0x6c, 0xcd, 0x8f, 0xbe, 0x4c, 0x57, 0xc3, 0xbd,
  0x4e, 0xdf, 0xff, 0xff, 0x10, 0x00, 0x00, 0x00, 0x08, 0x00, 0x00, 0x00,
  0x1c, 0x00, 0x00, 0x00, 0x38, 0x00, 0x00, 0x00, 0x04, 0x00, 0x00, 0x00,
  0x10, 0x00, 0x00, 0x00, 0x04, 0x00, 0x00, 0x00, 0x01, 0x00, 0x00, 0x00,
  0x08, 0x00, 0x00, 0x00, 0x1a, 0x00, 0x00, 0x00, 0x73, 0x65, 0x71, 0x75,
  0x65, 0x6e, 0x74, 0x69, 0x61, 0x6c, 0x2f, 0x63, 0x6f, 0x6e, 0x76, 0x32,
  0x64, 0x5f, 0x31, 0x2f, 0x43, 0x6f, 0x6e, 0x76, 0x32, 0x44, 0x00, 0x00,
  0x48, 0xdf, 0xff, 0xff, 0x3e, 0xe0, 0xff, 0xff, 0x04, 0x00, 0x00, 0x00,
  0x80, 0x01, 0x00, 0x00, 0x68, 0x0c, 0xa0, 0x3c, 0xb4, 0x76, 0xfd, 0xbd,
  0x99, 0xdf, 0x7e, 0xbc, 0xe6, 0xc0, 0x28, 0xbe, 0xb0, 0x10, 0xfa, 0xbe,
  0x2f, 0x3c, 0x5a, 0xbe, 0x1a, 0x7b, 0x1d, 0xbe, 0x86, 0x46, 0x5c, 0x3d,
  0x0d, 0xc9, 0x89, 0xbd, 0x72, 0x8e, 0xca, 0xbc, 0x88, 0xbc, 0xdd, 0x3e,
  0x7e, 0xcf, 0x5e, 0x3e, 0xe3, 0xc3, 0x08, 0xbe, 0x12, 0xaf, 0x3b, 0xbe,
  0xc7, 0x1a, 0x7c, 0x3e, 0xd2, 0xef, 0x82, 0x3e, 0x1a, 0x89, 0x29, 0x3d,
  0xd0, 0x1b, 0x7e, 0xbe, 0x85, 0x12, 0xec, 0x3d, 0xf8, 0x6d, 0x3b, 0x3d,
  0xe7, 0x9c, 0x05, 0x3e, 0x02, 0xda, 0x1f, 0x3e, 0x4c, 0x77, 0x28, 0xbd,
  0x43, 0x7a, 0xa2, 0x3b, 0x98, 0xb4, 0x76, 0x3e, 0x72, 0x81, 0x8f, 0xbd,
  0x13, 0x19, 0x75, 0xbe, 0x92, 0x07, 0xb7, 0x3a, 0x57, 0x2c, 0x0c, 0x3e,
  0xd6, 0x1d, 0x4c, 0xbd, 0xd7, 0x87, 0xe7, 0xbc, 0xde, 0x60, 0x0e, 0xbe,
  0x5d, 0xe4, 0xc7, 0xbd, 0x3f, 0x52, 0x54, 0x3d, 0x16, 0x2e, 0x33, 0xbe,
  0xf7, 0xdd, 0x9e, 0x3d, 0x5a, 0xf2, 0x42, 0xbe, 0x53, 0xfb, 0x19, 0xbc,
  0x9e, 0x11, 0x0e, 0x3f, 0xa8, 0xb1, 0x9f, 0x3d, 0x92, 0x65, 0x51, 0xbe,
  0x3c, 0x83, 0xbf, 0xbd, 0x2c, 0xe0, 0xb1, 0x3d, 0xac, 0xac, 0x25, 0x3d,
  0x90, 0x63, 0xf9, 0xbe, 0x53, 0xe7, 0xb9, 0xbc, 0x52, 0x4b, 0x17, 0x3e,
  0xf6, 0xc6, 0x80, 0xbc, 0x9a, 0x66, 0x6a, 0xbe, 0x43, 0x78, 0xcf, 0x3d,
  0x50, 0x3d, 0xf3, 0x3c, 0x84, 0xd7, 0x59, 0xbe, 0xa3, 0x6d, 0xd9, 0xbe,
  0x7d, 0xf6, 0x9e, 0xbd, 0x5c, 0x1f, 0x48, 0xbe, 0x76, 0x79, 0xb8, 0xbe,
  0x4c, 0x40, 0x95, 0xbd, 0xc3, 0x0f, 0x86, 0x3c, 0x81, 0xee, 0x8e, 0x3d,
  0x0f, 0xd4, 0x97, 0xbd, 0xbf, 0x3c, 0x65, 0xbf, 0x2a, 0xdb, 0x04, 0xbc,
  0xe9, 0x95, 0xef, 0x3d, 0xf2, 0xd2, 0x17, 0xbf, 0x9d, 0x71, 0x97, 0xbd,
  0xae, 0x8e, 0xd4, 0x3d, 0x85, 0x42, 0x9b, 0xbe, 0xce, 0x6b, 0x35, 0x3e,
  0x74, 0xea, 0xb7, 0xbd, 0x6d, 0x83, 0x5e, 0xbe, 0x0a, 0x7b, 0x98, 0xbd,
  0x3e, 0xde, 0x81, 0x3d, 0x09, 0xd6, 0x70, 0xbd, 0x01, 0x9f, 0xf0, 0xbd,
  0x5f, 0xf7, 0x43, 0xbe, 0x2c, 0xfa, 0x0e, 0xbf, 0x69, 0x53, 0xbb, 0xbd,
  0x13, 0xea, 0x8a, 0xbe, 0x3b, 0x09, 0x0c, 0xbf, 0xc5, 0x5c, 0xb4, 0x3e,
  0x36, 0xa9, 0xa2, 0xbe, 0x84, 0x42, 0x9d, 0xbe, 0xe0, 0xdd, 0x80, 0xbe,
  0xc8, 0x39, 0xa9, 0x3e, 0x08, 0xdd, 0x03, 0xbe, 0x42, 0x85, 0x07, 0xbe,
  0x03, 0x66, 0x4d, 0x3e, 0x75, 0xd0, 0x77, 0x3d, 0xf7, 0x20, 0x66, 0xbe,
  0xec, 0x77, 0x8b, 0xbd, 0xf0, 0x05, 0x1b, 0x3e, 0xe0, 0x54, 0x6a, 0xbe,
  0x69, 0xef, 0x12, 0xbe, 0xb5, 0x79, 0xbb, 0xbd, 0x05, 0xab, 0x88, 0xbe,
  0xd6, 0xe6, 0x78, 0xbd, 0x26, 0xe1, 0xff, 0xff, 0x10, 0x00, 0x00, 0x00,
  0x07, 0x00, 0x00, 0x00, 0x1c, 0x00, 0x00, 0x00, 0x38, 0x00, 0x00, 0x00,
  0x04, 0x00, 0x00, 0x00, 0x08, 0x00, 0x00, 0x00, 0x04, 0x00, 0x00, 0x00,
  0x03, 0x00, 0x00, 0x00, 0x01, 0x00, 0x00, 0x00, 0x18, 0x00, 0x00, 0x00,
  0x73, 0x65, 0x71, 0x75, 0x65, 0x6e, 0x74, 0x69, 0x61, 0x6c, 0x2f, 0x63,
  0x6f, 0x6e, 0x76, 0x32, 0x64, 0x2f, 0x43, 0x6f, 0x6e, 0x76, 0x32, 0x44,
  0x00, 0x00, 0x00, 0x00, 0x20, 0xe1, 0xff, 0xff, 0x16, 0xe2, 0xff, 0xff,
  0x04, 0x00, 0x00, 0x00, 0x80, 0x00, 0x00, 0x00, 0x05, 0xec, 0xac, 0xba,
  0xf0, 0x3a, 0x1c, 0xbe, 0x8a, 0xbc, 0xea, 0x3e, 0xf1, 0xb6, 0xbb, 0x3e,
  0x4a, 0x39, 0xf6, 0xbc, 0x3f, 0x8a, 0x0b, 0x3f, 0xec, 0xa9, 0xe8, 0x3e,
  0xd5, 0xb0, 0x35, 0xbe, 0x37, 0x94, 0x3b, 0xbe, 0x8e, 0x81, 0x0e, 0xbe,
  0xca, 0x0c, 0x96, 0xbe, 0xed, 0x5a, 0x60, 0xbe, 0x1d, 0x37, 0x81, 0xbc,
  0xcb, 0x80, 0xb5, 0xbe, 0xb7, 0x47, 0x8b, 0x3e, 0xdc, 0x63, 0x03, 0x3e,
  0x32, 0x1e, 0x74, 0xbd, 0x76, 0x1b, 0x27, 0x3d, 0x16, 0x63, 0x02, 0x3f,
  0x2e, 0x7e, 0x9e, 0x3e, 0x1f, 0xdc, 0xc1, 0x3a, 0x06, 0x93, 0x2a, 0x3e,
  0xfa, 0xc2, 0x65, 0x3e, 0xb2, 0xf2, 0xe0, 0x3e, 0xdc, 0x2b, 0x77, 0xbe,
  0x58, 0x58, 0x25, 0xbe, 0x76, 0x83, 0x71, 0xbe, 0xd2, 0x11, 0x45, 0xbe,
  0x7c, 0xf0, 0x1f, 0x3e, 0x06, 0xf5, 0xab, 0xbe, 0xb7, 0x2c, 0x92, 0x3e,
  0x6a, 0xf0, 0x5f, 0x3d, 0xfe, 0xe1, 0xff, 0xff, 0x10, 0x00, 0x00, 0x00,
  0x06, 0x00, 0x00, 0x00, 0x14, 0x00, 0x00, 0x00, 0x30, 0x00, 0x00, 0x00,
  0x02, 0x00, 0x00, 0x00, 0x02, 0x00, 0x00, 0x00, 0x10, 0x00, 0x00, 0x00,
  0x19, 0x00, 0x00, 0x00, 0x73, 0x65, 0x71, 0x75, 0x65, 0x6e, 0x74, 0x69,
  0x61, 0x6c, 0x2f, 0x64, 0x65, 0x6e, 0x73, 0x65, 0x5f, 0x31, 0x2f, 0x4d,
  0x61, 0x74, 0x4d, 0x75, 0x6c, 0x00, 0x00, 0x00, 0xf0, 0xe1, 0xff, 0xff,
  0xe6, 0xe2, 0xff, 0xff, 0x04, 0x00, 0x00, 0x00, 0x00, 0x1c, 0x00, 0x00,
  0x8c, 0xf4, 0x26, 0x3f, 0xfc, 0x27, 0xde, 0xbe, 0x06, 0x09, 0x67, 0xbd,
  0x49, 0x60, 0x69, 0x3f, 0x7d, 0xf7, 0xb5, 0x3e, 0xcb, 0x65, 0x77, 0xbe,
  0xc6, 0x6b, 0x3c, 0x3f, 0xde, 0xe8, 0x0b, 0x3f, 0xbf, 0x12, 0x54, 0x3e,
  0x5d, 0x9e, 0xb3, 0xbe, 0xf7, 0x42, 0x4e, 0x3e, 0x1d, 0x9a, 0x2c, 0xbf,
  0x68, 0xba, 0xff, 0xbe, 0x2a, 0xe2, 0x3d, 0xbf, 0x67, 0x4a, 0x02, 0x3f,
  0x6e, 0x43, 0xbc, 0xbe, 0x00, 0x81, 0x1b, 0x3e, 0xf9, 0x92, 0x3c, 0xbe,
  0x44, 0xbc, 0x15, 0xbd, 0xe2, 0xba, 0xaa, 0x3f, 0xa0, 0xf3, 0xc7, 0xbc,
  0x0a, 0xf5, 0x38, 0x3e, 0xc9, 0x2d, 0x17, 0x3e, 0x2e, 0xc3, 0x87, 0x3d,
  0x5e, 0xf2, 0x04, 0xbe, 0x85, 0x14, 0x29, 0xbe, 0x52, 0x32, 0xca, 0x3d,
  0x7d, 0xaf, 0x9f, 0xbe, 0xd2, 0x77, 0x1e, 0xbf, 0x16, 0x61, 0xac, 0xbe,
  0xec, 0x02, 0x84, 0x3e, 0x4a, 0xf8, 0xac, 0xbd, 0x0a, 0xda, 0x0a, 0xbd,
  0x4e, 0xe3, 0x10, 0xbc, 0x20, 0x3a, 0x37, 0xbb, 0x71, 0x8a, 0xa8, 0x3f,
  0xe6, 0xd6, 0xd5, 0x3b, 0xd8, 0xa0, 0xd4, 0x3d, 0xc2, 0xd6, 0xfc, 0xbd,
  0x68, 0x6d, 0x2c, 0xbe, 0x46, 0x8e, 0x82, 0xbe, 0x93, 0x91, 0xaf, 0xbd,
  0x78, 0xe2, 0xb7, 0x3d, 0x78, 0x9d, 0x68, 0xbe, 0x58, 0xbd, 0x24, 0xbf,
  0xb6, 0x34, 0x2a, 0xbe, 0x65, 0xce, 0x82, 0x3e, 0xeb, 0x7e, 0xa8, 0xbc,
  0xe4, 0x4b, 0x80, 0x3d, 0x84, 0xda, 0x53, 0x3d, 0xf6, 0x5e, 0x5b, 0xbd,
  0xd7, 0xad, 0x90, 0x3f, 0x0f, 0xd6, 0xc9, 0xbc, 0xea, 0xca, 0xdb, 0x3d,
  0xd8, 0x79, 0x5f, 0xbe, 0x58, 0x8a, 0x8a, 0xbe, 0x43, 0xa8, 0xdb, 0xbe,
  0x23, 0xc6, 0xa6, 0xbd, 0x63, 0x41, 0x42, 0x3c, 0x3b, 0xb0, 0x33, 0xbd,
  0xd6, 0xe1, 0xee, 0xbe, 0xb2, 0x0d, 0x07, 0xbe, 0x59, 0xe3, 0x8d, 0x3e,
  0xf7, 0x3f, 0xf4, 0xbd, 0xb0, 0x54, 0x40, 0xbd, 0xea, 0x92, 0x25, 0xbd,
  0x5e, 0x54, 0xd1, 0xbc, 0x7a, 0xe0, 0x8f, 0x3f, 0x70, 0x4a, 0xce, 0xbd,
  0x71, 0x67, 0x1b, 0xbd, 0x14, 0x23, 0xcc, 0xbd, 0x7e, 0x96, 0x39, 0xbe,
  0x0d, 0x53, 0xa8, 0xbe, 0x79, 0x33, 0xd9, 0xbc, 0x85, 0xc0, 0x28, 0xbc,
  0xd9, 0x14, 0x0d, 0x3d, 0x3d, 0x15, 0x21, 0xbf, 0x42, 0xf0, 0x1b, 0xbe,
  0x60, 0x97, 0x96, 0x3e, 0x4f, 0x33, 0x7f, 0xbe, 0x65, 0xb9, 0x9d, 0x3e,
  0x01, 0xa0, 0x85, 0xbe, 0x97, 0xcf, 0x38, 0xbd, 0xb4, 0x1f, 0x88, 0x3f,
  0xad, 0x1f, 0x3c, 0xbe, 0x72, 0x49, 0x2c, 0xbe, 0x3c, 0xd3, 0x77, 0x3d,
  0xfb, 0x15, 0xd6, 0x3e, 0x61, 0xbd, 0xd1, 0x3c, 0xcb, 0xb6, 0xd0, 0xbb,
  0xe2, 0xda, 0x89, 0xbc, 0x78, 0xa1, 0x5d, 0xbd, 0x2b, 0x7a, 0x05, 0xbf,
  0x3d, 0xbb, 0x63, 0xbe, 0x95, 0xc9, 0xc0, 0x3e, 0x90, 0x8f, 0xab, 0xbe,
  0x1c, 0xc8, 0xcb, 0x3d, 0x73, 0xc4, 0x61, 0xbe, 0xcb, 0x64, 0x13, 0x3d,
  0x09, 0x3c, 0xa5, 0x3e, 0xc6, 0x6c, 0x99, 0xbc, 0xbd, 0x61, 0x89, 0x3d,
  0xaf, 0xda, 0x85, 0x3e, 0xbd, 0x84, 0x8b, 0x3e, 0x69, 0xaa, 0x38, 0x3e,
  0xfb, 0xb6, 0x02, 0x3d, 0x18, 0x9a, 0x57, 0xb7, 0x71, 0xe6, 0x37, 0xbe,
  0x33, 0x2b, 0xa4, 0xbe, 0x17, 0x9f, 0xdd, 0xbe, 0xb8, 0x64, 0xe7, 0xbd,
  0x50, 0x19, 0xa6, 0xbe, 0x87, 0xa4, 0x23, 0xbe, 0xa2, 0x28, 0x89, 0x3e,
  0xe3, 0xff, 0x80, 0xbe, 0xc7, 0x7d, 0x91, 0x3d, 0x73, 0x4b, 0x5a, 0xbe,
  0xf9, 0x2c, 0x16, 0x3e, 0x57, 0xad, 0xc2, 0xbd, 0x26, 0x8b, 0x4b, 0x3e,
  0x5b, 0xcb, 0x50, 0xbe, 0xb3, 0x4d, 0x13, 0xbc, 0x09, 0x9d, 0x5a, 0x3c,
  0xcd, 0xf0, 0x25, 0x3d, 0x03, 0xfb, 0x59, 0x3d, 0xa5, 0xe8, 0xa9, 0xbd,
  0x59, 0xf4, 0x30, 0xbe, 0x14, 0x31, 0x4c, 0x3e, 0xee, 0x60, 0xed, 0x3d,
  0x68, 0xc4, 0x05, 0xbe, 0x26, 0x1a, 0x56, 0xbe, 0x7a, 0x3c, 0x53, 0xbc,
  0x5a, 0x1b, 0xec, 0xbc, 0xf2, 0x1a, 0x4c, 0x3d, 0xb0, 0x9e, 0x34, 0xbe,
  0x01, 0x08, 0x9f, 0xbe, 0xaf, 0x5b, 0x59, 0xbe, 0xc8, 0x73, 0x80, 0x3c,
  0xa6, 0x8b, 0xf7, 0xbb, 0x40, 0x8c, 0xff, 0xbd, 0x1a, 0x4c, 0x8e, 0xbc,
  0x8a, 0x0c, 0xf1, 0x3d, 0x07, 0xe3, 0x23, 0x3e, 0xba, 0x70, 0x09, 0x3d,
  0x99, 0x36, 0x54, 0x3e, 0x2d, 0x8c, 0x1f, 0xbd, 0x5e, 0xe8, 0x69, 0xbe,
  0x68, 0x0c, 0x1c, 0x3b, 0x1c, 0x02, 0xe0, 0x3d, 0xb2, 0xf9, 0x5e, 0x3b,
  0x63, 0xe6, 0x36, 0xbd, 0x5b, 0xdd, 0x34, 0xbe, 0xa6, 0x5a, 0x24, 0xbe,
  0x61, 0x47, 0x53, 0xbe, 0x0d, 0x66, 0xbf, 0xbc, 0x94, 0x73, 0x2e, 0xbe,
  0xc1, 0x5d, 0xb5, 0x3d, 0x51, 0x19, 0xe5, 0xbd, 0x33, 0x14, 0x9b, 0xbe,
  0x7c, 0x23, 0xb5, 0xbd, 0x7c, 0x0d, 0x78, 0x3e, 0x7f, 0x90, 0x28, 0xbd,
  0xfc, 0xd1, 0x8d, 0xbe, 0xcd, 0xa8, 0xf1, 0xbd, 0xfe, 0x0e, 0x18, 0xbd,
  0xac, 0xff, 0x1c, 0xbe, 0x99, 0x4d, 0x95, 0x3e, 0xae, 0x37, 0x1d, 0xbe,
  0xf1, 0x7c, 0x1d, 0xbe, 0x83, 0x91, 0xd3, 0xbd, 0xbd, 0xa3, 0x85, 0xbd,
  0xf2, 0x02, 0x18, 0xb9, 0xf3, 0x92, 0x0b, 0x3d, 0x8c, 0xba, 0x72, 0x3c,
  0xba, 0x25, 0xce, 0xbd, 0x2e, 0xd7, 0x28, 0x3d, 0xab, 0x38, 0xdd, 0xbc,
  0x06, 0x54, 0xef, 0x3d, 0x05, 0xb0, 0x9f, 0xbd, 0xc2, 0x07, 0x46, 0xbd,
  0xb6, 0x9f, 0x08, 0xbd, 0xcd, 0x49, 0x57, 0x3d, 0xa9, 0xa3, 0xcd, 0xbd,
  0x81, 0x93, 0x3a, 0x3d, 0xa6, 0xe2, 0xed, 0xbd, 0xb0, 0x5e, 0x18, 0xbe,
  0x70, 0xe7, 0x15, 0xbe, 0x0f, 0xdb, 0x75, 0xbd, 0x26, 0xef, 0x2d, 0x3e,
  0xa3, 0xf2, 0x44, 0xbe, 0xa0, 0x3d, 0x87, 0x3d, 0xad, 0x5f, 0x4d, 0x3e,
  0x2e, 0x14, 0x8d, 0xbd, 0xc4, 0x8a, 0x06, 0x3d, 0x39, 0x2d, 0xdd, 0xbd,
  0x26, 0x0c, 0xbb, 0xbd, 0xf8, 0xae, 0xfb, 0x3d, 0xb0, 0x96, 0x26, 0xbe,
  0x02, 0x83, 0x99, 0x3c, 0xbb, 0xcb, 0x2f, 0xbe, 0x5d, 0x60, 0xf9, 0x3d,
  0x92, 0x35, 0xf9, 0xbd, 0xc5, 0xfb, 0x82, 0x3d, 0x40, 0x0e, 0xb3, 0x3d,
  0xad, 0xe9, 0xad, 0x3e, 0x3d, 0xeb, 0xa3, 0xbc, 0x4f, 0x4b, 0x2e, 0xbd,
  0x4a, 0x56, 0x3c, 0x3e, 0xb1, 0xc5, 0x94, 0x3d, 0xe0, 0xab, 0xf5, 0xbd,
  0xab, 0xe3, 0xec, 0xbe, 0x95, 0xb8, 0x26, 0x3d, 0x4d, 0x9f, 0xa1, 0xbe,
  0x4b, 0xa9, 0x13, 0xbe, 0x9b, 0x70, 0xec, 0xbd, 0x73, 0x7f, 0xdb, 0xbc,
  0xa5, 0x18, 0x21, 0xbe, 0x86, 0xb7, 0x98, 0xbd, 0x7a, 0x17, 0xb3, 0xbd,
  0xe7, 0x29, 0x01, 0x3c, 0xc7, 0x9e, 0xab, 0x3c, 0xb5, 0xd3, 0xf0, 0xbd,
  0xb7, 0xe5, 0x75, 0xbe, 0xce, 0x60, 0xc8, 0x3d, 0xc1, 0x02, 0xf9, 0xbe,
  0x76, 0xcb, 0x8d, 0x3e, 0x35, 0xb6, 0x4e, 0xbe, 0xd5, 0xaf, 0x35, 0xbe,
  0xc5, 0x78, 0x94, 0xbe, 0xce, 0xc5, 0xb7, 0x3e, 0xbe, 0x69, 0x05, 0xbf,
  0x57, 0xd5, 0x3b, 0x3e, 0x6b, 0x51, 0xf1, 0xbd, 0x4e, 0x9c, 0xca, 0x3d,
  0x42, 0x95, 0xbd, 0xbd, 0x83, 0x9d, 0x23, 0x3e, 0x54, 0x67, 0xa7, 0x3d,
  0x4c, 0x0d, 0xea, 0x3e, 0xc7, 0xcd, 0xea, 0xbe, 0xf4, 0x37, 0x2e, 0x3f,
  0x40, 0x24, 0x8c, 0x3c, 0x65, 0xb1, 0xc6, 0x3d, 0xfb, 0x20, 0x8b, 0x3c,
  0x7e, 0x9d, 0x1a, 0xbe, 0xf5, 0x0b, 0x1f, 0x3d, 0x2d, 0x48, 0x1f, 0x3e,
  0x65, 0x97, 0x6a, 0x3c, 0x87, 0xab, 0x55, 0x3e, 0x65, 0x5a, 0x66, 0xbc,
  0xdc, 0xe8, 0xe3, 0xbd, 0xc4, 0x7e, 0xf5, 0xbc, 0x43, 0xcd, 0xf7, 0x3e,
  0x34, 0x13, 0xdf, 0x3d, 0x26, 0x7d, 0x28, 0x3d, 0x35, 0xab, 0x49, 0xbd,
  0xfe, 0xb6, 0xfa, 0x3e, 0x04, 0x18, 0x23, 0x3e, 0x5f, 0x34, 0x89, 0x3e,
  0xde, 0x9f, 0x54, 0xbc, 0xcb, 0xce, 0xc4, 0xbe, 0x82, 0x7f, 0xfa, 0x3d,
  0xad, 0xc4, 0x53, 0x3e, 0x08, 0xb0, 0x92, 0x3e, 0x22, 0x70, 0x22, 0x3f,
  0x69, 0x28, 0x44, 0x3e, 0x01, 0x19, 0xec, 0x3c, 0xf3, 0xe1, 0xdc, 0xbd,
  0x12, 0x85, 0x0a, 0x3f, 0xce, 0x5b, 0x9f, 0x3e, 0xba, 0xc3, 0x5d, 0xbd,
  0x34, 0x88, 0x94, 0xbe, 0x84, 0xe8, 0xb8, 0x3e, 0x7c, 0x35, 0x22, 0x3d,
  0xba, 0x86, 0x28, 0xbe, 0x48, 0xac, 0x04, 0xbd, 0x6e, 0x05, 0xc9, 0xbe,
  0xf7, 0xd6, 0x78, 0x3e, 0x3f, 0x7e, 0xf3, 0x3d, 0xd9, 0xde, 0xa1, 0x3e,
  0xa7, 0xb4, 0x00, 0x3f, 0xf9, 0x3e, 0xa7, 0x3e, 0x68, 0x14, 0x0a, 0xbd,
  0xe7, 0x1a, 0x62, 0xbe, 0x3b, 0x33, 0x56, 0x3e, 0x18, 0x97, 0x6d, 0x3e,
  0x6e, 0x75, 0xa3, 0xbd, 0x37, 0x66, 0x59, 0xbe, 0x2b, 0x17, 0xda, 0x3e,
  0xfa, 0xc9, 0xf6, 0xbd, 0x25, 0xfb, 0x83, 0x3c, 0x96, 0xbe, 0x86, 0x3d,
  0x48, 0x4c, 0xaf, 0xbe, 0xa3, 0x22, 0xc2, 0x3e, 0x96, 0xf4, 0x4e, 0x3e,
  0xc6, 0x9f, 0x2a, 0x3e, 0x0b, 0x40, 0x1f, 0x3c, 0x19, 0x7c, 0x06, 0x3e,
  0x7b, 0xa5, 0x82, 0x3c, 0xbd, 0x17, 0x1e, 0x3e, 0x4f, 0xcf, 0xdb, 0x3e,
  0xbc, 0xf0, 0xd8, 0x3d, 0x3a, 0x3a, 0xa3, 0xbd, 0x14, 0x74, 0xed, 0xbb,
  0x26, 0x0c, 0x26, 0x3f, 0x81, 0x2e, 0x63, 0xbe, 0x98, 0xe9, 0xce, 0x3d,
  0xd6, 0x35, 0x66, 0xbd, 0x57, 0x65, 0x11, 0x3e, 0x45, 0xb8, 0x9a, 0x3e,
  0x93, 0x9e, 0xa8, 0x3d, 0x4b, 0xf3, 0x36, 0xbe, 0x5c, 0x5a, 0x88, 0x3d,
  0x0e, 0x3f, 0x29, 0xbd, 0x62, 0xb3, 0x73, 0x3d, 0x73, 0x3d, 0x16, 0xbd,
  0x55, 0x26, 0xc3, 0x3e, 0xb6, 0x2c, 0xbd, 0x3e, 0x65, 0x5c, 0xcc, 0x3d,
  0x8e, 0xef, 0xd1, 0xbd, 0x8d, 0xf9, 0x17, 0x3f, 0xce, 0x45, 0x8e, 0xbd,
  0x6b, 0xb2, 0x04, 0xbe, 0xf0, 0x26, 0xf9, 0xbd, 0x8f, 0x81, 0x0a, 0x3f,
  0x0a, 0xf6, 0x0a, 0xbe, 0x49, 0x19, 0x04, 0x3f, 0x92, 0x73, 0x56, 0xbe,
  0x2f, 0x0e, 0xc5, 0xbe, 0x34, 0xd4, 0xc8, 0xbd, 0xaf, 0x80, 0xd7, 0x3c,
  0x20, 0x1a, 0x99, 0xbe, 0x8c, 0x70, 0xb1, 0xbe, 0xc4, 0x02, 0xbb, 0x3c,
  0x11, 0x37, 0xec, 0x3e, 0x83, 0x23, 0x28, 0xbe, 0xaa, 0x5b, 0x9b, 0x3e,
  0xb7, 0x5e, 0x02, 0x3f, 0xfb, 0x85, 0x20, 0xbe, 0x82, 0xa5, 0xdd, 0xbc,
  0x90, 0xb7, 0x8c, 0x3f, 0xcb, 0x93, 0xf4, 0x3e, 0x34, 0xe1, 0x04, 0xbf,
  0x1d, 0x0d, 0x17, 0x3f, 0x77, 0x4e, 0xe7, 0x3e, 0xda, 0xfd, 0xe1, 0x3e,
  0xd3, 0xbd, 0x8d, 0xbe, 0x1a, 0x2a, 0x56, 0xbd, 0xa0, 0x89, 0xce, 0xbe,
  0x0a, 0xcf, 0x1a, 0xbf, 0x8f, 0xe2, 0x82, 0xbe, 0xe4, 0xd0, 0xeb, 0x3e,
  0x8b, 0xc0, 0xc3, 0xbe, 0x5b, 0x3a, 0x84, 0xbc, 0x1e, 0xf3, 0xe6, 0xbd,
  0x55, 0x60, 0xf5, 0xbd, 0x0c, 0x89, 0x98, 0x3f, 0xd5, 0xad, 0xf7, 0x3d,
  0x24, 0x93, 0x34, 0xbd, 0x57, 0x18, 0x27, 0x3e, 0xeb, 0xba, 0xb0, 0x3d,
  0x74, 0x3d, 0x43, 0xbb, 0xdc, 0xfc, 0x09, 0xbe, 0x9c, 0x67, 0x44, 0x3d,
  0xfc, 0xfb, 0xc5, 0xbb, 0xec, 0xb1, 0xc7, 0xbe, 0x4f, 0x27, 0x3c, 0xbe,
  0xb2, 0x2d, 0x71, 0x3b, 0x42, 0xd3, 0xaa, 0x3d, 0x67, 0xf7, 0x2d, 0x3c,
  0x9e, 0xb9, 0xc7, 0xbd, 0x64, 0x8d, 0xe3, 0xbd, 0x4b, 0x6e, 0xa6, 0x3f,
  0x52, 0xf2, 0x01, 0xbe, 0xb9, 0x09, 0x76, 0xbd, 0xb6, 0xbd, 0x8b, 0xbe,
  0xe2, 0x1d, 0x9f, 0xbe, 0x85, 0x5c, 0x88, 0xbe, 0x79, 0xe3, 0x94, 0xbd,
  0xf5, 0xb3, 0x25, 0x3b, 0x64, 0x9c, 0x7a, 0x3d, 0xa3, 0xac, 0x00, 0xbf,
  0xcc, 0x82, 0xd0, 0xbc, 0x6e, 0xf0, 0xcb, 0x3d, 0x3b, 0xad, 0x12, 0xbd,
  0xf3, 0x0c, 0x2c, 0xbe, 0x52, 0x5b, 0x13, 0x3c, 0x63, 0x99, 0xbe, 0xbd,
  0x07, 0x58, 0xa4, 0x3f, 0xd9, 0xe7, 0x29, 0xbe, 0xa7, 0xe4, 0x05, 0x3e,
  0xac, 0xc4, 0xb9, 0xbe, 0x33, 0x3a, 0x83, 0xbe, 0xa3, 0xc3, 0x0b, 0xbe,
  0x86, 0xda, 0x90, 0xbd, 0x62, 0xf2, 0x84, 0x39, 0x25, 0xb1, 0x40, 0xbd,
  0xfc, 0x61, 0xa7, 0xbe, 0x04, 0x7f, 0x3d, 0xbd, 0x7e, 0x5f, 0x90, 0x3e,
  0x6a, 0xe6, 0xfc, 0xbc, 0xc3, 0xf6, 0xe3, 0x3d, 0xfc, 0x70, 0x2b, 0xbd,
  0x12, 0xfb, 0x01, 0xbd, 0x60, 0x94, 0x6a, 0x3f, 0x69, 0x47, 0x0b, 0xbe,
  0x22, 0xe1, 0x93, 0x3d, 0xaa, 0x22, 0x86, 0xbe, 0x98, 0x4b, 0x8a, 0xbe,
  0x9d, 0xc5, 0xf6, 0xbc, 0x9d, 0xdb, 0x47, 0xbd, 0xcc, 0x54, 0xb1, 0xbc,
  0xfe, 0xb5, 0xa5, 0xbd, 0x41, 0x67, 0xab, 0xbe, 0x33, 0x65, 0x5e, 0xbc,
  0x4d, 0x0e, 0x00, 0x3e, 0x83, 0xdd, 0x49, 0xbc, 0x77, 0x72, 0x86, 0x3e,
  0xaf, 0x04, 0x14, 0x3c, 0xe9, 0x5d, 0x08, 0xbc, 0x1e, 0xd7, 0x7c, 0x3f,
  0xfd, 0x55, 0x8a, 0xbd, 0x19, 0xbb, 0xe6, 0x3b, 0x9f, 0xb9, 0xb7, 0x3b,
  0xb1, 0x9f, 0xf2, 0x3e, 0xb4, 0x03, 0x09, 0x3d, 0x25, 0xe5, 0x45, 0x3d,
  0x1f, 0x55, 0x55, 0x3c, 0x25, 0xf7, 0xd3, 0x3c, 0xaf, 0x0c, 0xd5, 0xbe,
  0x4b, 0xdc, 0xbe, 0xbd, 0xde, 0xa8, 0xcb, 0x3d, 0x42, 0xce, 0x35, 0xbe,
  0x9d, 0xb1, 0xb7, 0x3a, 0xa4, 0xbc, 0x6c, 0xbd, 0x5c, 0x7f, 0x2b, 0xbd,
  0xb4, 0x80, 0x3a, 0x3e, 0x43, 0xb8, 0x1e, 0xbe, 0x71, 0x38, 0x51, 0x3e,
  0xa9, 0x7e, 0xa4, 0x3d, 0x53, 0x37, 0x81, 0x3e, 0x23, 0x73, 0x24, 0x3c,
  0x21, 0x06, 0x81, 0xbd, 0xad, 0xf7, 0x9b, 0x3c, 0xa9, 0x7f, 0xe5, 0xbd,
  0xf7, 0x7b, 0xca, 0xbe, 0x56, 0x14, 0x59, 0xbe, 0x50, 0xb2, 0x45, 0xbd,
  0x12, 0x1b, 0x96, 0xbe, 0x00, 0x37, 0x4e, 0xbf, 0x36, 0x6b, 0x18, 0x3e,
  0x1a, 0xe4, 0x03, 0xbe, 0x9d, 0x0f, 0x76, 0xbe, 0x37, 0xb2, 0xf6, 0xbe,
  0x78, 0x35, 0x3a, 0x3e, 0x63, 0x16, 0x26, 0xbf, 0xf1, 0x1b, 0x65, 0xbe,
  0x17, 0x20, 0x13, 0xbe, 0x28, 0x68, 0x3e, 0x3c, 0x93, 0x27, 0x75, 0xbd,
  0x67, 0x77, 0xe2, 0x3e, 0x44, 0xbb, 0xa1, 0x3e, 0x25, 0xa0, 0x9c, 0x3e,
  0x13, 0x4b, 0x3b, 0xbe, 0xe7, 0x96, 0x92, 0x3e, 0x14, 0x13, 0xa2, 0xbd,
  0xc5, 0xc8, 0xba, 0x3e, 0xf8, 0x6a, 0x83, 0xbe, 0x63, 0x86, 0x24, 0x3c,
  0x00, 0xb1, 0x93, 0xbe, 0x0d, 0xfa, 0x50, 0x3e, 0x68, 0xe5, 0x34, 0x3e,
  0x31, 0x22, 0x84, 0x3d, 0x77, 0xb1, 0x47, 0x3e, 0x02, 0xda, 0x12, 0xbe,
  0x7c, 0xfb, 0x44, 0x3c, 0xd4, 0x57, 0x83, 0x3e, 0x0f, 0xba, 0xd1, 0x3d,
  0xc8, 0x46, 0x8f, 0xbd, 0xd1, 0xc3, 0x41, 0xbe, 0xc1, 0x32, 0xaf, 0x3e,
  0x1e, 0xe9, 0xc5, 0xbd, 0x6c, 0xb5, 0x33, 0x3e, 0x8e, 0xdb, 0xbb, 0xbd,
  0x25, 0xc0, 0x78, 0xbe, 0xc2, 0xf2, 0x84, 0x3d, 0xcc, 0xd8, 0x8a, 0x3e,
  0xf1, 0x81, 0x0d, 0x3e, 0x78, 0x2d, 0x70, 0x3d, 0x2a, 0x38, 0xae, 0x3e,
  0x02, 0x01, 0xa3, 0xbd, 0x18, 0x45, 0x41, 0xbd, 0x05, 0x4d, 0x77, 0x3e,
  0xd3, 0x34, 0x62, 0x3e, 0x04, 0x2a, 0x55, 0x3e, 0xd6, 0xac, 0x24, 0xbe,
  0x15, 0x05, 0x92, 0x3e, 0x47, 0xb9, 0x0c, 0x3f, 0x12, 0x84, 0x75, 0x3e,
  0xe2, 0xff, 0x5a, 0xbd, 0x79, 0x11, 0x8c, 0xbe, 0x6c, 0x96, 0xe1, 0xbd,
  0x71, 0x46, 0x09, 0xbe, 0x44, 0x4b, 0xd1, 0x3d, 0x52, 0x52, 0x81, 0x3e,
  0xbc, 0x59, 0xf0, 0x3d, 0x12, 0x49, 0x82, 0xbe, 0xf3, 0x03, 0x0e, 0xbd,
  0xfd, 0xcd, 0x7d, 0x3e, 0xff, 0x67, 0x05, 0x3d, 0xd4, 0x64, 0x75, 0x3d,
  0x30, 0x09, 0x4d, 0xbd, 0x11, 0xb8, 0x8e, 0x3e, 0xd3, 0x46, 0x16, 0xbe,
  0xed, 0xd0, 0x63, 0x3e, 0xc9, 0xf3, 0x91, 0xbe, 0x44, 0xb9, 0x07, 0xbe,
  0x21, 0xc3, 0x1d, 0xbd, 0x2d, 0xb7, 0x78, 0x3e, 0xed, 0xce, 0x6a, 0x3d,
  0x2d, 0xd1, 0xc6, 0xbd, 0x1a, 0x34, 0x9c, 0x3e, 0xd9, 0x73, 0xc7, 0xbd,
  0x8d, 0x3f, 0x35, 0x3b, 0xad, 0x2e, 0xf0, 0xbd, 0xa6, 0xca, 0x32, 0x3e,
  0x64, 0xfc, 0x91, 0x3e, 0xed, 0x88, 0xbf, 0xbc, 0x30, 0x45, 0xe8, 0x3e,
  0x24, 0xda, 0xa9, 0xbd, 0x19, 0x08, 0x5f, 0x3e, 0x36, 0x16, 0x11, 0xbe,
  0xa1, 0xa4, 0x82, 0xbe, 0xda, 0x4c, 0xb8, 0x3d, 0xd7, 0xad, 0x8f, 0xbd,
  0xda, 0xec, 0x35, 0xbc, 0x80, 0xa2, 0x8b, 0xbe, 0xcb, 0xe8, 0x9b, 0x3d,
  0x5d, 0xc9, 0x50, 0xbe, 0xeb, 0x2e, 0x6a, 0x3d, 0x9c, 0x55, 0x76, 0x3e,
  0xb0, 0x69, 0x1b, 0x3e, 0x02, 0x66, 0x07, 0xbd, 0x43, 0xaa, 0xb9, 0x3d,
  0xda, 0xa7, 0x9d, 0x3e, 0x0f, 0x49, 0x9c, 0xbe, 0x92, 0xcf, 0x8a, 0xbd,
  0xaf, 0xed, 0x8c, 0xbe, 0x3a, 0x62, 0xc4, 0x3e, 0x9c, 0x8c, 0x9a, 0xbe,
  0x95, 0x88, 0xf7, 0x3e, 0x39, 0xbb, 0x9f, 0xbe, 0xc3, 0x84, 0x9e, 0xbe,
  0x50, 0xaf, 0x3e, 0x3e, 0x59, 0xeb, 0xc9, 0x3d, 0x4b, 0x7d, 0x63, 0x3d,
  0x04, 0xb3, 0x3e, 0xbe, 0xf1, 0xa4, 0xfd, 0x3d, 0xba, 0xdc, 0xb8, 0x3e,
  0xbe, 0x0c, 0xf5, 0x3c, 0x75, 0x72, 0xef, 0x3c, 0x41, 0xb7, 0x05, 0xbe,
  0x6d, 0x1a, 0x29, 0x3e, 0xa0, 0x61, 0xda, 0xbe, 0x6e, 0x4f, 0xa1, 0x3f,
  0x3a, 0x98, 0x8f, 0xbe, 0xc4, 0x28, 0xb9, 0x3e, 0xd7, 0xda, 0xe5, 0x3d,
  0x2a, 0x83, 0xc0, 0xbd, 0x4c, 0x0a, 0xbc, 0xbd, 0x72, 0x28, 0x96, 0xbe,
  0x47, 0x63, 0x95, 0x3c, 0xce, 0xa6, 0x0e, 0x3e, 0x0d, 0xd3, 0x99, 0x3c,
  0x77, 0x77, 0x9f, 0xbe, 0x82, 0xb5, 0x84, 0xbd, 0x00, 0x75, 0x16, 0xbe,
  0xab, 0x1a, 0x6c, 0xbc, 0x41, 0x87, 0xcb, 0xbb, 0x53, 0xe7, 0x81, 0xbe,
  0x6f, 0xf0, 0x5e, 0x3f, 0xeb, 0xd3, 0x6b, 0xbe, 0x6f, 0xb9, 0xf7, 0x3d,
  0x48, 0xba, 0x25, 0x3d, 0xf4, 0xf9, 0x24, 0x3e, 0xbb, 0x4d, 0x2a, 0xbe,
  0x5c, 0x2d, 0xec, 0xbc, 0x77, 0xcd, 0x8a, 0x3d, 0xec, 0x86, 0x8f, 0xbd,
  0xd8, 0xdf, 0x8d, 0xbe, 0x1c, 0x15, 0xb1, 0xbe, 0x5d, 0x99, 0x04, 0xbe,
  0x29, 0xe4, 0x54, 0xbd, 0x56, 0xaa, 0x99, 0xbd, 0xa5, 0xab, 0x80, 0xbe,
  0xbf, 0xa8, 0x2d, 0xbe, 0x53, 0xbe, 0xb8, 0x3f, 0x35, 0xf3, 0x72, 0x3d,
  0xc2, 0x29, 0x4a, 0x3e, 0xe9, 0x45, 0x3c, 0x3d, 0xe6, 0x02, 0xe8, 0x3c,
  0x84, 0x5c, 0xb4, 0xbd, 0xd3, 0x8c, 0xe9, 0x3a, 0x5d, 0xb8, 0x0b, 0xbe,
  0xad, 0xbe, 0xb0, 0x3d, 0x78, 0xac, 0x15, 0x3d, 0xdb, 0x26, 0xed, 0xbd,
  0x84, 0x0c, 0x80, 0x3d, 0x66, 0xde, 0x50, 0x3d, 0xeb, 0xf4, 0xfb, 0xbd,
  0x7d, 0xe3, 0x47, 0xbe, 0x8d, 0xf8, 0x4f, 0xbe, 0xfd, 0x65, 0xbe, 0x3f,
  0x25, 0x6a, 0xdb, 0xbd, 0xf4, 0xf7, 0x16, 0x3d, 0x4a, 0xb9, 0xb5, 0xbc,
  0x9d, 0x92, 0x5f, 0x3e, 0x50, 0x4e, 0x65, 0xbe, 0x9c, 0xb2, 0x19, 0x3b,
  0xba, 0x35, 0xe4, 0xbd, 0x24, 0x5e, 0x55, 0x3e, 0xde, 0x61, 0x84, 0xbe,
  0xad, 0xd9, 0x82, 0xbe, 0xad, 0x95, 0x60, 0xbd, 0xc2, 0x27, 0x65, 0xbd,
  0xf6, 0xca, 0x9b, 0xbb, 0xe5, 0x68, 0x47, 0xbd, 0xcf, 0x1e, 0xaa, 0xbe,
  0xfe, 0xd7, 0x86, 0x3f, 0x5e, 0x09, 0xfa, 0xbd, 0x5f, 0x49, 0x9f, 0x3e,
  0x85, 0x23, 0xaf, 0x3c, 0x30, 0x78, 0x05, 0x3e, 0xd8, 0x55, 0xa5, 0x3d,
  0x0f, 0xbc, 0x97, 0xbe, 0xea, 0x6a, 0xfc, 0xbd, 0xd5, 0x7e, 0x3d, 0x3e,
  0x9d, 0x0c, 0x10, 0xbe, 0x9d, 0x2b, 0x47, 0x3c, 0x85, 0x26, 0x55, 0xbd,
  0x5a, 0x72, 0xe8, 0xbc, 0x85, 0x30, 0x27, 0xbe, 0xdd, 0x5c, 0xb1, 0x3c,
  0x30, 0xf5, 0x7c, 0xbe, 0xad, 0xcb, 0xbc, 0x3f, 0xb9, 0xb7, 0x11, 0xbe,
  0x58, 0xf5, 0x86, 0x3e, 0xd0, 0x93, 0x92, 0xbe, 0x5c, 0xd8, 0x05, 0xbd,
  0x2a, 0x99, 0x3b, 0xbe, 0x80, 0x26, 0x38, 0xbe, 0x83, 0x2d, 0x0b, 0x3e,
  0xf1, 0x46, 0xf8, 0x3d, 0x69, 0x94, 0x65, 0xbe, 0x6d, 0xa9, 0x03, 0x3d,
  0xb5, 0xd8, 0xce, 0x3d, 0x57, 0x93, 0x37, 0xbe, 0x9e, 0xd3, 0x84, 0xbe,
  0xd1, 0x77, 0x76, 0xba, 0xe8, 0x1d, 0xba, 0xbe, 0x4b, 0x5d, 0xbc, 0x3e,
  0xdf, 0x52, 0x1b, 0xbe, 0xfe, 0xd4, 0x00, 0x3e, 0xeb, 0xcc, 0xa7, 0xbd,
  0xd6, 0x4e, 0x3c, 0xbe, 0xf2, 0x6d, 0x3f, 0xbe, 0x54, 0x62, 0xc2, 0x3d,
  0x2a, 0xbc, 0x41, 0x3d, 0x64, 0x4f, 0x48, 0x3d, 0x3d, 0x7e, 0x9f, 0xbe,
  0x97, 0x0d, 0x05, 0x3d, 0xfd, 0x7f, 0xe3, 0xbd, 0xfa, 0x4d, 0x8c, 0xbc,
  0x5d, 0x58, 0x82, 0xbe, 0x39, 0xbf, 0x34, 0xbe, 0x62, 0x69, 0xb5, 0xbe,
  0x35, 0x9b, 0xe8, 0x3f, 0x58, 0x58, 0x6c, 0xbe, 0xea, 0x9c, 0xc9, 0x3e,
  0xc8, 0x84, 0x08, 0xbe, 0x2e, 0xf8, 0x0d, 0x3e, 0x90, 0x66, 0x42, 0xbe,
  0x66, 0x9a, 0xf6, 0x3c, 0x5f, 0x9b, 0xe2, 0x3d, 0x14, 0x4d, 0x2d, 0x3e,
  0x36, 0xbb, 0xc9, 0x3c, 0x32, 0x42, 0x89, 0xbd, 0x71, 0xb8, 0x74, 0xbe,
  0x45, 0xf1, 0x3f, 0xbe, 0x48, 0xdd, 0x80, 0xbe, 0xa6, 0xe3, 0xaa, 0x3c,
  0x86, 0x18, 0x93, 0xbe, 0x04, 0x79, 0xaf, 0x3f, 0xaf, 0x07, 0xe8, 0xbd,
  0x4b, 0x1d, 0xc9, 0x3c, 0x5a, 0x84, 0x0f, 0xbe, 0xcb, 0xfd, 0xba, 0x3d,
  0x71, 0xb6, 0x43, 0xbe, 0xc8, 0xe4, 0x77, 0xbe, 0xa1, 0x33, 0xe3, 0x3d,
  0x28, 0x31, 0xab, 0x3e, 0x3c, 0xa8, 0x48, 0x3c, 0x65, 0x55, 0x2b, 0xbe,
  0xdc, 0xea, 0x26, 0xbd, 0x38, 0x39, 0xd4, 0x3d, 0xdf, 0x06, 0x3a, 0xbd,
  0x14, 0x38, 0x83, 0x3d, 0x58, 0xdc, 0x53, 0xbe, 0x8a, 0x49, 0xc4, 0x3f,
  0x57, 0x7d, 0x6e, 0xbe, 0x7b, 0x22, 0x60, 0x3e, 0x98, 0xfe, 0x59, 0xbe,
  0x45, 0x5b, 0xdf, 0xbc, 0xbe, 0xe1, 0x32, 0x3e, 0x49, 0x98, 0xa5, 0xbe,
  0xb4, 0x2f, 0x35, 0x3d, 0x5c, 0x2c, 0xeb, 0x3e, 0xed, 0x2e, 0x44, 0xbe,
  0xa7, 0x3d, 0x07, 0xbe, 0x53, 0xfa, 0xf7, 0xbd, 0x96, 0x51, 0xf1, 0xbd,
  0x0d, 0x7d, 0x30, 0x3d, 0xb0, 0x27, 0x6a, 0x3d, 0x4f, 0x93, 0x99, 0xbe,
  0x3a, 0xbb, 0xd2, 0x3f, 0x1d, 0x4b, 0xef, 0x3d, 0xea, 0xbb, 0xc7, 0xbd,
  0xa1, 0xee, 0x10, 0xbd, 0x71, 0xd8, 0x7f, 0xbd, 0xe1, 0x99, 0xf7, 0xbd,
  0x4c, 0xd5, 0x87, 0xbe, 0x65, 0x16, 0xb3, 0xbd, 0x59, 0x24, 0xa1, 0x3e,
  0xd1, 0x66, 0x84, 0xbd, 0x17, 0x9d, 0x1c, 0xbe, 0xab, 0x0d, 0x55, 0xbe,
  0xf4, 0xd0, 0x95, 0xbe, 0x9a, 0x2e, 0x52, 0x3d, 0x5f, 0x98, 0x10, 0x3e,
  0xfb, 0x2a, 0x37, 0xbe, 0x58, 0xe0, 0xbf, 0x3f, 0x07, 0x1b, 0xdc, 0xbd,
  0xed, 0x2f, 0x35, 0x3d, 0xa1, 0xf7, 0xc8, 0x3c, 0x39, 0xda, 0x88, 0x3e,
  0x31, 0x8a, 0x28, 0x3d, 0x4f, 0xc7, 0x21, 0xbe, 0x2b, 0xdd, 0x6e, 0x3d,
  0xa6, 0x7d, 0x94, 0x3e, 0xed, 0x34, 0x10, 0xbc, 0x34, 0x70, 0x27, 0x3d,
  0x23, 0xa1, 0xf7, 0x3c, 0xcb, 0xb6, 0xd4, 0x3c, 0xd0, 0x4c, 0x95, 0xbe,
  0x1a, 0x0b, 0xe2, 0x3d, 0x56, 0xe6, 0x15, 0xbd, 0x9d, 0xa8, 0xa1, 0x3f,
  0x07, 0xb3, 0x83, 0xbe, 0x4a, 0x98, 0x83, 0x3e, 0x4c, 0x45, 0x2b, 0x3e,
  0x17, 0xa4, 0x01, 0x3e, 0x54, 0x90, 0x55, 0x3e, 0x8a, 0xbd, 0x0d, 0xbe,
  0x92, 0x99, 0x05, 0x3d, 0x17, 0xaf, 0xb5, 0xbd, 0x1e, 0x28, 0xfc, 0xbd,
  0x69, 0x1f, 0x4f, 0xbc, 0x1d, 0xe6, 0x04, 0xbe, 0xba, 0xa8, 0xbd, 0xbd,
  0xbd, 0x6e, 0x65, 0xbe, 0x04, 0x07, 0x97, 0xbe, 0x34, 0x8b, 0x81, 0xbe,
  0x8e, 0xa9, 0x72, 0x3e, 0x11, 0x9b, 0x16, 0xbe, 0x3f, 0x5f, 0x61, 0xbe,
  0x74, 0x4e, 0xb9, 0xbe, 0x98, 0xb8, 0x1e, 0x3e, 0xc8, 0x16, 0x2a, 0xbd,
  0xd5, 0xd0, 0x24, 0xbe, 0xc7, 0xe0, 0x55, 0x3d, 0xaf, 0x34, 0x5b, 0xbe,
  0x39, 0x5a, 0x57, 0xbd, 0x55, 0x8d, 0x36, 0x3c, 0x85, 0x8e, 0xaf, 0xbe,
  0x41, 0x93, 0xc8, 0xbd, 0x8d, 0x57, 0x4d, 0xbd, 0x38, 0x6d, 0xa3, 0x3c,
  0x39, 0x7f, 0x4b, 0xbe, 0x3d, 0xea, 0xa3, 0x3d, 0xb0, 0x6e, 0x3d, 0x3c,
  0xd6, 0x1c, 0xc0, 0xbd, 0xa3, 0x12, 0x7b, 0x3d, 0xe4, 0xfc, 0x0c, 0xbc,
  0x42, 0x9c, 0xfb, 0xbc, 0x73, 0xd0, 0xa1, 0xbb, 0x87, 0x76, 0xa0, 0xbd,
  0xe4, 0x47, 0x1e, 0xbd, 0xf0, 0xf9, 0x3f, 0xbd, 0x4b, 0xd3, 0x69, 0xbe,
  0x20, 0x08, 0x11, 0xbe, 0x03, 0x1a, 0xad, 0x3b, 0xff, 0x1d, 0x1b, 0xbe,
  0xf5, 0xa7, 0x3a, 0xbd, 0x3c, 0x17, 0xdf, 0xbd, 0x48, 0x1d, 0xe0, 0x3d,
  0x27, 0x2e, 0x45, 0xbe, 0x2b, 0x8e, 0x3e, 0xbd, 0x48, 0x08, 0x80, 0xbe,
  0x53, 0xaa, 0x78, 0xbb, 0x0c, 0x37, 0xcd, 0x3d, 0x2a, 0x08, 0x9b, 0xbe,
  0xa8, 0xbf, 0x83, 0xbe, 0x8c, 0xb6, 0x5a, 0xbe, 0x9f, 0x8d, 0x50, 0xbe,
  0x40, 0xcf, 0x90, 0xbd, 0x3a, 0x55, 0x90, 0xbe, 0xe3, 0x29, 0x69, 0x3e,
  0x1c, 0xde, 0x85, 0x3d, 0xbd, 0x1f, 0xcd, 0x3c, 0x6b, 0x65, 0x98, 0xbe,
  0x1a, 0x00, 0x08, 0x3e, 0x38, 0xcb, 0x41, 0xbc, 0x9f, 0xf7, 0x3b, 0xbe,
  0x21, 0x0e, 0x6d, 0xbe, 0xe3, 0x52, 0x58, 0x3d, 0x0e, 0xa3, 0xb8, 0x3b,
  0x03, 0xf4, 0x12, 0xbe, 0xc2, 0xf9, 0x40, 0xbe, 0xce, 0x2a, 0x3c, 0xbe,
  0x14, 0x52, 0xb9, 0x3d, 0x25, 0xef, 0xf5, 0xbc, 0x25, 0x9f, 0x37, 0x3d,
  0xfb, 0x9a, 0x7a, 0x3e, 0xe1, 0x1c, 0x75, 0xbd, 0xa4, 0x9c, 0x97, 0x3d,
  0xcc, 0x11, 0xe1, 0xbc, 0xe7, 0xdb, 0x75, 0x3d, 0x28, 0xcc, 0xc9, 0x3c,
  0x60, 0x71, 0xbd, 0xbd, 0x58, 0xce, 0x2a, 0x3d, 0x01, 0x89, 0x3a, 0x3d,
  0x99, 0xb1, 0xb1, 0x3d, 0x35, 0xbd, 0x96, 0xbe, 0xad, 0x6d, 0x7f, 0xbe,
  0xad, 0x27, 0x20, 0x3c, 0xfa, 0xc7, 0x98, 0xbd, 0xd1, 0x1a, 0x8c, 0x3d,
  0xdc, 0x85, 0x1e, 0x3e, 0x9d, 0x6a, 0x08, 0x3e, 0x6d, 0xe0, 0x2b, 0x3d,
  0xfb, 0x85, 0x13, 0xbd, 0xbc, 0x9a, 0x2d, 0xbd, 0x8a, 0xaa, 0x6f, 0xbd,
  0x1f, 0x47, 0x86, 0xbe, 0xe4, 0x76, 0xd9, 0x3c, 0xa6, 0xed, 0x0f, 0xbe,
  0xbc, 0xa1, 0x49, 0xbe, 0xfc, 0x69, 0x85, 0xbd, 0xca, 0xe5, 0x32, 0xbe,
  0x83, 0xb3, 0x4b, 0xbd, 0x12, 0x0c, 0xe4, 0xbd, 0x45, 0x87, 0xd3, 0x3d,
  0xdf, 0xae, 0xea, 0x3d, 0xbc, 0x16, 0x80, 0xbc, 0x99, 0xc3, 0x80, 0xbc,
  0xf4, 0xe7, 0xfe, 0xbd, 0x79, 0x0d, 0x98, 0xbd, 0x87, 0x0a, 0xa4, 0xbe,
  0x70, 0x3b, 0xbb, 0xbc, 0x11, 0xc1, 0x34, 0xbe, 0xc3, 0xfb, 0x04, 0x3c,
  0x33, 0x58, 0x50, 0x3c, 0x47, 0x0e, 0x96, 0x3d, 0x0f, 0x8a, 0x70, 0x3c,
  0xed, 0x03, 0x4f, 0x3d, 0xfb, 0x79, 0x63, 0xbe, 0x3a, 0x21, 0x74, 0x3c,
  0x22, 0xd3, 0xd3, 0x3d, 0x46, 0xa9, 0x67, 0xbe, 0x6b, 0x59, 0x85, 0x3d,
  0x48, 0x07, 0x27, 0xbe, 0x8b, 0x56, 0x07, 0xbd, 0x7b, 0x71, 0x1f, 0xbe,
  0xcc, 0x78, 0x5d, 0xbd, 0x83, 0xd5, 0x2d, 0xbe, 0xe2, 0xaa, 0x90, 0xbb,
  0xfd, 0xba, 0xf4, 0xbd, 0x38, 0x30, 0xbe, 0xbb, 0x79, 0x89, 0x16, 0xbe,
  0x4f, 0x3c, 0xf1, 0xbd, 0x9a, 0x1e, 0x70, 0xbe, 0xf6, 0x25, 0x3b, 0xbe,
  0xae, 0xa4, 0xb6, 0x3d, 0x70, 0xf0, 0x87, 0x3c, 0x88, 0xc3, 0x84, 0xbe,
  0xa5, 0x7d, 0x33, 0xbe, 0x24, 0x1f, 0x13, 0x3e, 0xd0, 0x68, 0x10, 0xbe,
  0x8f, 0x16, 0xbb, 0xbd, 0x77, 0x8b, 0x09, 0xbe, 0xe0, 0x3f, 0xea, 0x3f,
  0x54, 0x79, 0x91, 0xbd, 0xf8, 0x21, 0x44, 0x3d, 0x44, 0x2d, 0x65, 0x3d,
  0xe8, 0xee, 0x55, 0xbe, 0xe4, 0xa2, 0x3e, 0xbe, 0x34, 0x72, 0xf5, 0xbd,
  0xb6, 0x69, 0xc5, 0xbd, 0x5e, 0x27, 0x28, 0xbe, 0x13, 0x76, 0x5d, 0xbe,
  0x7a, 0x4c, 0x53, 0x3d, 0xf2, 0x21, 0x64, 0xbd, 0x26, 0x14, 0x0c, 0xbd,
  0xe5, 0x2c, 0x86, 0x3d, 0x85, 0x5c, 0x89, 0xbe, 0xc2, 0x21, 0xdf, 0xbd,
  0x6a, 0x38, 0xe4, 0x3f, 0xf4, 0xf0, 0xac, 0x3d, 0x32, 0xf9, 0xb8, 0x3c,
  0x46, 0x57, 0x8f, 0xbd, 0x19, 0xac, 0x20, 0xbe, 0xf5, 0x8d, 0xa8, 0xbd,
  0x58, 0xe7, 0x53, 0xbe, 0x39, 0xb5, 0xec, 0xbd, 0x8c, 0x1b, 0x08, 0x3e,
  0x2c, 0xc2, 0x22, 0xbe, 0x30, 0x2c, 0x05, 0x3e, 0x59, 0x9d, 0x7c, 0x3d,
  0x4d, 0x7f, 0xfa, 0xbd, 0xa6, 0x29, 0x5b, 0xbe, 0xe3, 0xbb, 0x4d, 0xbd,
  0xa6, 0x4d, 0xb8, 0xbd, 0xae, 0x8a, 0xe0, 0x3f, 0xaf, 0x8e, 0xa7, 0x3d,
  0x52, 0x8c, 0x3a, 0x3e, 0x40, 0x11, 0x8f, 0x39, 0xcb, 0x68, 0xa4, 0xbc,
  0xe2, 0xc9, 0x1c, 0x3c, 0x04, 0x6c, 0x5e, 0xbe, 0xb8, 0xc0, 0xc1, 0xbe,
  0x23, 0xee, 0x3d, 0x3e, 0x86, 0xf6, 0x92, 0xbd, 0x13, 0xe1, 0x40, 0x3b,
  0x4d, 0xbe, 0x0a, 0x3e, 0x6b, 0x92, 0x52, 0xbe, 0x8a, 0x62, 0xfc, 0x3d,
  0x4f, 0xdd, 0x19, 0x3e, 0xd3, 0xc1, 0x37, 0xbe, 0x0d, 0x04, 0x99, 0x3f,
  0xf9, 0x87, 0x2e, 0x3c, 0x10, 0x88, 0x79, 0x3d, 0x9d, 0xa1, 0x7a, 0xbe,
  0x44, 0xa3, 0x2e, 0xbe, 0x49, 0x93, 0x87, 0xbe, 0x4c, 0x84, 0x8f, 0xbe,
  0x58, 0xd8, 0x4c, 0xbe, 0x26, 0x60, 0x6a, 0x3e, 0xcb, 0x50, 0xba, 0xbd,
  0x40, 0xf7, 0xf0, 0x3c, 0xc8, 0x88, 0x91, 0x3d, 0x1f, 0x8b, 0x59, 0xbd,
  0xb5, 0x1b, 0xb6, 0xbd, 0xb7, 0x20, 0x9f, 0x3c, 0x43, 0xff, 0xcf, 0xbd,
  0xfd, 0xd9, 0x91, 0x3f, 0xcb, 0x78, 0x21, 0xbe, 0x9a, 0xb5, 0x99, 0x3c,
  0x20, 0xe2, 0x78, 0xbe, 0x87, 0x8d, 0x84, 0x3d, 0xc1, 0x8d, 0xf3, 0xbc,
  0x4c, 0x2c, 0x88, 0xbe, 0x77, 0xa3, 0x6c, 0xbe, 0x91, 0xbf, 0x39, 0x3e,
  0xb6, 0x44, 0x47, 0xbe, 0x4d, 0x33, 0x22, 0x3e, 0xcc, 0x68, 0x87, 0x3d,
  0xce, 0x0c, 0x3b, 0xbe, 0x7a, 0x53, 0xc6, 0x3e, 0x99, 0x3a, 0x9c, 0xbe,
  0x7d, 0xa0, 0xa9, 0x3d, 0xc6, 0x38, 0xac, 0x3f, 0x86, 0x2a, 0x00, 0xbe,
  0x78, 0x96, 0xc0, 0xbe, 0x6c, 0xa0, 0x75, 0x3e, 0x5a, 0x9c, 0x07, 0x3f,
  0x12, 0xd3, 0x14, 0x3e, 0x4d, 0x91, 0xb0, 0xbe, 0xea, 0x13, 0x4e, 0x3d,
  0x53, 0xee, 0x66, 0xbe, 0xff, 0x00, 0x50, 0xbe, 0x73, 0x13, 0x5a, 0xbc,
  0x57, 0xd4, 0xb4, 0xbc, 0xe5, 0x18, 0x25, 0xbe, 0x6a, 0x29, 0x28, 0x3e,
  0x96, 0x5f, 0xb9, 0xbd, 0x00, 0x3f, 0x8f, 0x3d, 0x35, 0x09, 0xa8, 0xbe,
  0xcc, 0x08, 0x2c, 0xbd, 0xb5, 0x48, 0xe5, 0xbe, 0x66, 0x0b, 0x9f, 0x3e,
  0xd3, 0x33, 0x88, 0x3e, 0x3b, 0x53, 0x77, 0x3e, 0xab, 0xc8, 0x97, 0x3d,
  0x27, 0xf9, 0x6a, 0x3e, 0x1c, 0x60, 0xc3, 0x3d, 0xc9, 0x02, 0x65, 0xbe,
  0x6e, 0x09, 0x51, 0xbe, 0x60, 0xd6, 0xe6, 0xbc, 0xe8, 0xb1, 0x2c, 0xbe,
  0xe7, 0x9a, 0x9a, 0xbe, 0xff, 0x93, 0xbb, 0xbd, 0x7d, 0xf5, 0x8e, 0xbe,
  0xef, 0xd1, 0xc9, 0xbc, 0x03, 0xf9, 0xab, 0xbe, 0xc6, 0x41, 0x92, 0x3c,
  0x41, 0xe4, 0x3c, 0xbe, 0x40, 0xc9, 0x9a, 0xbd, 0xa2, 0x39, 0x8e, 0xbc,
  0xfe, 0xba, 0x06, 0xbe, 0x38, 0xa3, 0x05, 0x3d, 0x8b, 0xf6, 0x44, 0x3c,
  0x6d, 0x29, 0x6c, 0xbe, 0x4e, 0x07, 0x7d, 0xbe, 0x0e, 0x70, 0x6c, 0xbe,
  0xa5, 0x96, 0x5b, 0xbe, 0xe6, 0x7c, 0x3a, 0x3e, 0xee, 0xf6, 0x06, 0xbe,
  0x81, 0x9e, 0xf4, 0xbe, 0xa3, 0x9e, 0x4e, 0xbe, 0x3d, 0x82, 0x06, 0x3e,
  0xd5, 0x10, 0xd2, 0xbd, 0xf2, 0xf7, 0xd8, 0xbd, 0x55, 0x21, 0xcc, 0xbd,
  0x9e, 0xcf, 0x7d, 0x3e, 0xbf, 0x06, 0xb3, 0xbd, 0x92, 0x48, 0xbd, 0xbd,
  0xca, 0x0d, 0x61, 0xbe, 0x40, 0xe3, 0x23, 0x3e, 0x04, 0x49, 0xf1, 0x3d,
  0x46, 0x09, 0x0d, 0xbe, 0xd0, 0xb3, 0x13, 0x3d, 0xc4, 0x5c, 0x59, 0xbe,
  0x50, 0xb6, 0x25, 0x3c, 0xfd, 0x6a, 0xbe, 0xbe, 0xac, 0xdd, 0x00, 0xbe,
  0xfa, 0xf5, 0x10, 0xbe, 0xa8, 0x09, 0x29, 0x3e, 0x26, 0x58, 0x02, 0xbe,
  0xa8, 0x3f, 0xf5, 0xbd, 0xe6, 0xb8, 0x52, 0x3e, 0xf0, 0xa0, 0x23, 0xbe,
  0xa3, 0x71, 0x5c, 0xbd, 0x9f, 0xa9, 0x6c, 0xbe, 0x29, 0xd0, 0x6a, 0xbe,
  0x1a, 0x1f, 0x05, 0x3e, 0x06, 0xdf, 0x47, 0xbd, 0xb2, 0x4f, 0xac, 0xbd,
  0xd2, 0xdc, 0x38, 0x3e, 0x0a, 0xc7, 0x9a, 0x3c, 0xc9, 0xf5, 0xba, 0xbd,
  0x76, 0x97, 0x5f, 0xbc, 0xc5, 0xf7, 0xb2, 0xbb, 0x7f, 0x69, 0xbc, 0x3d,
  0x9a, 0x0d, 0x4b, 0x3e, 0x15, 0xbb, 0xb7, 0x3d, 0x2e, 0x39, 0xdb, 0x3d,
  0xbb, 0xf6, 0x8a, 0x3d, 0xfd, 0x6f, 0xdd, 0xbd, 0x8c, 0x5e, 0x64, 0xbe,
  0x84, 0x4e, 0x10, 0xbc, 0x3c, 0x81, 0xe1, 0x3d, 0x52, 0xaa, 0x91, 0xbd,
  0x11, 0xe2, 0xed, 0xbd, 0xce, 0x6f, 0x91, 0x3e, 0x7c, 0xfa, 0x39, 0x3d,
  0x7b, 0x7d, 0x8e, 0xbe, 0x35, 0xd8, 0xdf, 0xbd, 0xa5, 0x98, 0xba, 0xbd,
  0x80, 0xac, 0xa4, 0x3e, 0xa4, 0x47, 0xb3, 0x3d, 0xc8, 0x39, 0x25, 0x3e,
  0x76, 0x89, 0x98, 0x3e, 0xe8, 0x95, 0x0d, 0xbe, 0xa5, 0xdb, 0x41, 0x3c,
  0xb9, 0x0f, 0x70, 0xbd, 0x6a, 0x64, 0x6b, 0x3d, 0x17, 0xfe, 0x15, 0x3e,
  0x47, 0x90, 0xb7, 0x3d, 0x4e, 0x11, 0xd6, 0xbc, 0x84, 0x4b, 0x1c, 0xbd,
  0x96, 0x16, 0xa9, 0xba, 0x2f, 0x55, 0x90, 0xbe, 0xa4, 0xd0, 0x15, 0x3c,
  0x93, 0x04, 0x15, 0x3d, 0x9d, 0x31, 0x84, 0xbc, 0x4e, 0xe1, 0x7d, 0xbe,
  0x97, 0x6e, 0xd5, 0xbd, 0xf8, 0xa2, 0x4f, 0xbd, 0x62, 0x47, 0x17, 0xbe,
  0x18, 0x23, 0x44, 0xbe, 0xdb, 0x3b, 0x74, 0xbe, 0x81, 0x7a, 0x66, 0xbe,
  0x0f, 0x35, 0x07, 0xbd, 0xa1, 0x93, 0x5f, 0xbe, 0x5b, 0x85, 0xe9, 0x3d,
  0x1e, 0x62, 0x93, 0xbe, 0xb3, 0xf8, 0x09, 0xbe, 0x81, 0xf7, 0xba, 0xbe,
  0xdf, 0xfc, 0xbb, 0x3d, 0x0e, 0x74, 0x01, 0xbe, 0x09, 0xc7, 0x31, 0xbd,
  0x78, 0x33, 0xda, 0xbd, 0x08, 0xf3, 0x3e, 0xbe, 0x8f, 0xcd, 0x70, 0xbd,
  0x11, 0x9f, 0x01, 0xbe, 0x9c, 0xa2, 0x5d, 0xbd, 0xe6, 0x41, 0x46, 0xbe,
  0x09, 0x4a, 0x64, 0x3e, 0x52, 0x50, 0x57, 0x3e, 0x5f, 0x54, 0xea, 0x3b,
  0xff, 0xd0, 0x42, 0xbe, 0xab, 0x31, 0x00, 0xbf, 0x3a, 0x23, 0x43, 0x3e,
  0xcc, 0x6e, 0x9d, 0x3c, 0x4e, 0x47, 0x16, 0xbe, 0x0d, 0x1d, 0x8a, 0xbe,
  0x34, 0xea, 0xdf, 0x3e, 0x3e, 0x8a, 0x5d, 0xbf, 0x9c, 0xf1, 0x11, 0xbe,
  0x94, 0x87, 0x40, 0xbe, 0x27, 0xca, 0x1b, 0x3d, 0x99, 0xdd, 0x90, 0xbe,
  0x96, 0x64, 0xb1, 0x3d, 0xfd, 0x5a, 0xec, 0x3d, 0xa0, 0x0b, 0x3a, 0x3e,
  0x95, 0xc3, 0x0d, 0xbf, 0x0d, 0x0a, 0x84, 0x3e, 0x5a, 0xfd, 0x80, 0xbd,
  0x6a, 0xd9, 0xba, 0x3d, 0xe2, 0xbe, 0x39, 0x3d, 0xe2, 0xb4, 0x5a, 0xbe,
  0x3d, 0x52, 0x63, 0x3d, 0x7a, 0xef, 0x9f, 0x3d, 0x99, 0xe4, 0xfe, 0xbb,
  0x25, 0x1b, 0x7a, 0x3d, 0x71, 0x81, 0x28, 0x3d, 0x45, 0x5c, 0xd5, 0x3d,
  0x05, 0x06, 0x72, 0xbe, 0x84, 0x84, 0xaa, 0x3e, 0xd4, 0x2e, 0x87, 0x3e,
  0x16, 0x02, 0xec, 0x3d, 0xbf, 0x2a, 0x41, 0xbe, 0xbf, 0x60, 0x28, 0x3e,
  0x6c, 0x1c, 0x0b, 0x3d, 0x0c, 0x15, 0x19, 0x3e, 0x22, 0xa1, 0x64, 0x3d,
  0xe7, 0xf5, 0x79, 0xbe, 0xf6, 0x37, 0x11, 0x3e, 0x12, 0x5a, 0xc2, 0x3d,
  0x78, 0x21, 0x82, 0x3e, 0x8b, 0x1b, 0x88, 0x3e, 0xdf, 0x93, 0x79, 0x3e,
  0xd4, 0xa3, 0x70, 0x3c, 0xe4, 0xbc, 0xa1, 0xbe, 0x07, 0xeb, 0x4b, 0x3e,
  0xf9, 0x52, 0x4d, 0x3d, 0x80, 0x92, 0x22, 0x3d, 0xf0, 0x55, 0x28, 0xbe,
  0x14, 0xd4, 0x74, 0xbd, 0x56, 0x70, 0x01, 0xbe, 0x3e, 0x58, 0x0c, 0x3e,
  0x0d, 0xc2, 0x61, 0xbc, 0x86, 0x97, 0xe1, 0xbc, 0x49, 0x61, 0x38, 0x3d,
  0x79, 0x97, 0x08, 0x3d, 0x1f, 0xe6, 0x88, 0x3e, 0x65, 0xab, 0x98, 0x3e,
  0x3d, 0xcf, 0x6e, 0x3e, 0x53, 0x39, 0x03, 0x3e, 0xd9, 0xf6, 0x06, 0xbe,
  0x76, 0xde, 0xde, 0x3d, 0x82, 0x9f, 0xa4, 0x3d, 0x54, 0x31, 0x44, 0x3e,
  0xf3, 0x7b, 0xbe, 0xbd, 0x1f, 0xf3, 0x64, 0x3e, 0x0f, 0x46, 0x9a, 0xbd,
  0xe0, 0x94, 0x8a, 0x3d, 0x10, 0x3e, 0x7f, 0x3d, 0x5f, 0x5f, 0xef, 0xbd,
  0x3c, 0x7e, 0x84, 0x3d, 0x74, 0x43, 0x46, 0x3d, 0xe3, 0xb2, 0x82, 0x3e,
  0x2f, 0x87, 0xad, 0x3c, 0xa6, 0xcd, 0xfb, 0x3d, 0x67, 0x7e, 0x98, 0x3c,
  0xd1, 0x06, 0x98, 0xbe, 0x98, 0x43, 0x44, 0x3e, 0xb7, 0x47, 0xb0, 0x3d,
  0x0e, 0x69, 0xd3, 0x3d, 0xb4, 0x82, 0x1b, 0xbe, 0x83, 0x34, 0xf9, 0x3c,
  0x2d, 0x35, 0x85, 0xbe, 0xe9, 0xd2, 0xc2, 0x3d, 0x0d, 0x62, 0xe1, 0xbb,
  0x76, 0x0a, 0x80, 0xbc, 0x50, 0x22, 0x2e, 0x3e, 0xbe, 0xf8, 0x5d, 0x3e,
  0xa5, 0x6a, 0x91, 0xbd, 0x85, 0xd7, 0x20, 0xbc, 0x78, 0x3f, 0x90, 0xbd,
  0xdf, 0x98, 0x7e, 0xbc, 0xfd, 0x57, 0x0a, 0xbf, 0x36, 0x04, 0xe1, 0x3e,
  0x0c, 0x90, 0x6e, 0x3e, 0x1c, 0xc2, 0x74, 0x3e, 0x76, 0x88, 0x70, 0xbd,
  0x37, 0xa1, 0x8b, 0x3e, 0xfe, 0x62, 0x81, 0xbe, 0x6c, 0x2a, 0x0e, 0x3e,
  0xd2, 0xe4, 0x0a, 0xbd, 0x7d, 0xc2, 0x45, 0x3e, 0x96, 0x86, 0x26, 0xbd,
  0x7b, 0x91, 0xae, 0x3e, 0xe3, 0x29, 0xbc, 0xbe, 0x48, 0xdc, 0x0a, 0xbf,
  0x26, 0x74, 0x7b, 0xbe, 0x49, 0x0f, 0x02, 0x3e, 0x2a, 0x4a, 0xf9, 0xbe,
  0x3e, 0x12, 0xcd, 0xbd, 0xff, 0x93, 0xf3, 0x3c, 0xdc, 0x97, 0xf5, 0x3e,
  0xee, 0x01, 0x2b, 0xbe, 0x0f, 0x87, 0x43, 0xbe, 0x5c, 0x7f, 0xe6, 0xbe,
  0xcd, 0xb8, 0xf3, 0x3e, 0x01, 0x74, 0x0c, 0xbd, 0x6b, 0x8e, 0x3b, 0xbe,
  0x26, 0x3d, 0x89, 0xbe, 0xc6, 0x13, 0x8e, 0x3e, 0xac, 0x19, 0x2d, 0xbf,
  0x8e, 0x1f, 0x2d, 0xbd, 0x8b, 0x18, 0x31, 0xbe, 0x41, 0xf7, 0x23, 0xbe,
  0xc1, 0x10, 0x12, 0xbd, 0xfc, 0x07, 0x58, 0x3e, 0x5a, 0x1a, 0x4c, 0x3d,
  0x79, 0x12, 0x82, 0x3e, 0x98, 0xde, 0xa6, 0xbe, 0xaf, 0x0d, 0x0c, 0x3f,
  0x7b, 0x37, 0xcb, 0xbd, 0xd4, 0xef, 0xa7, 0x3d, 0x2f, 0xdf, 0x15, 0x3d,
  0xcc, 0x09, 0x67, 0xbd, 0x3e, 0x71, 0x12, 0xbc, 0x3e, 0x05, 0xe9, 0x3d,
  0x6e, 0x4f, 0xc4, 0x3c, 0x1e, 0x42, 0xe7, 0x3d, 0xf4, 0x0a, 0xe4, 0x3d,
  0xb1, 0xba, 0xc7, 0xbd, 0x8f, 0x89, 0x26, 0xbe, 0x9a, 0x73, 0xe6, 0x3e,
  0xfa, 0x3c, 0xa1, 0x3d, 0xd9, 0x41, 0x4e, 0x3e, 0x86, 0xf6, 0x7b, 0x3b,
  0x2a, 0xb9, 0x32, 0x3f, 0xd7, 0x1a, 0xe6, 0xbd, 0x6a, 0x69, 0x52, 0x3e,
  0xb1, 0x16, 0x24, 0x3d, 0x14, 0x95, 0xf8, 0xbe, 0x4b, 0x2e, 0xac, 0x3d,
  0x32, 0x34, 0x0c, 0x3e, 0x2b, 0x2a, 0xd2, 0x3e, 0xa2, 0x21, 0xf9, 0x3e,
  0x93, 0x44, 0x16, 0x3e, 0xe8, 0x87, 0x0e, 0xbe, 0x3a, 0x34, 0x03, 0xbe,
  0x8d, 0x37, 0xd2, 0x3e, 0xd2, 0x92, 0x36, 0x3d, 0xfa, 0xa0, 0x35, 0x3e,
  0x73, 0x11, 0xf8, 0xbd, 0x88, 0x80, 0xf3, 0x3e, 0xd9, 0x15, 0x14, 0xbe,
  0x15, 0xec, 0x37, 0x3e, 0x5c, 0x3b, 0xf9, 0x3d, 0xd5, 0xa5, 0x82, 0xbe,
  0xc4, 0xd7, 0x1f, 0x3e, 0x03, 0x83, 0xc4, 0x3d, 0xd3, 0xc1, 0xf4, 0x3e,
  0xa2, 0x3a, 0x02, 0x3f, 0x36, 0xbe, 0x7b, 0x3e, 0x22, 0xcb, 0x13, 0xbe,
  0xc1, 0xc9, 0x91, 0xbd, 0xc9, 0xb8, 0x3c, 0x3e, 0xa9, 0xc7, 0xd1, 0x3d,
  0x87, 0x85, 0x98, 0x3d, 0x8a, 0x0b, 0x01, 0x3c, 0xe3, 0x96, 0xbf, 0x3e,
  0xf5, 0xa7, 0x9e, 0xbe, 0x65, 0x95, 0x48, 0x3e, 0x0c, 0x80, 0xb6, 0x3c,
  0xc4, 0x65, 0x26, 0xbc, 0xdd, 0x45, 0x13, 0x3e, 0x0c, 0x40, 0xd8, 0x3d,
  0x1a, 0xcb, 0xd8, 0x3e, 0x27, 0x43, 0x17, 0x3e, 0x17, 0x61, 0x1f, 0x3e,
  0x62, 0xbd, 0xc0, 0x3d, 0x32, 0xaf, 0xc2, 0xbd, 0xaf, 0xa8, 0xda, 0x3e,
  0xab, 0x71, 0x65, 0x3e, 0x9f, 0x8f, 0x7a, 0x3c, 0xa9, 0x31, 0x8e, 0xbd,
  0x44, 0x42, 0xea, 0x3e, 0xd5, 0xb7, 0xce, 0xbe, 0xcb, 0x85, 0x60, 0x3e,
  0x9e, 0x89, 0x7f, 0x3c, 0x39, 0xa4, 0x37, 0xbd, 0x60, 0xa9, 0xc8, 0x3d,
  0x97, 0xab, 0x9e, 0x3d, 0x38, 0x09, 0x3c, 0xbe, 0x05, 0x46, 0x90, 0xbd,
  0xdd, 0x01, 0xa4, 0xbd, 0x00, 0x8a, 0x62, 0x3c, 0x7a, 0x6f, 0xb1, 0xbd,
  0xeb, 0xc3, 0xc9, 0x3e, 0x29, 0x4f, 0x3b, 0x3e, 0x8d, 0x55, 0xa3, 0xbd,
  0x60, 0xb7, 0x2f, 0xbe, 0x3d, 0xe4, 0x50, 0x3f, 0x4e, 0x6e, 0x32, 0xbe,
  0x9c, 0xba, 0x26, 0x3e, 0x2e, 0x4e, 0x3d, 0x3c, 0x95, 0xa6, 0x96, 0x3e,
  0x24, 0x3d, 0x06, 0x3d, 0x26, 0xd6, 0xa0, 0x3e, 0x31, 0x92, 0xa3, 0xbe,
  0x46, 0x55, 0xde, 0xbe, 0xda, 0x52, 0x30, 0xbe, 0x2d, 0x16, 0x12, 0x3e,
  0xec, 0x66, 0x66, 0xbd, 0xeb, 0x7b, 0x09, 0xbf, 0x32, 0x3c, 0x53, 0x3e,
  0xe4, 0x28, 0xed, 0x3e, 0xe2, 0x0e, 0xa3, 0xbe, 0x9f, 0x5a, 0x7c, 0x3c,
  0x87, 0x3a, 0x6f, 0xbd, 0x73, 0x5e, 0x86, 0x3e, 0x56, 0xd5, 0xbc, 0xbe,
  0xd7, 0xe0, 0x95, 0xbd, 0xd3, 0xee, 0x67, 0xbe, 0x4c, 0x53, 0xaf, 0x3d,
  0x92, 0x39, 0xcb, 0xbd, 0x83, 0x02, 0x23, 0x3e, 0x6d, 0x92, 0x3a, 0xbe,
  0xd6, 0xb9, 0x1f, 0x3e, 0xd4, 0x6a, 0x8d, 0xba, 0x8d, 0x00, 0x5f, 0xbe,
  0xd9, 0x2e, 0x83, 0xbd, 0x49, 0x02, 0x45, 0x3d, 0xd7, 0x00, 0x82, 0xbe,
  0xaa, 0x6a, 0x14, 0xbe, 0x33, 0xba, 0x5f, 0xbc, 0xac, 0x07, 0x45, 0xbd,
  0x06, 0x82, 0xa8, 0xbd, 0x6b, 0xda, 0x6e, 0xbe, 0xba, 0xaa, 0x30, 0xbe,
  0xf1, 0xc2, 0xf7, 0x3d, 0x93, 0xfc, 0x01, 0x3e, 0x5f, 0x32, 0x87, 0x3d,
  0xda, 0x8b, 0x63, 0x3d, 0x10, 0x38, 0x03, 0xbd, 0xc7, 0x4a, 0x3c, 0xbe,
  0x71, 0x28, 0x3d, 0xbc, 0x59, 0xd2, 0x47, 0x3e, 0xa7, 0x7c, 0xbd, 0x3d,
  0x82, 0xfb, 0x00, 0xbe, 0x03, 0xb0, 0x85, 0x3e, 0x48, 0x75, 0x71, 0x3e,
  0x8e, 0xe1, 0x88, 0x3e, 0xa7, 0x0f, 0x56, 0xbe, 0xb9, 0x74, 0xba, 0x3b,
  0x8a, 0x26, 0x25, 0x3d, 0x97, 0x8a, 0xd7, 0x3c, 0xd3, 0x87, 0xa7, 0x3d,
  0xbc, 0x64, 0x65, 0x3e, 0x4e, 0x17, 0xb9, 0x3b, 0xec, 0xa0, 0xf6, 0xbd,
  0xa0, 0x8f, 0xda, 0x3d, 0x50, 0xa2, 0xd6, 0x3d, 0x35, 0x90, 0x3b, 0x3e,
  0x8d, 0x7f, 0x6a, 0x3e, 0x93, 0x3e, 0xc8, 0x3c, 0x52, 0x11, 0x32, 0xbc,
  0x18, 0xc9, 0x2e, 0x3f, 0xff, 0xc4, 0xd8, 0x3d, 0x28, 0xab, 0xec, 0xbd,
  0xcb, 0x13, 0x07, 0xbe, 0x2a, 0xda, 0x24, 0xbe, 0xf3, 0xd3, 0x80, 0xbd,
  0x1d, 0x88, 0xec, 0x3d, 0x98, 0x63, 0x22, 0x3e, 0x93, 0x3e, 0x9e, 0x3e,
  0xaf, 0x08, 0x65, 0xbe, 0x8b, 0x91, 0xbb, 0x3c, 0x26, 0xec, 0x5a, 0x3e,
  0xc7, 0x35, 0x00, 0x3e, 0x05, 0xba, 0xf6, 0x3c, 0x79, 0xd9, 0xf3, 0x3d,
  0x72, 0x4e, 0xf3, 0x3d, 0x5b, 0x79, 0x44, 0x3e, 0x69, 0xab, 0x59, 0x3e,
  0x9b, 0xa1, 0x8a, 0xbe, 0x11, 0xd9, 0x60, 0xbe, 0x1c, 0xfb, 0xd2, 0x3d,
  0xe3, 0xe4, 0x89, 0x3c, 0x03, 0x07, 0xdb, 0x3d, 0xfe, 0xfa, 0x0d, 0xbd,
  0x55, 0xc9, 0xe2, 0xbd, 0xae, 0x6c, 0x1a, 0x3e, 0x51, 0x92, 0xfc, 0xbd,
  0x62, 0x82, 0x20, 0x3e, 0x88, 0xd6, 0xc4, 0xbd, 0x84, 0x69, 0xa0, 0x3d,
  0x2b, 0x0b, 0xaf, 0xbc, 0xd7, 0x70, 0xab, 0x3d, 0x93, 0x66, 0xd4, 0xbd,
  0x1b, 0x32, 0xb4, 0x3d, 0xc9, 0x51, 0xaa, 0xbe, 0x73, 0x83, 0x5a, 0xbe,
  0x8c, 0x14, 0x59, 0x3e, 0xd0, 0xb7, 0x6c, 0x3e, 0x39, 0x9a, 0x25, 0xbc,
  0xc2, 0x8b, 0xb9, 0x3d, 0x43, 0x66, 0xad, 0x3d, 0x9b, 0x5c, 0x78, 0x3c,
  0xa3, 0x85, 0xd2, 0xbd, 0x9b, 0x24, 0x82, 0x3e, 0x30, 0x5b, 0xc8, 0xbc,
  0x37, 0xa9, 0x91, 0x3d, 0x66, 0x90, 0x97, 0x3d, 0xa9, 0x75, 0xe9, 0x3b,
  0x73, 0x94, 0x7a, 0xbe, 0x93, 0xd0, 0x4f, 0xbd, 0xdf, 0xcf, 0x08, 0xbe,
  0xa8, 0xfd, 0xb4, 0x3e, 0xbc, 0xbf, 0x3c, 0xbe, 0xb2, 0xa4, 0xf8, 0x3e,
  0xe6, 0xe2, 0x26, 0x3e, 0x78, 0xb2, 0x67, 0xbe, 0x04, 0x8c, 0x09, 0xbe,
  0x7a, 0xaa, 0x93, 0x3c, 0x6d, 0x2e, 0x58, 0xbe, 0xe0, 0xf7, 0x23, 0x3e,
  0x6c, 0x1d, 0x28, 0x3e, 0xf8, 0x3c, 0x40, 0x3e, 0xa9, 0x6b, 0xcd, 0xbd,
  0x8d, 0x3e, 0x75, 0xbe, 0x94, 0xb1, 0xb2, 0x3c, 0xeb, 0x81, 0xfe, 0x3d,
  0xcd, 0x76, 0x0e, 0xbe, 0xef, 0x0e, 0x33, 0xbe, 0x97, 0x22, 0x87, 0xbe,
  0x62, 0x61, 0x80, 0x3e, 0x50, 0x91, 0xee, 0xbd, 0x62, 0xf4, 0x36, 0xbb,
  0x9f, 0xa1, 0xfb, 0xbd, 0x57, 0x21, 0xa0, 0x3d, 0xd9, 0x7c, 0x98, 0xbe,
  0xfe, 0xe0, 0x8f, 0x3d, 0x55, 0xf8, 0x25, 0x3e, 0x8f, 0x13, 0x14, 0xbe,
  0x1d, 0xc9, 0xb8, 0xbe, 0x30, 0x08, 0x8d, 0x3c, 0xcd, 0x0b, 0xcd, 0x3d,
  0xe5, 0x0e, 0xb1, 0xbc, 0x4b, 0xa6, 0xbe, 0xbd, 0x07, 0x4c, 0x8b, 0xbe,
  0x5f, 0xa7, 0x1b, 0xbd, 0xcb, 0x17, 0xdc, 0xbd, 0x28, 0xc6, 0x31, 0x3e,
  0x87, 0xa2, 0x0a, 0x3e, 0x2e, 0x27, 0x8b, 0x3d, 0x43, 0xba, 0xad, 0x3c,
  0xab, 0xa9, 0x97, 0xbe, 0xe2, 0xff, 0x0f, 0x3e, 0x98, 0xa5, 0xa8, 0x3e,
  0x75, 0x6b, 0x0a, 0x3e, 0x4e, 0x9a, 0x6e, 0xba, 0x93, 0xe5, 0x45, 0xbc,
  0x3a, 0xe2, 0x86, 0x3e, 0x6b, 0x16, 0xb8, 0x3d, 0xec, 0x90, 0xb3, 0xbe,
  0x1a, 0x96, 0x6a, 0xbe, 0x6a, 0xe3, 0x5e, 0xbd, 0xb6, 0x1c, 0xa4, 0x3d,
  0x20, 0x8a, 0x57, 0xbc, 0xe5, 0xe3, 0xb0, 0x3e, 0x7f, 0x2f, 0x42, 0x3e,
  0x83, 0x4c, 0x33, 0xbd, 0x0b, 0xef, 0x14, 0xbe, 0x3a, 0x7b, 0x87, 0xbd,
  0x9b, 0x93, 0xe9, 0xbc, 0x70, 0x29, 0xb9, 0x3d, 0x20, 0xf0, 0x93, 0xbd,
  0xd3, 0x37, 0x6f, 0x3d, 0x8f, 0xbd, 0xb9, 0x3e, 0xc1, 0x1c, 0x4b, 0xbc,
  0x15, 0x1a, 0x9d, 0xbe, 0x9b, 0x10, 0xa5, 0x3d, 0x72, 0xf2, 0xc0, 0xbe,
  0x22, 0x37, 0x40, 0x3e, 0xaf, 0x8b, 0x73, 0xbd, 0xa0, 0x3e, 0xa3, 0x3d,
  0x4b, 0x23, 0x8d, 0x3e, 0x72, 0xb9, 0xfe, 0xbc, 0x5d, 0x5f, 0x2c, 0xbe,
  0xc3, 0xaa, 0x20, 0x3e, 0x32, 0x36, 0x22, 0x3e, 0xcb, 0xac, 0x6b, 0x3e,
  0x65, 0xa6, 0x79, 0x3d, 0x71, 0xe4, 0x0e, 0xbb, 0x39, 0x4a, 0xc2, 0x3d,
  0x7f, 0x23, 0xc3, 0x3c, 0x6d, 0x3a, 0xff, 0xbd, 0x94, 0x85, 0x6f, 0xbd,
  0xc6, 0xa0, 0x95, 0xbe, 0x9e, 0xd0, 0x16, 0x3e, 0xaf, 0xd4, 0xbf, 0x3d,
  0x6e, 0x70, 0x21, 0x3e, 0x68, 0x1a, 0x96, 0x3d, 0x23, 0x8e, 0x1c, 0xbd,
  0x28, 0xae, 0x2b, 0xbd, 0x94, 0xdb, 0x58, 0x3e, 0x7b, 0x0a, 0x3a, 0xbe,
  0xc1, 0xe6, 0x55, 0x3e, 0xf8, 0x0c, 0x12, 0x3d, 0x22, 0xad, 0xb9, 0x3c,
  0x00, 0x69, 0x24, 0xbd, 0xc9, 0xf1, 0xd0, 0x3d, 0xf9, 0xf8, 0xb2, 0xbe,
  0x1d, 0x52, 0x40, 0xbd, 0x36, 0xa7, 0x82, 0xbe, 0x9d, 0x5a, 0xb1, 0x3e,
  0x27, 0x64, 0xff, 0x3c, 0x53, 0xdf, 0xeb, 0x3d, 0x05, 0xf9, 0x47, 0xbd,
  0x18, 0xc5, 0x27, 0xbd, 0xd2, 0x51, 0x0c, 0xbe, 0xb5, 0x01, 0x33, 0x3e,
  0x0c, 0xb0, 0xdb, 0xbd, 0x2b, 0x77, 0xe7, 0x3b, 0x12, 0x9c, 0x27, 0x3e,
  0x22, 0xe8, 0x85, 0x3e, 0x0e, 0xc6, 0x09, 0xbe, 0x46, 0x8b, 0xee, 0x3c,
  0xff, 0xde, 0xa5, 0xbe, 0x87, 0xaf, 0xc3, 0x3e, 0xd7, 0xef, 0x36, 0xbe,
  0xe5, 0xe0, 0x11, 0xbe, 0x2a, 0x1f, 0x07, 0xbe, 0x69, 0x93, 0x6d, 0x3e,
  0x6b, 0xf9, 0x26, 0xbe, 0x9e, 0x85, 0x84, 0x3d, 0xf3, 0x1b, 0x41, 0xbe,
  0xb8, 0xfa, 0x19, 0x3e, 0x9f, 0x21, 0x28, 0xbd, 0x35, 0xfc, 0xa2, 0xbe,
  0xdb, 0x59, 0xba, 0x3d, 0x10, 0x56, 0x5b, 0x3d, 0x5a, 0xc5, 0x6b, 0x3c,
  0xa1, 0x3b, 0x2f, 0x3e, 0x36, 0xcc, 0x8b, 0xbe, 0x8c, 0x29, 0x89, 0xbd,
  0x0b, 0xe4, 0xd4, 0x3d, 0x4b, 0x31, 0x4a, 0x3d, 0x7e, 0x0a, 0x15, 0x3d,
  0x33, 0xe5, 0xe6, 0xbd, 0x60, 0x42, 0x9f, 0xbe, 0x0f, 0x1d, 0x57, 0xbe,
  0x63, 0xc5, 0x5b, 0xbe, 0x58, 0xe0, 0x09, 0x3e, 0x77, 0xea, 0x9b, 0x3c,
  0x82, 0xfd, 0xb1, 0xba, 0x21, 0xc8, 0x38, 0xbe, 0xd1, 0x31, 0x37, 0xbd,
  0xad, 0x5f, 0xdd, 0x3d, 0x77, 0xe1, 0x2d, 0xbe, 0x08, 0x5c, 0x6c, 0xbd,
  0x85, 0x04, 0x05, 0x3e, 0xd5, 0x81, 0xab, 0xbd, 0xe8, 0x0e, 0x52, 0x3d,
  0x42, 0xc3, 0x02, 0xbe, 0x46, 0x0c, 0x78, 0x3e, 0x0d, 0x7b, 0xa6, 0xbd,
  0x3f, 0x58, 0x5b, 0xbe, 0xa8, 0xa3, 0x3b, 0xbe, 0x4d, 0x0d, 0x0f, 0x3e,
  0x74, 0xfb, 0x26, 0xbe, 0xd3, 0x14, 0x03, 0x3e, 0x1b, 0x5c, 0x0d, 0x3e,
  0xa3, 0xc0, 0x3d, 0xbe, 0x1c, 0xa1, 0x24, 0xbe, 0xba, 0xee, 0xd2, 0x3c,
  0xab, 0xc1, 0x50, 0xbe, 0x1f, 0xd7, 0x2b, 0xbe, 0x54, 0xff, 0x59, 0xbd,
  0x87, 0x22, 0x62, 0x3d, 0x9d, 0x82, 0x81, 0xbe, 0x16, 0x7c, 0x42, 0xbe,
  0x7e, 0x0a, 0x7c, 0xbe, 0x94, 0x70, 0x85, 0xbe, 0x8d, 0x49, 0x45, 0xbd,
  0x9b, 0xbe, 0x66, 0xbe, 0x30, 0xa1, 0x2a, 0xbd, 0x89, 0x14, 0xf4, 0xbc,
  0xb0, 0x17, 0xdb, 0xbd, 0xba, 0x42, 0x5f, 0xbe, 0xe9, 0xe9, 0x87, 0x3c,
  0xfe, 0xe3, 0xa5, 0xbd, 0xe6, 0xc9, 0x18, 0xbc, 0x4e, 0xab, 0xe2, 0x3c,
  0x8a, 0x5d, 0x22, 0xbd, 0xdd, 0x14, 0x03, 0xbe, 0x4c, 0xa2, 0x49, 0xbe,
  0x90, 0x1d, 0x0c, 0xbe, 0x3b, 0xe8, 0x0c, 0xbe, 0xdf, 0x06, 0x3b, 0xbe,
  0x8b, 0xd6, 0x00, 0xbe, 0x58, 0x78, 0xaa, 0x3d, 0x54, 0xb8, 0x5f, 0xbe,
  0xe6, 0x6a, 0xee, 0xbc, 0x3d, 0x63, 0x88, 0xbc, 0x59, 0xa8, 0xd1, 0xbd,
  0x77, 0xa7, 0x3a, 0xbe, 0x58, 0x08, 0xab, 0x3d, 0xf8, 0xcd, 0x32, 0xbd,
  0x9b, 0x22, 0x02, 0xbd, 0xfe, 0x1c, 0x8c, 0xbe, 0x43, 0xb3, 0xb5, 0xbd,
  0xf9, 0x0d, 0x36, 0xbd, 0xba, 0x71, 0x0a, 0x3e, 0xcd, 0x58, 0xf1, 0x3c,
  0x5d, 0xfa, 0x56, 0xbd, 0xef, 0xc5, 0xbd, 0x3b, 0x37, 0xde, 0xf9, 0xbc,
  0x87, 0x0e, 0xdb, 0xbd, 0xfa, 0x0e, 0x16, 0xbe, 0xe9, 0xf7, 0x5c, 0xbe,
  0x67, 0x2e, 0xe3, 0x3d, 0x42, 0x35, 0xce, 0xbd, 0x46, 0xb4, 0x84, 0xbe,
  0x2c, 0x8f, 0x1d, 0x3d, 0xd9, 0x5a, 0x26, 0xbe, 0x5f, 0xca, 0x75, 0xbe,
  0x81, 0x29, 0x05, 0xbe, 0x94, 0x94, 0x67, 0xbe, 0xaa, 0x4d, 0xa1, 0xbd,
  0x75, 0x35, 0x52, 0xbe, 0x56, 0x1f, 0xbe, 0xbd, 0xbc, 0xf2, 0x93, 0xbe,
  0x75, 0x26, 0xba, 0x3d, 0xf0, 0x5a, 0x18, 0xbe, 0xe1, 0x61, 0x5f, 0xbe,
  0x75, 0x88, 0xd4, 0xbd, 0x03, 0xda, 0x27, 0x3e, 0x10, 0x5d, 0x07, 0xbe,
  0xaa, 0xa2, 0x54, 0xbe, 0xbd, 0x0c, 0x78, 0xbe, 0xc2, 0xea, 0x03, 0xbe,
  0xa6, 0xaa, 0x98, 0xbe, 0xd0, 0x10, 0x91, 0xbe, 0xc6, 0xae, 0x42, 0xbe,
  0x63, 0x67, 0x41, 0x3c, 0x9e, 0xc7, 0xf0, 0xbd, 0x2d, 0x6f, 0x0a, 0xbd,
  0x06, 0x95, 0x4e, 0xbc, 0x68, 0x42, 0x04, 0xbe, 0xaf, 0x5e, 0x8e, 0x3d,
  0x05, 0xba, 0x58, 0x3d, 0xcf, 0x5e, 0x0f, 0xbe, 0xa1, 0x86, 0x8a, 0xbe,
  0x7c, 0x7b, 0xe3, 0xbd, 0x87, 0xbf, 0x1e, 0x3d, 0x50, 0xb6, 0x80, 0xbd,
  0x52, 0x03, 0x68, 0x3c, 0x00, 0xc4, 0x4b, 0xbe, 0x10, 0xa6, 0x33, 0x3e,
  0xcc, 0x50, 0x96, 0xbe, 0xe2, 0xe6, 0x96, 0xbe, 0x45, 0x03, 0x9b, 0xbe,
  0xb8, 0xb1, 0x43, 0xbb, 0xc6, 0x9e, 0x10, 0xbf, 0xec, 0x18, 0xfc, 0xbe,
  0xa8, 0xbe, 0x1c, 0xbf, 0x2a, 0x68, 0xc1, 0x3d, 0x42, 0xa8, 0xdb, 0x3d,
  0x0f, 0x92, 0xbb, 0xbe, 0x34, 0x4d, 0xbf, 0x3b, 0x0a, 0xdd, 0xf9, 0xbc,
  0x2b, 0x58, 0xf7, 0xbc, 0xd5, 0xe1, 0xd4, 0x3d, 0xd0, 0xd1, 0x34, 0x3e,
  0x76, 0x7d, 0x66, 0x3d, 0x91, 0x97, 0x66, 0xbe, 0x80, 0x7c, 0x07, 0xbe,
  0x5a, 0x12, 0x34, 0xbe, 0x61, 0x39, 0x2a, 0xbe, 0xa8, 0xc9, 0xed, 0xbe,
  0x0c, 0x6c, 0xe9, 0xbb, 0xea, 0xc9, 0xc2, 0xbe, 0x80, 0x77, 0x97, 0x3b,
  0x80, 0x22, 0x35, 0x3e, 0xb3, 0x24, 0x87, 0xbe, 0x99, 0x40, 0x00, 0xbe,
  0xc5, 0x90, 0xc4, 0xbd, 0x23, 0x32, 0xd4, 0xbd, 0x5e, 0x6e, 0x1f, 0x3e,
  0x47, 0x7d, 0x26, 0x3e, 0xb0, 0x05, 0x2d, 0x3e, 0x7f, 0x61, 0x5b, 0xbe,
  0xb1, 0x21, 0x72, 0x3c, 0xf3, 0xeb, 0x5f, 0xbe, 0xce, 0xe6, 0xe6, 0xbd,
  0xf6, 0xd3, 0xdd, 0xbe, 0x38, 0xae, 0xef, 0xbd, 0x07, 0x3c, 0x31, 0xbe,
  0x1b, 0x26, 0x35, 0xbb, 0x05, 0x23, 0x65, 0x3e, 0x18, 0xc8, 0x28, 0xbe,
  0x93, 0x64, 0xac, 0xbd, 0xde, 0x8f, 0xc3, 0xbd, 0xf8, 0x16, 0x01, 0xbe,
  0x25, 0xf7, 0x86, 0xbe, 0xdc, 0x07, 0x7b, 0x3e, 0x27, 0x47, 0x01, 0x3e,
  0xa2, 0x8a, 0x25, 0xbe, 0xc1, 0x04, 0xac, 0xbe, 0x1b, 0xfd, 0x8f, 0xbe,
  0x1a, 0x1c, 0x79, 0xbe, 0x02, 0x4b, 0xce, 0xbe, 0x8f, 0xc8, 0x9d, 0xbd,
  0xfa, 0xf0, 0x90, 0xbe, 0xa1, 0x94, 0x39, 0x3b, 0x9d, 0xb4, 0xf3, 0x3d,
  0xaf, 0xf0, 0xc9, 0xbd, 0xbe, 0x6e, 0x9e, 0x3c, 0x14, 0x42, 0xe1, 0x3b,
  0x5d, 0xf7, 0xfa, 0xbd, 0x69, 0x38, 0x96, 0xbd, 0xf9, 0x98, 0x1a, 0x3e,
  0x98, 0x0b, 0xb3, 0xbd, 0xcb, 0xd3, 0x82, 0xbe, 0xe0, 0x9e, 0xd7, 0xbd,
  0xa4, 0x57, 0x2f, 0xbe, 0xd1, 0xf4, 0x06, 0xbe, 0x66, 0x54, 0xcd, 0xbe,
  0x43, 0xe9, 0xbe, 0x3b, 0xe9, 0xc7, 0xa9, 0xbe, 0x20, 0x99, 0x92, 0x3c,
  0x82, 0xfd, 0x22, 0x3e, 0xea, 0xc8, 0x88, 0xbc, 0x23, 0x89, 0x61, 0x3e,
  0x76, 0x6f, 0xe6, 0xbc, 0xff, 0xe9, 0x8f, 0xbd, 0x75, 0x28, 0xe3, 0xbe,
  0x84, 0xcb, 0x15, 0x3c, 0xa6, 0x78, 0x4a, 0x3d, 0xea, 0xb4, 0x97, 0x3e,
  0x9e, 0x8c, 0xab, 0x3e, 0x50, 0x09, 0xb9, 0x3d, 0x29, 0x81, 0x92, 0xbd,
  0x9c, 0x3c, 0xe9, 0xbc, 0x77, 0x08, 0xa0, 0xbe, 0x47, 0xfe, 0x8e, 0xbe,
  0x75, 0x16, 0x9b, 0x3d, 0x3d, 0xd7, 0xe6, 0x3d, 0x24, 0xed, 0x38, 0xbe,
  0x39, 0x0c, 0x55, 0x3e, 0x18, 0x48, 0x37, 0xbe, 0xd1, 0x84, 0xe2, 0x3d,
  0x7a, 0x7a, 0x25, 0xbf, 0x3d, 0xa5, 0x06, 0x3d, 0x9d, 0x39, 0x9b, 0xbe,
  0x3a, 0x92, 0xd7, 0x3e, 0x88, 0x26, 0x03, 0x3f, 0xf6, 0x9c, 0xc4, 0x3e,
  0xce, 0xc1, 0x2e, 0x3e, 0x4c, 0x11, 0xcb, 0x3d, 0xcd, 0x6d, 0x06, 0x3d,
  0x61, 0x7f, 0x9a, 0xbe, 0xd8, 0x55, 0x1e, 0xbd, 0x6d, 0xba, 0xa0, 0x3b,
  0xa0, 0xfb, 0x1a, 0xbf, 0x4e, 0xfe, 0xff, 0xff, 0x10, 0x00, 0x00, 0x00,
  0x05, 0x00, 0x00, 0x00, 0x14, 0x00, 0x00, 0x00, 0x2c, 0x00, 0x00, 0x00,
  0x02, 0x00, 0x00, 0x00, 0x10, 0x00, 0x00, 0x00, 0x70, 0x00, 0x00, 0x00,
  0x17, 0x00, 0x00, 0x00, 0x73, 0x65, 0x71, 0x75, 0x65, 0x6e, 0x74, 0x69,
  0x61, 0x6c, 0x2f, 0x64, 0x65, 0x6e, 0x73, 0x65, 0x2f, 0x4d, 0x61, 0x74,
  0x4d, 0x75, 0x6c, 0x00, 0x3c, 0xfe, 0xff, 0xff, 0x32, 0xff, 0xff, 0xff,
  0x04, 0x00, 0x00, 0x00, 0x08, 0x00, 0x00, 0x00, 0xff, 0xff, 0xff, 0xff,
  0x70, 0x00, 0x00, 0x00, 0x00, 0x00, 0x0e, 0x00, 0x18, 0x00, 0x08, 0x00,
  0x07, 0x00, 0x0c, 0x00, 0x10, 0x00, 0x14, 0x00, 0x0e, 0x00, 0x00, 0x00,
  0x00, 0x00, 0x00, 0x02, 0x10, 0x00, 0x00, 0x00, 0x04, 0x00, 0x00, 0x00,
  0x10, 0x00, 0x00, 0x00, 0x2c, 0x00, 0x00, 0x00, 0x01, 0x00, 0x00, 0x00,
  0x02, 0x00, 0x00, 0x00, 0x18, 0x00, 0x00, 0x00, 0x73, 0x65, 0x71, 0x75,
  0x65, 0x6e, 0x74, 0x69, 0x61, 0x6c, 0x2f, 0x66, 0x6c, 0x61, 0x74, 0x74,
  0x65, 0x6e, 0x2f, 0x43, 0x6f, 0x6e, 0x73, 0x74, 0x00, 0x00, 0x00, 0x00,
  0xa4, 0xfe, 0xff, 0xff, 0x9a, 0xff, 0xff, 0xff, 0x04, 0x00, 0x00, 0x00,
  0x08, 0x00, 0x00, 0x00, 0xbd, 0xc5, 0x17, 0xbf, 0xbf, 0xc5, 0x17, 0x3f,
  0x0a, 0xff, 0xff, 0xff, 0x10, 0x00, 0x00, 0x00, 0x03, 0x00, 0x00, 0x00,
  0x10, 0x00, 0x00, 0x00, 0x3c, 0x00, 0x00, 0x00, 0x01, 0x00, 0x00, 0x00,
  0x02, 0x00, 0x00, 0x00, 0x29, 0x00, 0x00, 0x00, 0x73, 0x65, 0x71, 0x75,
  0x65, 0x6e, 0x74, 0x69, 0x61, 0x6c, 0x2f, 0x64, 0x65, 0x6e, 0x73, 0x65,
  0x5f, 0x31, 0x2f, 0x42, 0x69, 0x61, 0x73, 0x41, 0x64, 0x64, 0x2f, 0x52,
  0x65, 0x61, 0x64, 0x56, 0x61, 0x72, 0x69, 0x61, 0x62, 0x6c, 0x65, 0x4f,
  0x70, 0x00, 0x00, 0x00, 0x60, 0xff, 0xff, 0xff, 0x00, 0x00, 0x06, 0x00,
  0x08, 0x00, 0x04, 0x00, 0x06, 0x00, 0x00, 0x00, 0x04, 0x00, 0x00, 0x00,
  0x40, 0x00, 0x00, 0x00, 0x08, 0x69, 0x3f, 0x3d, 0x7c, 0xf0, 0x08, 0xbf,
  0x3f, 0x90, 0x8f, 0x3f, 0x37, 0xd3, 0x59, 0x3f, 0x00, 0x49, 0x1a, 0x3e,
  0x0e, 0xdc, 0xad, 0x3f, 0xb8, 0x40, 0x9d, 0x3e, 0x02, 0x16, 0xc5, 0xbe,
  0x41, 0x4d, 0x83, 0x3f, 0x5c, 0xa4, 0xa5, 0xbe, 0x32, 0x5a, 0xed, 0x3f,
  0x2d, 0xdd, 0xcf, 0x3f, 0xb8, 0xf7, 0x1c, 0xbf, 0xa0, 0x08, 0xba, 0xbe,
  0xb5, 0x6f, 0x35, 0xbe, 0x63, 0x56, 0xa2, 0xbf, 0xae, 0xff, 0xff, 0xff,
  0x10, 0x00, 0x00, 0x00, 0x02, 0x00, 0x00, 0x00, 0x10, 0x00, 0x00, 0x00,
  0x3c, 0x00, 0x00, 0x00, 0x01, 0x00, 0x00, 0x00, 0x10, 0x00, 0x00, 0x00,
  0x27, 0x00, 0x00, 0x00, 0x73, 0x65, 0x71, 0x75, 0x65, 0x6e, 0x74, 0x69,
  0x61, 0x6c, 0x2f, 0x64, 0x65, 0x6e, 0x73, 0x65, 0x2f, 0x42, 0x69, 0x61,
  0x73, 0x41, 0x64, 0x64, 0x2f, 0x52, 0x65, 0x61, 0x64, 0x56, 0x61, 0x72,
  0x69, 0x61, 0x62, 0x6c, 0x65, 0x4f, 0x70, 0x00, 0x04, 0x00, 0x06, 0x00,
  0x04, 0x00, 0x00, 0x00, 0x00, 0x00, 0x0e, 0x00, 0x14, 0x00, 0x04, 0x00,
  0x00, 0x00, 0x08, 0x00, 0x0c, 0x00, 0x10, 0x00, 0x0e, 0x00, 0x00, 0x00,
  0x10, 0x00, 0x00, 0x00, 0x01, 0x00, 0x00, 0x00, 0x1c, 0x00, 0x00, 0x00,
  0x2c, 0x00, 0x00, 0x00, 0x04, 0x00, 0x00, 0x00, 0x01, 0x00, 0x00, 0x00,
  0x40, 0x00, 0x00, 0x00, 0x03, 0x00, 0x00, 0x00, 0x01, 0x00, 0x00, 0x00,
  0x0c, 0x00, 0x00, 0x00, 0x63, 0x6f, 0x6e, 0x76, 0x32, 0x64, 0x5f, 0x69,
  0x6e, 0x70, 0x75, 0x74, 0x00, 0x00, 0x00, 0x00, 0xfc, 0xff, 0xff, 0xff,
  0x04, 0x00, 0x04, 0x00, 0x04, 0x00, 0x00, 0x00
};


//unsigned int _content_midproject_model_model_tflite_len = 11940;
unsigned int model_tflite_len = 12248;// Fill the int in `src/model.cc` here