#include "magic_wand_model_data.h"


// We need to keep the data array aligned on some architectures.

#ifdef __has_attribute

#define HAVE_ATTRIBUTE(x) __has_attribute(x)

#else

#define HAVE_ATTRIBUTE(x) 0

#endif

#if HAVE_ATTRIBUTE(aligned) || (defined(__GNUC__) && !defined(__clang__))

#define DATA_ALIGN_ATTRIBUTE __attribute__((aligned(4)))

#else

#define DATA_ALIGN_ATTRIBUTE

#endif


const unsigned char g_magic_wand_model_data[] DATA_ALIGN_ATTRIBUTE = {

  // Paste the data of the char array in `src/model.cc` here

  0x08, 0x00, 0x00, 0x00, 0x54, 0x46, 0x4c, 0x33, 0x6a, 0xff, 0xff, 0xff,
  0x03, 0x00, 0x00, 0x00, 0x10, 0x00, 0x00, 0x00, 0x24, 0x00, 0x00, 0x00,
  0x70, 0x00, 0x00, 0x00, 0x24, 0x00, 0x00, 0x00, 0x05, 0x00, 0x00, 0x00,
  0x68, 0x05, 0x00, 0x00, 0xa0, 0x04, 0x00, 0x00, 0xd0, 0x02, 0x00, 0x00,
  0x50, 0x02, 0x00, 0x00, 0x44, 0x01, 0x00, 0x00, 0x01, 0x00, 0x00, 0x00,
  0x70, 0x00, 0x00, 0x00, 0x11, 0x00, 0x00, 0x00, 0x5c, 0x2e, 0x00, 0x00,
  0x58, 0x2e, 0x00, 0x00, 0x94, 0x2d, 0x00, 0x00, 0x3c, 0x11, 0x00, 0x00,
  0xa8, 0x10, 0x00, 0x00, 0x38, 0x10, 0x00, 0x00, 0x5c, 0x0e, 0x00, 0x00,
  0xcc, 0x0d, 0x00, 0x00, 0x70, 0x05, 0x00, 0x00, 0x38, 0x2e, 0x00, 0x00,
  0x34, 0x2e, 0x00, 0x00, 0x30, 0x2e, 0x00, 0x00, 0x2c, 0x2e, 0x00, 0x00,
  0x28, 0x2e, 0x00, 0x00, 0x24, 0x2e, 0x00, 0x00, 0x20, 0x2e, 0x00, 0x00,
  0x1c, 0x2e, 0x00, 0x00, 0x0f, 0x00, 0x00, 0x00, 0x4d, 0x4c, 0x49, 0x52,
  0x20, 0x43, 0x6f, 0x6e, 0x76, 0x65, 0x72, 0x74, 0x65, 0x64, 0x2e, 0x00,
  0x00, 0x00, 0x0e, 0x00, 0x18, 0x00, 0x04, 0x00, 0x08, 0x00, 0x0c, 0x00,
  0x10, 0x00, 0x14, 0x00, 0x0e, 0x00, 0x00, 0x00, 0x14, 0x00, 0x00, 0x00,
  0x54, 0x00, 0x00, 0x00, 0x58, 0x00, 0x00, 0x00, 0x5c, 0x00, 0x00, 0x00,
  0x7c, 0x00, 0x00, 0x00, 0x10, 0x00, 0x00, 0x00, 0x94, 0x2d, 0x00, 0x00,
  0x38, 0x2d, 0x00, 0x00, 0xc8, 0x2c, 0x00, 0x00, 0x74, 0x10, 0x00, 0x00,
  0xe4, 0x0f, 0x00, 0x00, 0x68, 0x0f, 0x00, 0x00, 0x98, 0x0d, 0x00, 0x00,
  0xfc, 0x0c, 0x00, 0x00, 0xb0, 0x04, 0x00, 0x00, 0xe8, 0x03, 0x00, 0x00,
  0x38, 0x03, 0x00, 0x00, 0xa4, 0x02, 0x00, 0x00, 0x10, 0x02, 0x00, 0x00,
  0x90, 0x01, 0x00, 0x00, 0xfc, 0x00, 0x00, 0x00, 0x80, 0x00, 0x00, 0x00,
  0x01, 0x00, 0x00, 0x00, 0x00, 0x00, 0x00, 0x00, 0x01, 0x00, 0x00, 0x00,
  0x0f, 0x00, 0x00, 0x00, 0x08, 0x00, 0x00, 0x00, 0x1c, 0x04, 0x00, 0x00,
  0x58, 0x03, 0x00, 0x00, 0xc8, 0x02, 0x00, 0x00, 0x24, 0x02, 0x00, 0x00,
  0xac, 0x01, 0x00, 0x00, 0x10, 0x01, 0x00, 0x00, 0x94, 0x00, 0x00, 0x00,
  0x10, 0x00, 0x00, 0x00, 0x04, 0x00, 0x00, 0x00, 0x6d, 0x61, 0x69, 0x6e,
  0x00, 0x00, 0x00, 0x00, 0x8e, 0xff, 0xff, 0xff, 0x00, 0x00, 0x00, 0x09,
  0x04, 0x00, 0x00, 0x00, 0x1c, 0x00, 0x00, 0x00, 0x10, 0x00, 0x00, 0x00,
  0x04, 0x00, 0x00, 0x00, 0x86, 0xd3, 0xff, 0xff, 0x00, 0x00, 0x80, 0x3f,
  0x01, 0x00, 0x00, 0x00, 0x0f, 0x00, 0x00, 0x00, 0x01, 0x00, 0x00, 0x00,
  0x0e, 0x00, 0x00, 0x00, 0xf6, 0xfb, 0xff, 0xff, 0x00, 0x00, 0x00, 0x19,
  0x01, 0x00, 0x00, 0x00, 0x36, 0xd3, 0xff, 0xff, 0x10, 0x00, 0x00, 0x00,
  0x10, 0x00, 0x00, 0x00, 0x14, 0x00, 0x00, 0x00, 0x20, 0x00, 0x00, 0x00,
  0x02, 0x00, 0x00, 0x00, 0x01, 0x00, 0x00, 0x00, 0x01, 0x00, 0x00, 0x00,
  0x08, 0x00, 0x00, 0x00, 0x49, 0x64, 0x65, 0x6e, 0x74, 0x69, 0x74, 0x79,
  0x00, 0x00, 0x00, 0x00, 0x70, 0xd3, 0xff, 0xff, 0x00, 0x00, 0x0e, 0x00,
  0x18, 0x00, 0x08, 0x00, 0x0c, 0x00, 0x10, 0x00, 0x07, 0x00, 0x14, 0x00,
  0x0e, 0x00, 0x00, 0x00, 0x00, 0x00, 0x00, 0x08, 0x03, 0x00, 0x00, 0x00,
  0x18, 0x00, 0x00, 0x00, 0x0c, 0x00, 0x00, 0x00, 0x04, 0x00, 0x00, 0x00,
  0x44, 0xd3, 0xff, 0xff, 0x01, 0x00, 0x00, 0x00, 0x0e, 0x00, 0x00, 0x00,
  0x03, 0x00, 0x00, 0x00, 0x0d, 0x00, 0x00, 0x00, 0x03, 0x00, 0x00, 0x00,
  0xff, 0xff, 0xff, 0xff, 0xae, 0xd3, 0xff, 0xff, 0x10, 0x00, 0x00, 0x00,
  0x0f, 0x00, 0x00, 0x00, 0x14, 0x00, 0x00, 0x00, 0x30, 0x00, 0x00, 0x00,
  0x02, 0x00, 0x00, 0x00, 0x01, 0x00, 0x00, 0x00, 0x01, 0x00, 0x00, 0x00,
  0x1a, 0x00, 0x00, 0x00, 0x73, 0x65, 0x71, 0x75, 0x65, 0x6e, 0x74, 0x69,
  0x61, 0x6c, 0x2f, 0x64, 0x65, 0x6e, 0x73, 0x65, 0x5f, 0x31, 0x2f, 0x4d,
  0x61, 0x74, 0x4d, 0x75, 0x6c, 0x32, 0x00, 0x00, 0xa0, 0xd3, 0xff, 0xff,
  0xd6, 0xfd, 0xff, 0xff, 0x00, 0x00, 0x00, 0x08, 0x03, 0x00, 0x00, 0x00,
  0x24, 0x00, 0x00, 0x00, 0x18, 0x00, 0x00, 0x00, 0x0c, 0x00, 0x00, 0x00,
  0x00, 0x00, 0x06, 0x00, 0x08, 0x00, 0x07, 0x00, 0x06, 0x00, 0x00, 0x00,
  0x00, 0x00, 0x00, 0x01, 0x01, 0x00, 0x00, 0x00, 0x0d, 0x00, 0x00, 0x00,
  0x03, 0x00, 0x00, 0x00, 0x0c, 0x00, 0x00, 0x00, 0x02, 0x00, 0x00, 0x00,
  0xff, 0xff, 0xff, 0xff, 0xfe, 0xfc, 0xff, 0xff, 0x00, 0x00, 0x00, 0x09,
  0x01, 0x00, 0x00, 0x00, 0x3e, 0xd4, 0xff, 0xff, 0x10, 0x00, 0x00, 0x00,
  0x0e, 0x00, 0x00, 0x00, 0x14, 0x00, 0x00, 0x00, 0x2c, 0x00, 0x00, 0x00,
  0x02, 0x00, 0x00, 0x00, 0x01, 0x00, 0x00, 0x00, 0x10, 0x00, 0x00, 0x00,
  0x15, 0x00, 0x00, 0x00, 0x73, 0x65, 0x71, 0x75, 0x65, 0x6e, 0x74, 0x69,
  0x61, 0x6c, 0x2f, 0x64, 0x65, 0x6e, 0x73, 0x65, 0x2f, 0x52, 0x65, 0x6c,
  0x75, 0x00, 0x00, 0x00, 0x84, 0xd4, 0xff, 0xff, 0x00, 0x00, 0x0a, 0x00,
  0x10, 0x00, 0x04, 0x00, 0x08, 0x00, 0x0c, 0x00, 0x0a, 0x00, 0x00, 0x00,
  0x02, 0x00, 0x00, 0x00, 0x10, 0x00, 0x00, 0x00, 0x04, 0x00, 0x00, 0x00,
  0x01, 0x00, 0x00, 0x00, 0x0c, 0x00, 0x00, 0x00, 0x02, 0x00, 0x00, 0x00,
  0x0b, 0x00, 0x00, 0x00, 0x01, 0x00, 0x00, 0x00, 0x7a, 0xfd, 0xff, 0xff,
  0x00, 0x00, 0x00, 0x16, 0x01, 0x00, 0x00, 0x00, 0xba, 0xd4, 0xff, 0xff,
  0x10, 0x00, 0x00, 0x00, 0x0d, 0x00, 0x00, 0x00, 0x14, 0x00, 0x00, 0x00,
  0x30, 0x00, 0x00, 0x00, 0x02, 0x00, 0x00, 0x00, 0x01, 0x00, 0x00, 0x00,
  0x70, 0x00, 0x00, 0x00, 0x1a, 0x00, 0x00, 0x00, 0x73, 0x65, 0x71, 0x75,
  0x65, 0x6e, 0x74, 0x69, 0x61, 0x6c, 0x2f, 0x66, 0x6c, 0x61, 0x74, 0x74,
  0x65, 0x6e, 0x2f, 0x52, 0x65, 0x73, 0x68, 0x61, 0x70, 0x65, 0x00, 0x00,
  0xac, 0xd4, 0xff, 0xff, 0xe2, 0xfe, 0xff, 0xff, 0x00, 0x00, 0x00, 0x05,
  0x01, 0x00, 0x00, 0x00, 0x38, 0x00, 0x00, 0x00, 0x2c, 0x00, 0x00, 0x00,
  0x14, 0x00, 0x00, 0x00, 0x00, 0x00, 0x0e, 0x00, 0x14, 0x00, 0x00, 0x00,
  0x10, 0x00, 0x0c, 0x00, 0x08, 0x00, 0x04, 0x00, 0x0e, 0x00, 0x00, 0x00,
  0x03, 0x00, 0x00, 0x00, 0x01, 0x00, 0x00, 0x00, 0x03, 0x00, 0x00, 0x00,
  0x01, 0x00, 0x00, 0x00, 0x01, 0x00, 0x00, 0x00, 0x0b, 0x00, 0x00, 0x00,
  0x01, 0x00, 0x00, 0x00, 0x0a, 0x00, 0x00, 0x00, 0x4a, 0xd5, 0xff, 0xff,
  0x10, 0x00, 0x00, 0x00, 0x0c, 0x00, 0x00, 0x00, 0x1c, 0x00, 0x00, 0x00,
  0x40, 0x00, 0x00, 0x00, 0x04, 0x00, 0x00, 0x00, 0x01, 0x00, 0x00, 0x00,
  0x07, 0x00, 0x00, 0x00, 0x01, 0x00, 0x00, 0x00, 0x10, 0x00, 0x00, 0x00,
  0x22, 0x00, 0x00, 0x00, 0x73, 0x65, 0x71, 0x75, 0x65, 0x6e, 0x74, 0x69,
  0x61, 0x6c, 0x2f, 0x6d, 0x61, 0x78, 0x5f, 0x70, 0x6f, 0x6f, 0x6c, 0x69,
  0x6e, 0x67, 0x32, 0x64, 0x5f, 0x31, 0x2f, 0x4d, 0x61, 0x78, 0x50, 0x6f,
  0x6f, 0x6c, 0x00, 0x00, 0x4c, 0xd5, 0xff, 0xff, 0xc2, 0xfe, 0xff, 0xff,
  0x00, 0x00, 0x00, 0x01, 0x24, 0x00, 0x00, 0x00, 0x18, 0x00, 0x00, 0x00,
  0x04, 0x00, 0x00, 0x00, 0xb4, 0xfe, 0xff, 0xff, 0x01, 0x00, 0x00, 0x00,
  0x01, 0x00, 0x00, 0x00, 0x00, 0x00, 0x00, 0x01, 0x01, 0x00, 0x00, 0x00,
  0x0a, 0x00, 0x00, 0x00, 0x03, 0x00, 0x00, 0x00, 0x09, 0x00, 0x00, 0x00,
  0x07, 0x00, 0x00, 0x00, 0x06, 0x00, 0x00, 0x00, 0xda, 0xd5, 0xff, 0xff,
  0x10, 0x00, 0x00, 0x00, 0x0b, 0x00, 0x00, 0x00, 0x1c, 0x00, 0x00, 0x00,
  0x2c, 0x00, 0x00, 0x00, 0x04, 0x00, 0x00, 0x00, 0x01, 0x00, 0x00, 0x00,
  0x15, 0x00, 0x00, 0x00, 0x01, 0x00, 0x00, 0x00, 0x10, 0x00, 0x00, 0x00,
  0x0c, 0x00, 0x00, 0x00, 0x74, 0x66, 0x6c, 0x2e, 0x63, 0x6f, 0x6e, 0x76,
  0x5f, 0x32, 0x64, 0x31, 0x00, 0x00, 0x00, 0x00, 0x20, 0xd6, 0xff, 0xff,
  0x00, 0x00, 0x0e, 0x00, 0x1a, 0x00, 0x08, 0x00, 0x0c, 0x00, 0x10, 0x00,
  0x07, 0x00, 0x14, 0x00, 0x0e, 0x00, 0x00, 0x00, 0x00, 0x00, 0x00, 0x05,
  0x01, 0x00, 0x00, 0x00, 0x3c, 0x00, 0x00, 0x00, 0x30, 0x00, 0x00, 0x00,
  0x14, 0x00, 0x00, 0x00, 0x00, 0x00, 0x0e, 0x00, 0x18, 0x00, 0x17, 0x00,
  0x10, 0x00, 0x0c, 0x00, 0x08, 0x00, 0x04, 0x00, 0x0e, 0x00, 0x00, 0x00,
  0x03, 0x00, 0x00, 0x00, 0x03, 0x00, 0x00, 0x00, 0x03, 0x00, 0x00, 0x00,
  0x03, 0x00, 0x00, 0x00, 0x00, 0x00, 0x00, 0x01, 0x01, 0x00, 0x00, 0x00,
  0x09, 0x00, 0x00, 0x00, 0x01, 0x00, 0x00, 0x00, 0x08, 0x00, 0x00, 0x00,
  0x46, 0xff, 0xff, 0xff, 0x00, 0x00, 0x00, 0x11, 0x01, 0x00, 0x00, 0x00,
  0x86, 0xd6, 0xff, 0xff, 0x10, 0x00, 0x00, 0x00, 0x0a, 0x00, 0x00, 0x00,
  0x1c, 0x00, 0x00, 0x00, 0x40, 0x00, 0x00, 0x00, 0x04, 0x00, 0x00, 0x00,
  0x01, 0x00, 0x00, 0x00, 0x15, 0x00, 0x00, 0x00, 0x01, 0x00, 0x00, 0x00,
  0x08, 0x00, 0x00, 0x00, 0x20, 0x00, 0x00, 0x00, 0x73, 0x65, 0x71, 0x75,
  0x65, 0x6e, 0x74, 0x69, 0x61, 0x6c, 0x2f, 0x6d, 0x61, 0x78, 0x5f, 0x70,
  0x6f, 0x6f, 0x6c, 0x69, 0x6e, 0x67, 0x32, 0x64, 0x2f, 0x4d, 0x61, 0x78,
  0x50, 0x6f, 0x6f, 0x6c, 0x00, 0x00, 0x00, 0x00, 0xe0, 0xd6, 0xff, 0xff,
  0x00, 0x00, 0x0e, 0x00, 0x14, 0x00, 0x00, 0x00, 0x08, 0x00, 0x0c, 0x00,
  0x07, 0x00, 0x10, 0x00, 0x0e, 0x00, 0x00, 0x00, 0x00, 0x00, 0x00, 0x01,
  0x30, 0x00, 0x00, 0x00, 0x24, 0x00, 0x00, 0x00, 0x10, 0x00, 0x00, 0x00,
  0x0c, 0x00, 0x10, 0x00, 0x00, 0x00, 0x04, 0x00, 0x08, 0x00, 0x0f, 0x00,
  0x0c, 0x00, 0x00, 0x00, 0x01, 0x00, 0x00, 0x00, 0x01, 0x00, 0x00, 0x00,
  0x00, 0x00, 0x00, 0x01, 0x01, 0x00, 0x00, 0x00, 0x08, 0x00, 0x00, 0x00,
  0x03, 0x00, 0x00, 0x00, 0x00, 0x00, 0x00, 0x00, 0x05, 0x00, 0x00, 0x00,
  0x04, 0x00, 0x00, 0x00, 0x00, 0x00, 0x0a, 0x00, 0x0c, 0x00, 0x07, 0x00,
  0x00, 0x00, 0x08, 0x00, 0x0a, 0x00, 0x00, 0x00, 0x00, 0x00, 0x00, 0x03,
  0x01, 0x00, 0x00, 0x00, 0x4a, 0xd7, 0xff, 0xff, 0x10, 0x00, 0x00, 0x00,
  0x09, 0x00, 0x00, 0x00, 0x1c, 0x00, 0x00, 0x00, 0x28, 0x00, 0x00, 0x00,
  0x04, 0x00, 0x00, 0x00, 0x01, 0x00, 0x00, 0x00, 0x40, 0x00, 0x00, 0x00,
  0x03, 0x00, 0x00, 0x00, 0x08, 0x00, 0x00, 0x00, 0x0b, 0x00, 0x00, 0x00,
  0x74, 0x66, 0x6c, 0x2e, 0x63, 0x6f, 0x6e, 0x76, 0x5f, 0x32, 0x64, 0x00,
  0x34, 0xd7, 0xff, 0xff, 0xfa, 0xd7, 0xff, 0xff, 0x04, 0x00, 0x00, 0x00,
  0x00, 0x08, 0x00, 0x00, 0xe4, 0x89, 0x24, 0x3e, 0x20, 0x50, 0xc2, 0xbc,
  0x80, 0x60, 0x1d, 0xbc, 0xa0, 0x25, 0x5a, 0x3d, 0xf8, 0x73, 0xcb, 0xbd,
  0x90, 0x08, 0x36, 0xbd, 0x90, 0xf0, 0xfc, 0xbd, 0xc0, 0xb0, 0xf0, 0x3d,
  0x10, 0x06, 0x4d, 0x3e, 0x9c, 0x4f, 0x62, 0x3e, 0x00, 0xc2, 0x23, 0xbc,
  0x24, 0xec, 0x71, 0xbe, 0xc4, 0xe0, 0x26, 0xbe, 0x40, 0xaf, 0x8c, 0x3d,
  0x28, 0xf8, 0x46, 0x3e, 0xa0, 0x51, 0x99, 0xbc, 0x90, 0xca, 0x69, 0x3e,
  0xc8, 0x0e, 0x64, 0x3e, 0xd8, 0x71, 0x3e, 0xbe, 0x00, 0x8b, 0x5e, 0x3b,
  0xa0, 0x78, 0xcb, 0x3c, 0xf0, 0x8d, 0x22, 0x3d, 0x34, 0xbd, 0x27, 0xbe,
  0x98, 0x38, 0xec, 0xbd, 0x10, 0x90, 0x9d, 0xbd, 0x20, 0x0f, 0x75, 0x3d,
  0xa8, 0x54, 0x4d, 0x3e, 0xc8, 0xd7, 0x94, 0x3d, 0x68, 0xaa, 0xb9, 0x3d,
  0xf0, 0x07, 0x21, 0x3e, 0x20, 0xb2, 0x47, 0xbd, 0xa8, 0x35, 0x6c, 0x3e,
  0x30, 0x39, 0xc5, 0x3d, 0xdc, 0xfe, 0x76, 0xbe, 0xb4, 0x47, 0x1e, 0x3e,
  0xc8, 0x0e, 0xdb, 0x3d, 0x98, 0x8b, 0x30, 0xbe, 0x98, 0xb1, 0xc5, 0xbd,
  0xf0, 0x5a, 0x6b, 0x3d, 0x44, 0x2b, 0x23, 0xbe, 0x80, 0x3a, 0xba, 0xbd,
  0x50, 0x79, 0x11, 0x3d, 0x58, 0x22, 0x4a, 0xbe, 0xa8, 0x0b, 0x27, 0x3e,
  0x8c, 0xe1, 0x2d, 0x3e, 0x40, 0x5d, 0x3b, 0x3c, 0x3c, 0x37, 0x7d, 0x3e,
  0xe8, 0x54, 0x36, 0x3e, 0x90, 0x92, 0x1b, 0xbd, 0x74, 0xa6, 0x31, 0x3e,
  0x00, 0x3d, 0x43, 0xbe, 0x40, 0xaf, 0xde, 0x3c, 0x98, 0x09, 0x5f, 0x3e,
  0xd4, 0x4d, 0x61, 0xbe, 0xd0, 0x1d, 0xa1, 0xbd, 0xf8, 0x01, 0x13, 0xbe,
  0xc0, 0x64, 0x40, 0x3e, 0x00, 0x64, 0x3d, 0x3d, 0xf0, 0x09, 0x3e, 0xbd,
  0xc0, 0x0b, 0x42, 0x3c, 0xc8, 0x5f, 0xf9, 0x3d, 0x10, 0x1f, 0x10, 0xbd,
  0x18, 0x4a, 0xea, 0xbd, 0xa0, 0xe8, 0x97, 0x3d, 0x58, 0x13, 0x01, 0xbe,
  0x98, 0x50, 0x91, 0xbd, 0x10, 0x91, 0xe6, 0x3d, 0x60, 0x91, 0xdd, 0xbd,
  0x98, 0x9a, 0x5b, 0x3e, 0x30, 0x65, 0x38, 0xbd, 0x68, 0x09, 0x4a, 0xbe,
  0xe0, 0x3d, 0x8f, 0xbd, 0xbc, 0x36, 0x2f, 0xbe, 0xdc, 0x16, 0x64, 0xbe,
  0x24, 0x08, 0x2e, 0x3e, 0x48, 0xa9, 0x6c, 0x3e, 0xe0, 0xdf, 0x1c, 0xbe,
  0xc4, 0x38, 0x2a, 0x3e, 0xf0, 0xed, 0xca, 0xbd, 0x44, 0x24, 0x28, 0x3e,
  0x64, 0x91, 0x4f, 0xbe, 0xa0, 0xe5, 0xf2, 0xbc, 0xb0, 0xf5, 0x06, 0x3d,
  0x20, 0xd2, 0x1e, 0x3d, 0xd0, 0x12, 0x0c, 0xbd, 0x30, 0xda, 0x52, 0xbd,
  0x58, 0x9f, 0x36, 0x3e, 0x88, 0xee, 0xf0, 0x3d, 0x10, 0x4a, 0xe7, 0xbd,
  0x38, 0x8d, 0xf4, 0x3d, 0xa0, 0x40, 0xde, 0x3d, 0x80, 0xdf, 0x44, 0xbe,
  0x24, 0x3e, 0x3b, 0xbe, 0x38, 0x31, 0xae, 0x3d, 0xd0, 0x9d, 0x6d, 0x3d,
  0xa4, 0xc5, 0x13, 0x3e, 0xc0, 0x7c, 0x24, 0xbd, 0x38, 0x64, 0xb0, 0x3d,
  0x18, 0x93, 0x0d, 0x3e, 0x90, 0xe6, 0x1f, 0x3e, 0x9c, 0x46, 0x5e, 0x3e,
  0x68, 0xa0, 0x7b, 0x3e, 0x88, 0x74, 0x15, 0x3e, 0x78, 0x9d, 0x42, 0x3e,
  0x70, 0x76, 0xdc, 0xbd, 0x74, 0x03, 0x47, 0x3e, 0xd0, 0xad, 0x2e, 0x3e,
  0x40, 0x79, 0x44, 0x3e, 0x00, 0x38, 0x5c, 0x3a, 0xe0, 0x76, 0x46, 0x3e,
  0x70, 0xeb, 0x13, 0x3e, 0x30, 0x37, 0xc8, 0x3d, 0xc8, 0xe1, 0x28, 0x3e,
  0x18, 0x07, 0xdf, 0xbd, 0x00, 0x6e, 0xa7, 0x3b, 0xd8, 0x3b, 0x22, 0x3e,
  0xa8, 0xb3, 0xa5, 0x3d, 0x90, 0x6d, 0xa9, 0xbd, 0x40, 0xcc, 0xcd, 0xbc,
  0x00, 0x34, 0xc6, 0xbd, 0x68, 0xa8, 0x3f, 0x3e, 0x18, 0x2f, 0x2a, 0xbe,
  0xa8, 0x0f, 0xed, 0xbd, 0xfc, 0xdb, 0x08, 0xbe, 0x60, 0x39, 0x69, 0x3d,
  0x64, 0x7e, 0x12, 0x3e, 0xe0, 0x71, 0xbc, 0xbd, 0x60, 0x58, 0xb4, 0xbc,
  0x94, 0x20, 0x1a, 0x3e, 0xe8, 0x1f, 0x67, 0xbe, 0x20, 0x78, 0xa6, 0xbd,
  0x68, 0xea, 0x42, 0xbe, 0x0c, 0xf5, 0x72, 0xbe, 0x60, 0x78, 0x3e, 0xbe,
  0x08, 0xf8, 0x43, 0xbe, 0xa0, 0x29, 0xfa, 0xbc, 0xd0, 0x16, 0x1e, 0xbe,
  0x20, 0xc0, 0x21, 0xbd, 0x80, 0xcb, 0x0d, 0xbe, 0xe0, 0x21, 0xf9, 0xbd,
  0xe8, 0xf7, 0xce, 0xbd, 0x20, 0x7d, 0x40, 0xbd, 0x0c, 0xe3, 0x7d, 0xbe,
  0x84, 0x2d, 0x19, 0xbe, 0x48, 0x01, 0xa6, 0xbd, 0x40, 0xcd, 0xe5, 0xbc,
  0x00, 0x49, 0xa5, 0x3c, 0x1c, 0xbb, 0x42, 0xbe, 0xc0, 0xe1, 0x62, 0x3e,
  0xb0, 0x5b, 0x5b, 0xbe, 0x98, 0x98, 0xc3, 0x3d, 0x9c, 0x8f, 0x46, 0x3e,
  0x90, 0xe8, 0x74, 0xbd, 0x84, 0xb7, 0x07, 0xbe, 0x18, 0x09, 0xbe, 0xbd,
  0xa0, 0xa1, 0x1a, 0xbd, 0x98, 0xce, 0x3a, 0x3e, 0x24, 0x1b, 0x46, 0x3e,
  0xf4, 0x8b, 0x41, 0x3e, 0x20, 0xbb, 0xd7, 0x3c, 0x90, 0x3b, 0xcd, 0x3d,
  0x50, 0x0c, 0x18, 0x3d, 0x78, 0x62, 0x38, 0xbe, 0xd8, 0x6d, 0xa0, 0xbd,
  0xd8, 0x76, 0x18, 0x3e, 0xa0, 0x87, 0x14, 0xbe, 0x8c, 0x08, 0x40, 0xbe,
  0x04, 0x4c, 0x02, 0xbe, 0x10, 0x73, 0xcf, 0xbd, 0xc0, 0x3f, 0x1b, 0xbd,
  0x40, 0x3c, 0x16, 0x3c, 0xf0, 0xc4, 0x76, 0xbd, 0x5c, 0x18, 0x5a, 0x3e,
  0x60, 0x19, 0x5a, 0xbe, 0x68, 0xf0, 0x74, 0x3e, 0x60, 0xd5, 0x9a, 0x3d,
  0x20, 0x53, 0x8e, 0xbc, 0x48, 0xeb, 0xb9, 0xbd, 0x00, 0x93, 0xcf, 0xbd,
  0xd8, 0x5b, 0x2e, 0x3e, 0x00, 0xf6, 0x55, 0x3d, 0x20, 0xc5, 0xb8, 0x3c,
  0x6c, 0x22, 0x3c, 0xbe, 0xc0, 0x33, 0xf4, 0xbd, 0xb0, 0xd4, 0x0e, 0x3e,
  0x10, 0x45, 0x31, 0xbe, 0x04, 0x77, 0x38, 0xbe, 0x40, 0x5d, 0xf8, 0xbd,
  0xc0, 0x2d, 0xae, 0x3d, 0x50, 0xbb, 0xe0, 0xbd, 0x24, 0xa1, 0x5b, 0x3e,
  0xc8, 0xc2, 0xd4, 0xbd, 0x84, 0xc1, 0x0b, 0xbe, 0x90, 0x8f, 0x99, 0xbd,
  0x14, 0x04, 0x63, 0x3e, 0x4c, 0x39, 0x0b, 0x3e, 0x48, 0xc8, 0xfa, 0x3d,
  0x00, 0x19, 0x0b, 0xbd, 0x80, 0xd1, 0x82, 0xbc, 0xf0, 0xe8, 0x35, 0x3e,
  0xc0, 0x02, 0xc1, 0x3c, 0x20, 0x05, 0xf1, 0x3c, 0x70, 0x23, 0x45, 0xbe,
  0xf0, 0x9a, 0x05, 0xbd, 0x40, 0xd9, 0xd3, 0x3d, 0x9c, 0x4f, 0x74, 0xbe,
  0x0c, 0x8e, 0x79, 0x3e, 0xdc, 0xb6, 0x5a, 0xbe, 0x8c, 0x81, 0x60, 0xbe,
  0x10, 0x61, 0xa5, 0xbd, 0x20, 0xe2, 0x56, 0x3d, 0x60, 0x3f, 0xaa, 0xbd,
  0x80, 0xd7, 0x91, 0xbb, 0x88, 0xd2, 0x17, 0xbe, 0x78, 0xd2, 0xf3, 0x3d,
  0x98, 0x10, 0xb9, 0xbd, 0xd8, 0xf2, 0x7a, 0x3e, 0x50, 0x47, 0x81, 0x3d,
  0x5c, 0xf4, 0x33, 0x3e, 0x60, 0xb9, 0x74, 0x3d, 0xf0, 0xf9, 0x9e, 0x3d,
  0xb0, 0xd2, 0x3d, 0x3e, 0x20, 0x0d, 0xaa, 0x3c, 0x9c, 0x03, 0x7e, 0x3e,
  0x00, 0x83, 0xde, 0x3d, 0xd8, 0x36, 0x76, 0x3e, 0x20, 0xa2, 0x97, 0x3d,
  0x18, 0x0f, 0xf0, 0x3d, 0xa0, 0xd8, 0xce, 0x3c, 0x3c, 0xaa, 0x5c, 0xbe,
  0xc4, 0x92, 0x5f, 0xbe, 0x48, 0x77, 0xa8, 0x3d, 0xa8, 0xf6, 0x32, 0x3e,
  0x80, 0x0c, 0x7e, 0xbd, 0xf4, 0xd5, 0x73, 0x3e, 0x60, 0xe1, 0x5c, 0xbd,
  0x40, 0x28, 0x04, 0xbd, 0xf0, 0x83, 0xa1, 0x3d, 0x14, 0xd7, 0x4e, 0xbe,
  0x48, 0xad, 0x35, 0x3e, 0x38, 0x7a, 0x8f, 0x3d, 0xa8, 0x5e, 0xc4, 0x3d,
  0x40, 0x32, 0xdc, 0x3d, 0xf0, 0x34, 0xde, 0x3d, 0x80, 0x15, 0x1d, 0x3c,
  0x88, 0x4f, 0x2d, 0xbe, 0x60, 0xf3, 0x70, 0x3e, 0x30, 0x53, 0x65, 0xbe,
  0xc0, 0x43, 0x51, 0x3e, 0xa4, 0x03, 0x7d, 0xbe, 0x70, 0x5b, 0x0e, 0x3d,
  0xd4, 0xbe, 0x65, 0x3e, 0x50, 0x54, 0xc6, 0xbd, 0x40, 0xc0, 0x7b, 0x3c,
  0x90, 0x9c, 0x54, 0xbd, 0x90, 0x59, 0x15, 0xbd, 0x00, 0x8a, 0x2a, 0x3e,
  0x1c, 0x04, 0x27, 0xbe, 0xa0, 0x99, 0xd4, 0x3c, 0x04, 0xc2, 0x24, 0xbe,
  0xe0, 0x99, 0x9a, 0xbd, 0x4c, 0x5f, 0x15, 0x3e, 0xac, 0xb5, 0x75, 0x3e,
  0xe0, 0x62, 0xd1, 0xbd, 0x60, 0x40, 0x5f, 0xbd, 0x0c, 0xb0, 0x6f, 0x3e,
  0x90, 0x71, 0x84, 0x3d, 0xa0, 0xd9, 0x6d, 0xbe, 0x8c, 0x4b, 0x3a, 0x3e,
  0xc8, 0x01, 0x6b, 0x3e, 0x68, 0x04, 0x0f, 0x3e, 0x50, 0xdb, 0x1b, 0xbd,
  0x48, 0x19, 0x89, 0xbd, 0x58, 0x4f, 0x9c, 0x3d, 0x5c, 0x75, 0x66, 0x3e,
  0xa8, 0xdc, 0x95, 0x3d, 0x80, 0x15, 0x01, 0x3e, 0x68, 0xbb, 0x2c, 0x3e,
  0x48, 0x3a, 0x09, 0xbe, 0x1c, 0x3f, 0x38, 0x3e, 0xd0, 0x38, 0x87, 0xbd,
  0xa8, 0x59, 0xe8, 0xbd, 0xd4, 0x00, 0x12, 0x3e, 0xb0, 0xdc, 0x47, 0xbe,
  0x58, 0xa5, 0x98, 0xbd, 0xa8, 0x59, 0x67, 0xbe, 0xc0, 0xc1, 0x0a, 0xbc,
  0x64, 0x26, 0x7e, 0x3e, 0x68, 0xfc, 0x40, 0x3e, 0x58, 0x01, 0x4a, 0x3e,
  0x70, 0xed, 0xa4, 0x3d, 0xf0, 0x49, 0x0e, 0x3e, 0x40, 0xb8, 0xde, 0x3d,
  0x40, 0x49, 0x25, 0x3d, 0x60, 0x0e, 0xc7, 0xbd, 0xa8, 0x72, 0xfc, 0xbd,
  0xa4, 0xb0, 0x5a, 0xbe, 0xd8, 0x29, 0x99, 0x3d, 0x10, 0x88, 0x27, 0xbe,
  0xec, 0x52, 0x4d, 0x3e, 0x34, 0x19, 0x0e, 0x3e, 0x9c, 0xc9, 0x2d, 0xbe,
  0xe4, 0x99, 0x0e, 0xbe, 0xe0, 0x70, 0xc5, 0x3c, 0x28, 0x2e, 0x70, 0xbe,
  0xb8, 0xcd, 0x05, 0x3e, 0x10, 0x8d, 0x6e, 0x3e, 0xfc, 0x15, 0x76, 0x3e,
  0xe8, 0xd9, 0xf2, 0xbd, 0xa8, 0x0d, 0xdd, 0xbd, 0xdc, 0x8d, 0x69, 0x3e,
  0x1c, 0x91, 0x35, 0xbe, 0xbc, 0xc0, 0x50, 0x3e, 0x78, 0xba, 0x85, 0x3d,
  0xd8, 0x21, 0x3c, 0x3e, 0xa4, 0x2b, 0x24, 0x3e, 0x98, 0x83, 0x76, 0x3e,
  0xa8, 0x5b, 0x17, 0x3e, 0x50, 0x0f, 0xac, 0x3d, 0xd0, 0x40, 0xa2, 0x3d,
  0xb4, 0x66, 0x63, 0x3e, 0x00, 0x30, 0x26, 0x3c, 0x40, 0x1d, 0xa3, 0x3c,
  0xa0, 0x51, 0xa9, 0x3d, 0xd0, 0xdc, 0x34, 0xbd, 0x50, 0xd0, 0x2b, 0x3e,
  0x34, 0xd2, 0x29, 0xbe, 0xfc, 0xef, 0x74, 0x3e, 0x58, 0xc9, 0xc5, 0xbd,
  0x88, 0xb3, 0x21, 0x3e, 0x38, 0xed, 0x21, 0xbe, 0x0c, 0x77, 0x67, 0xbe,
  0x20, 0x56, 0x50, 0xbd, 0xf8, 0x61, 0x84, 0x3d, 0x40, 0xa6, 0x44, 0x3d,
  0x38, 0xd5, 0x4f, 0xbe, 0xe8, 0x9b, 0x59, 0xbe, 0x70, 0x7d, 0x4c, 0xbe,
  0x80, 0xf4, 0xd3, 0xbb, 0x80, 0x63, 0x86, 0xbd, 0xf4, 0x48, 0x18, 0x3e,
  0x10, 0xa8, 0x60, 0x3e, 0xd8, 0x9e, 0x39, 0x3e, 0x68, 0x3a, 0xfe, 0x3d,
  0x38, 0xe1, 0x88, 0x3d, 0xc0, 0xd4, 0xe5, 0x3d, 0x54, 0xbe, 0x42, 0xbe,
  0x9c, 0xfa, 0x0a, 0xbe, 0xe8, 0x89, 0x33, 0x3e, 0x68, 0x55, 0xdc, 0x3d,
  0xb0, 0x84, 0x5d, 0xbe, 0x30, 0xa7, 0x75, 0x3e, 0x54, 0xb6, 0x5a, 0x3e,
  0x5c, 0xcf, 0x71, 0x3e, 0x70, 0x02, 0x5e, 0x3e, 0x70, 0xde, 0x10, 0x3e,
  0xb0, 0xe6, 0xa6, 0xbd, 0x7c, 0x9a, 0x1b, 0x3e, 0xcc, 0xd3, 0x50, 0xbe,
  0x80, 0x4e, 0x0c, 0x3e, 0xa0, 0x93, 0x9c, 0xbc, 0xa8, 0xc3, 0x8f, 0xbd,
  0xd8, 0x92, 0xa9, 0x3d, 0xb0, 0x61, 0x28, 0x3d, 0xd4, 0x93, 0x74, 0xbe,
  0x00, 0xec, 0x4b, 0x3b, 0x30, 0x71, 0xfa, 0xbd, 0x80, 0x98, 0xe1, 0x3d,
  0xfc, 0x00, 0x79, 0xbe, 0x18, 0x4a, 0x78, 0xbe, 0x18, 0xc4, 0x6c, 0x3e,
  0x90, 0x10, 0x9d, 0x3d, 0x80, 0x5a, 0x9c, 0x3b, 0x58, 0x09, 0x42, 0x3e,
  0x00, 0x86, 0xa9, 0x3d, 0x80, 0x81, 0x72, 0xbd, 0x20, 0x0e, 0x68, 0xbd,
  0x10, 0xa8, 0xb1, 0x3d, 0x94, 0xa1, 0x42, 0x3e, 0x48, 0xf4, 0x3f, 0x3e,
  0xc0, 0xdf, 0x2d, 0xbc, 0x74, 0x02, 0x61, 0xbe, 0xa8, 0xa6, 0xc2, 0x3d,
  0xc0, 0xea, 0xb1, 0xbd, 0x40, 0x90, 0xdb, 0x3c, 0xc8, 0xa9, 0x15, 0x3e,
  0xa0, 0x4c, 0x15, 0xbd, 0x50, 0x6e, 0xcb, 0xbd, 0xec, 0xbf, 0x50, 0xbe,
  0x14, 0x9a, 0x10, 0xbe, 0xe0, 0xd1, 0x90, 0x3d, 0xe0, 0xc5, 0x9a, 0x3d,
  0xc0, 0x32, 0x92, 0x3d, 0x38, 0x82, 0x21, 0x3e, 0x60, 0x98, 0xfe, 0x3c,
  0xd8, 0xe3, 0xa3, 0xbd, 0x80, 0x8d, 0x5e, 0xbe, 0xf4, 0x50, 0x48, 0xbe,
  0xe0, 0x63, 0x64, 0x3e, 0x48, 0xea, 0xc1, 0xbd, 0xa0, 0x96, 0xd6, 0xbd,
  0x50, 0x56, 0x28, 0xbd, 0x88, 0x96, 0x73, 0xbe, 0x00, 0xc4, 0x3f, 0xbb,
  0x70, 0x81, 0x34, 0x3e, 0x9c, 0xea, 0x6a, 0x3e, 0xf0, 0xfe, 0x73, 0x3d,
  0x78, 0x19, 0x84, 0x3d, 0x68, 0xbc, 0xd4, 0xbd, 0x30, 0xc6, 0x4a, 0x3d,
  0x98, 0x35, 0x61, 0x3e, 0xac, 0xda, 0x6f, 0x3e, 0xc8, 0xe1, 0xf5, 0xbd,
  0xa4, 0xfd, 0x42, 0x3e, 0x10, 0xfd, 0x52, 0x3d, 0x80, 0x76, 0xbc, 0x3d,
  0xec, 0x72, 0x5e, 0xbe, 0xe0, 0xf1, 0x38, 0xbd, 0xd8, 0x08, 0x10, 0xbe,
  0x80, 0x40, 0x5a, 0xbe, 0x18, 0x4e, 0xe4, 0xbd, 0x00, 0x52, 0x3f, 0xbb,
  0x04, 0xb1, 0x44, 0xbe, 0xac, 0x20, 0x6d, 0x3e, 0x34, 0x5f, 0x33, 0xbe,
  0xb8, 0x4a, 0x1e, 0xbe, 0xa0, 0x0c, 0x1e, 0x3d, 0x10, 0xf4, 0xa2, 0x3d,
  0x90, 0xaa, 0x76, 0xbe, 0x70, 0x34, 0x90, 0x3d, 0xf0, 0xe1, 0x59, 0xbd,
  0xa0, 0xe2, 0xbc, 0xbc, 0x50, 0xf6, 0x22, 0xbe, 0xc0, 0x22, 0x4d, 0x3e,
  0xbc, 0xf8, 0x33, 0x3e, 0x20, 0x63, 0xe2, 0x3d, 0x20, 0x0d, 0xe2, 0x3c,
  0xf8, 0x31, 0x53, 0xbe, 0x48, 0x8d, 0x2d, 0xbe, 0x98, 0x61, 0xbc, 0xbd,
  0xe8, 0xad, 0x6b, 0xbe, 0x18, 0x1b, 0x5a, 0xbe, 0x60, 0x69, 0x9f, 0x3d,
  0x54, 0x5b, 0x1d, 0x3e, 0x58, 0xa8, 0x95, 0x3d, 0x20, 0x4e, 0x80, 0xbd,
  0x00, 0x99, 0x2f, 0xbc, 0x48, 0xfe, 0x2c, 0xbe, 0xf0, 0x70, 0x6d, 0x3e,
  0xa8, 0x1d, 0xfc, 0xbd, 0x18, 0x13, 0x58, 0xbe, 0x3c, 0xaf, 0x78, 0xbe,
  0xc0, 0x88, 0x15, 0x3d, 0xa4, 0xc6, 0x07, 0x3e, 0x98, 0x11, 0x67, 0xbe,
  0xf8, 0xdf, 0x42, 0x3e, 0x7c, 0x99, 0x1f, 0x3e, 0x50, 0xcf, 0x4d, 0xbe,
  0xa0, 0x4b, 0x0f, 0x3e, 0x60, 0x0b, 0xf6, 0x3d, 0xc0, 0x05, 0xc5, 0xbd,
  0x98, 0x1a, 0x29, 0x3e, 0x1c, 0x73, 0x1c, 0x3e, 0x80, 0x23, 0x78, 0x3e,
  0x80, 0xc0, 0x8e, 0xbb, 0x40, 0xb1, 0xb0, 0x3c, 0x54, 0xe0, 0x61, 0xbe,
  0x80, 0x51, 0xde, 0x3c, 0xc8, 0xad, 0x00, 0x3e, 0xdc, 0x49, 0x21, 0xbe,
  0x04, 0xa3, 0x5a, 0xbe, 0x60, 0xba, 0x08, 0x3e, 0x60, 0x7e, 0xe1, 0xbc,
  0x3c, 0x78, 0x48, 0xbe, 0xb0, 0x96, 0x68, 0x3d, 0x18, 0xc3, 0x6b, 0xbe,
  0x34, 0xe2, 0x76, 0xbe, 0xb0, 0xf6, 0x41, 0x3d, 0xd0, 0x5d, 0x72, 0x3d,
  0xd0, 0x95, 0x1c, 0x3e, 0x00, 0x48, 0x28, 0x3a, 0xec, 0xde, 0x42, 0xbe,
  0x50, 0x7b, 0x6b, 0xbd, 0x74, 0xe2, 0x7f, 0xbe, 0x7c, 0x02, 0x2f, 0xbe,
  0xc0, 0xbf, 0x37, 0x3d, 0x9c, 0xad, 0x43, 0xbe, 0xc0, 0x21, 0x5d, 0x3e,
  0xd8, 0xa7, 0xee, 0x3d, 0x84, 0x52, 0x60, 0x3e, 0x60, 0xf7, 0x9f, 0x3c,
  0xa0, 0x32, 0x37, 0xbe, 0x60, 0x28, 0xaf, 0xbc, 0x60, 0x5a, 0x93, 0xbc,
  0x50, 0x58, 0x18, 0xbd, 0x20, 0xdf, 0x7f, 0xbe, 0x14, 0x03, 0x68, 0x3e,
  0x90, 0x5d, 0x7d, 0x3e, 0xf4, 0x85, 0x05, 0x3e, 0x20, 0xd3, 0xeb, 0x3d,
  0xc8, 0x8d, 0xbc, 0x3d, 0x90, 0xf3, 0x7e, 0xbd, 0x70, 0xd6, 0xa4, 0xbd,
  0x0c, 0xc2, 0x72, 0xbe, 0x60, 0x92, 0xa2, 0x3c, 0x3c, 0xcc, 0x25, 0x3e,
  0xc0, 0x91, 0xd5, 0xbd, 0x58, 0xef, 0xb5, 0x3d, 0xc0, 0xcf, 0x90, 0xbd,
  0x5c, 0x0b, 0x66, 0x3e, 0xbc, 0x18, 0x3c, 0xbe, 0xd0, 0x56, 0xbb, 0x3d,
  0x92, 0xdf, 0xff, 0xff, 0x10, 0x00, 0x00, 0x00, 0x08, 0x00, 0x00, 0x00,
  0x1c, 0x00, 0x00, 0x00, 0x38, 0x00, 0x00, 0x00, 0x04, 0x00, 0x00, 0x00,
  0x10, 0x00, 0x00, 0x00, 0x04, 0x00, 0x00, 0x00, 0x01, 0x00, 0x00, 0x00,
  0x08, 0x00, 0x00, 0x00, 0x1b, 0x00, 0x00, 0x00, 0x73, 0x65, 0x71, 0x75,
  0x65, 0x6e, 0x74, 0x69, 0x61, 0x6c, 0x2f, 0x63, 0x6f, 0x6e, 0x76, 0x32,
  0x64, 0x5f, 0x31, 0x2f, 0x43, 0x6f, 0x6e, 0x76, 0x32, 0x44, 0x31, 0x00,
  0x8c, 0xdf, 0xff, 0xff, 0x52, 0xe0, 0xff, 0xff, 0x04, 0x00, 0x00, 0x00,
  0x40, 0x00, 0x00, 0x00, 0x00, 0x00, 0x00, 0x00, 0x00, 0x00, 0x00, 0x00,
  0x00, 0x00, 0x00, 0x00, 0x00, 0x00, 0x00, 0x00, 0x00, 0x00, 0x00, 0x00,
  0x00, 0x00, 0x00, 0x00, 0x00, 0x00, 0x00, 0x00, 0x00, 0x00, 0x00, 0x00,
  0x00, 0x00, 0x00, 0x00, 0x00, 0x00, 0x00, 0x00, 0x00, 0x00, 0x00, 0x00,
  0x00, 0x00, 0x00, 0x00, 0x00, 0x00, 0x00, 0x00, 0x00, 0x00, 0x00, 0x00,
  0x00, 0x00, 0x00, 0x00, 0x00, 0x00, 0x00, 0x00, 0x2a, 0xe0, 0xff, 0xff,
  0x10, 0x00, 0x00, 0x00, 0x07, 0x00, 0x00, 0x00, 0x10, 0x00, 0x00, 0x00,
  0x2c, 0x00, 0x00, 0x00, 0x01, 0x00, 0x00, 0x00, 0x10, 0x00, 0x00, 0x00,
  0x1a, 0x00, 0x00, 0x00, 0x73, 0x65, 0x71, 0x75, 0x65, 0x6e, 0x74, 0x69,
  0x61, 0x6c, 0x2f, 0x63, 0x6f, 0x6e, 0x76, 0x32, 0x64, 0x5f, 0x31, 0x2f,
  0x43, 0x6f, 0x6e, 0x76, 0x32, 0x44, 0x00, 0x00, 0x18, 0xe0, 0xff, 0xff,
  0xde, 0xe0, 0xff, 0xff, 0x04, 0x00, 0x00, 0x00, 0x80, 0x01, 0x00, 0x00,
  0xec, 0x8b, 0x2e, 0xbe, 0x86, 0xc0, 0x82, 0xbd, 0xb6, 0xd6, 0x92, 0xbd,
  0xb6, 0x69, 0x9a, 0xbd, 0xec, 0xd2, 0x61, 0x3d, 0xb6, 0x14, 0xcf, 0xbd,
  0x14, 0x59, 0x76, 0x3d, 0x87, 0x43, 0x3c, 0x3e, 0xc0, 0x89, 0xee, 0x3b,
  0x2c, 0x0e, 0x27, 0x3d, 0x16, 0x7c, 0x22, 0xbe, 0x6c, 0x27, 0x2a, 0xbd,
  0xa3, 0xc4, 0x6f, 0x3e, 0x36, 0xb7, 0x49, 0xbe, 0xb8, 0x17, 0x45, 0xbd,
  0x41, 0xf9, 0x2d, 0x3e, 0x7b, 0xd8, 0x30, 0x3e, 0xe8, 0x6c, 0x21, 0xbd,
  0xe2, 0x88, 0xc3, 0x3d, 0xb6, 0x34, 0x8b, 0x3d, 0xd0, 0xd2, 0xaa, 0xbd,
  0xb2, 0x5e, 0x1b, 0xbe, 0x3a, 0x63, 0xfa, 0x3d, 0x28, 0xe1, 0x35, 0xbd,
  0xf6, 0x70, 0x1f, 0xbe, 0xa0, 0x20, 0x13, 0xbd, 0xb3, 0xb1, 0x08, 0xbe,
  0xaf, 0x9e, 0x5d, 0xbe, 0x09, 0x51, 0x03, 0xbe, 0x31, 0xac, 0x18, 0x3e,
  0x64, 0xcf, 0x0d, 0x3d, 0x78, 0x84, 0xbe, 0xbc, 0x95, 0x4b, 0x71, 0xbe,
  0xb4, 0x64, 0x5e, 0x3d, 0x63, 0x24, 0x57, 0x3e, 0x53, 0xda, 0x3f, 0x3e,
  0x32, 0x07, 0xc6, 0xbd, 0x10, 0x1d, 0x65, 0x3c, 0x42, 0x97, 0x5c, 0xbe,
  0x2a, 0x3f, 0x03, 0xbe, 0x91, 0x0d, 0x71, 0x3e, 0xcf, 0x8e, 0x5e, 0x3e,
  0x44, 0x11, 0x08, 0xbd, 0xe4, 0x5d, 0x21, 0xbd, 0xda, 0x6e, 0x82, 0xbd,
  0x92, 0x53, 0x87, 0x3d, 0xa0, 0x7e, 0x0f, 0xbe, 0x0f, 0x99, 0x0c, 0x3e,
  0xf8, 0xb7, 0xf6, 0xbc, 0x06, 0x04, 0x82, 0x3d, 0x0f, 0xc0, 0x16, 0x3e,
  0x70, 0x88, 0x0c, 0x3c, 0x38, 0x9b, 0xe2, 0xbd, 0x80, 0x02, 0x26, 0xbe,
  0x9a, 0x29, 0x8e, 0x3d, 0x82, 0x71, 0xb1, 0x3d, 0xd6, 0xe0, 0x81, 0x3d,
  0x19, 0xf3, 0x18, 0x3e, 0x7f, 0xbd, 0x63, 0x3e, 0xba, 0xc3, 0xc3, 0x3d,
  0x2f, 0xc7, 0x5d, 0x3e, 0x5e, 0xf1, 0x9e, 0xbd, 0xa1, 0x1c, 0x55, 0x3e,
  0xa2, 0x29, 0x9a, 0x3d, 0x3f, 0xbc, 0x15, 0x3e, 0x88, 0x80, 0x98, 0x3c,
  0xcb, 0x6b, 0x2a, 0x3e, 0xa6, 0x78, 0xea, 0x3d, 0x37, 0xb6, 0x66, 0x3e,
  0x37, 0x40, 0x06, 0x3e, 0x37, 0xfc, 0x1a, 0x3e, 0x92, 0x31, 0x87, 0x3d,
  0x84, 0x1f, 0x54, 0xbe, 0x12, 0x86, 0x18, 0xbe, 0xa2, 0xe2, 0xd6, 0x3d,
  0x67, 0xaf, 0x62, 0x3e, 0xec, 0x98, 0x33, 0x3d, 0x4c, 0x7f, 0x86, 0xbd,
  0x80, 0x4b, 0xa2, 0xba, 0x37, 0x19, 0xea, 0xbd, 0x7b, 0x21, 0x5e, 0x3e,
  0xf4, 0x1f, 0x13, 0xbe, 0x06, 0x87, 0x88, 0xbd, 0x4f, 0xee, 0x34, 0x3e,
  0xac, 0xf4, 0xba, 0xbd, 0xae, 0xfd, 0xee, 0xbd, 0xbd, 0x05, 0x4f, 0x3e,
  0xd8, 0xcb, 0xcd, 0x3c, 0x70, 0x7c, 0xfa, 0xbc, 0x36, 0xf5, 0xb2, 0x3d,
  0xd0, 0x06, 0x49, 0xbd, 0xe8, 0x5b, 0xd4, 0xbc, 0x02, 0xde, 0xc5, 0x3d,
  0x62, 0x4e, 0xf2, 0xbd, 0xd1, 0x13, 0x14, 0x3e, 0xcf, 0xa2, 0x49, 0x3e,
  0xf6, 0xe1, 0xff, 0xff, 0x10, 0x00, 0x00, 0x00, 0x06, 0x00, 0x00, 0x00,
  0x1c, 0x00, 0x00, 0x00, 0x38, 0x00, 0x00, 0x00, 0x04, 0x00, 0x00, 0x00,
  0x08, 0x00, 0x00, 0x00, 0x04, 0x00, 0x00, 0x00, 0x03, 0x00, 0x00, 0x00,
  0x01, 0x00, 0x00, 0x00, 0x19, 0x00, 0x00, 0x00, 0x73, 0x65, 0x71, 0x75,
  0x65, 0x6e, 0x74, 0x69, 0x61, 0x6c, 0x2f, 0x63, 0x6f, 0x6e, 0x76, 0x32,
  0x64, 0x2f, 0x43, 0x6f, 0x6e, 0x76, 0x32, 0x44, 0x31, 0x00, 0x00, 0x00,
  0xf0, 0xe1, 0xff, 0xff, 0xb6, 0xe2, 0xff, 0xff, 0x04, 0x00, 0x00, 0x00,
  0x20, 0x00, 0x00, 0x00, 0x00, 0x00, 0x00, 0x00, 0x00, 0x00, 0x00, 0x00,
  0x00, 0x00, 0x00, 0x00, 0x00, 0x00, 0x00, 0x00, 0x00, 0x00, 0x00, 0x00,
  0x00, 0x00, 0x00, 0x00, 0x00, 0x00, 0x00, 0x00, 0x00, 0x00, 0x00, 0x00,
  0x6e, 0xe2, 0xff, 0xff, 0x10, 0x00, 0x00, 0x00, 0x05, 0x00, 0x00, 0x00,
  0x10, 0x00, 0x00, 0x00, 0x2c, 0x00, 0x00, 0x00, 0x01, 0x00, 0x00, 0x00,
  0x08, 0x00, 0x00, 0x00, 0x18, 0x00, 0x00, 0x00, 0x73, 0x65, 0x71, 0x75,
  0x65, 0x6e, 0x74, 0x69, 0x61, 0x6c, 0x2f, 0x63, 0x6f, 0x6e, 0x76, 0x32,
  0x64, 0x2f, 0x43, 0x6f, 0x6e, 0x76, 0x32, 0x44, 0x00, 0x00, 0x00, 0x00,
  0x5c, 0xe2, 0xff, 0xff, 0x22, 0xe3, 0xff, 0xff, 0x04, 0x00, 0x00, 0x00,
  0x40, 0x00, 0x00, 0x00, 0xd0, 0x44, 0xef, 0x3e, 0x6c, 0x67, 0x5d, 0x3e,
  0x9c, 0x07, 0xd8, 0x3e, 0x2c, 0x35, 0xec, 0xbe, 0xb0, 0x0c, 0x5a, 0x3d,
  0x08, 0xbc, 0x39, 0x3e, 0x40, 0x85, 0x5b, 0x3c, 0xde, 0x5f, 0x11, 0x3f,
  0xda, 0x61, 0xa5, 0x3e, 0x70, 0x9e, 0x8c, 0xbd, 0xc4, 0xe1, 0x0b, 0x3f,
  0xe4, 0x85, 0xd3, 0xbe, 0x88, 0x6d, 0xb3, 0xbd, 0x43, 0xc7, 0x98, 0xbe,
  0x2a, 0x62, 0x04, 0xbf, 0x65, 0x98, 0x8b, 0xbe, 0xfa, 0xe2, 0xff, 0xff,
  0x10, 0x00, 0x00, 0x00, 0x04, 0x00, 0x00, 0x00, 0x14, 0x00, 0x00, 0x00,
  0x30, 0x00, 0x00, 0x00, 0x02, 0x00, 0x00, 0x00, 0x01, 0x00, 0x00, 0x00,
  0x10, 0x00, 0x00, 0x00, 0x19, 0x00, 0x00, 0x00, 0x73, 0x65, 0x71, 0x75,
  0x65, 0x6e, 0x74, 0x69, 0x61, 0x6c, 0x2f, 0x64, 0x65, 0x6e, 0x73, 0x65,
  0x5f, 0x31, 0x2f, 0x4d, 0x61, 0x74, 0x4d, 0x75, 0x6c, 0x00, 0x00, 0x00,
  0xec, 0xe2, 0xff, 0xff, 0xb2, 0xe3, 0xff, 0xff, 0x04, 0x00, 0x00, 0x00,
  0x00, 0x1c, 0x00, 0x00, 0xae, 0x46, 0xb7, 0x3d, 0x80, 0x56, 0x67, 0xbc,
  0x80, 0x8f, 0xde, 0x3c, 0xf6, 0x4d, 0xd8, 0x3d, 0xde, 0xa9, 0x27, 0xbe,
  0x9d, 0x28, 0x1c, 0x3e, 0xd4, 0x81, 0x68, 0x3d, 0x38, 0x7c, 0xb0, 0xbc,
  0xbe, 0x05, 0xee, 0x3d, 0xe6, 0x4b, 0x8b, 0x3d, 0xdd, 0xae, 0x56, 0x3e,
  0xc0, 0x55, 0x0c, 0x3c, 0xa4, 0xaf, 0x38, 0x3d, 0xeb, 0xa3, 0x23, 0x3e,
  0x33, 0xa7, 0x07, 0xbe, 0x2c, 0xaa, 0x6c, 0x3d, 0x00, 0xd6, 0xed, 0x39,
  0x4b, 0xdf, 0x12, 0x3e, 0xd8, 0xc9, 0xed, 0xbd, 0x5f, 0xb9, 0x40, 0x3e,
  0xff, 0x09, 0x37, 0x3e, 0x00, 0xb6, 0xa5, 0x39, 0x94, 0xaa, 0xc7, 0xbd,
  0xbc, 0xc6, 0x49, 0xbd, 0x60, 0x15, 0xb4, 0xbd, 0x73, 0x63, 0x0f, 0x3e,
  0x4c, 0x6c, 0x3e, 0x3d, 0x6b, 0x6a, 0x1f, 0xbe, 0xf4, 0xe5, 0x89, 0xbd,
  0xe8, 0xd6, 0x00, 0x3d, 0x50, 0x5c, 0x0e, 0xbc, 0x47, 0x86, 0x57, 0x3e,
  0x90, 0xcf, 0xf4, 0x3c, 0xfa, 0xa0, 0xd4, 0x3d, 0x25, 0x83, 0x53, 0x3e,
  0x80, 0x26, 0x36, 0x3c, 0xe0, 0x6a, 0x8c, 0xbc, 0xda, 0x5c, 0xea, 0x3d,
  0x65, 0xb0, 0x35, 0x3e, 0x8b, 0x92, 0xce, 0xbd, 0xa2, 0x5a, 0x90, 0x3d,
  0xa4, 0xf1, 0x4e, 0x3d, 0x48, 0xf3, 0xc1, 0x3c, 0x28, 0x2e, 0x4f, 0xbd,
  0x1b, 0x5f, 0x53, 0xbe, 0x5e, 0x1e, 0xc6, 0x3d, 0x84, 0x85, 0x30, 0x3d,
  0xc0, 0xc0, 0x9f, 0xbc, 0xc6, 0xdc, 0x27, 0xbe, 0x4c, 0xa0, 0x33, 0xbe,
  0xc4, 0xea, 0x2b, 0x3d, 0xbc, 0x92, 0x38, 0x3d, 0x7c, 0xe5, 0x07, 0xbe,
  0xc8, 0x1b, 0xe5, 0xbc, 0xcb, 0x44, 0x45, 0x3e, 0x1a, 0x90, 0xe2, 0x3d,
  0x00, 0x01, 0xd6, 0xba, 0xd0, 0x1e, 0x88, 0xbc, 0xb4, 0x15, 0x47, 0xbd,
  0xd4, 0x77, 0x94, 0xbd, 0x4b, 0x03, 0x4b, 0x3e, 0xc4, 0x8a, 0x7a, 0xbd,
  0x38, 0x5c, 0x91, 0xbd, 0x96, 0xa9, 0x87, 0x3d, 0xc2, 0x0f, 0xa9, 0x3d,
  0xe9, 0xcb, 0x4d, 0xbe, 0x4c, 0x70, 0x35, 0xbd, 0xf4, 0x46, 0x12, 0x3d,
  0xca, 0x09, 0xae, 0x3d, 0x6c, 0x50, 0x0d, 0x3d, 0x26, 0x42, 0x03, 0xbe,
  0x40, 0x28, 0xcc, 0x3b, 0x67, 0x72, 0x29, 0x3e, 0x30, 0x4d, 0xa2, 0xbc,
  0x6a, 0x31, 0xd1, 0x3d, 0x16, 0xd4, 0x8d, 0xbd, 0xfa, 0x2e, 0xf8, 0x3d,
  0x41, 0x8f, 0x22, 0x3e, 0xff, 0xe1, 0x17, 0xbe, 0x92, 0xb3, 0xaf, 0xbd,
  0xbf, 0x0e, 0x11, 0x3e, 0xaa, 0xc6, 0xcb, 0x3d, 0x88, 0x4b, 0x1b, 0xbe,
  0x6e, 0x77, 0xfb, 0x3d, 0xa0, 0x89, 0x23, 0xbc, 0xa6, 0x71, 0x84, 0x3d,
  0xd7, 0xb9, 0x3f, 0x3e, 0xec, 0xe2, 0x3a, 0x3d, 0xfd, 0x3d, 0x0a, 0x3e,
  0xb7, 0xcc, 0xf0, 0xbd, 0x0f, 0x3a, 0xfd, 0xbd, 0x65, 0xe3, 0xf0, 0xbd,
  0x6e, 0xb7, 0xc1, 0xbd, 0x1b, 0x1f, 0x25, 0x3e, 0x98, 0x24, 0x00, 0xbe,
  0xc2, 0x6d, 0xe8, 0x3d, 0x7a, 0x1c, 0xea, 0x3d, 0xd9, 0x09, 0x42, 0x3e,
  0xcc, 0x02, 0x74, 0x3d, 0x0b, 0x92, 0x27, 0x3e, 0x96, 0x54, 0x9b, 0x3d,
  0x7a, 0x62, 0x8c, 0x3d, 0xd1, 0x24, 0x5c, 0x3e, 0x08, 0x8f, 0xe4, 0xbd,
  0x18, 0x80, 0x8f, 0xbd, 0x6c, 0xdf, 0x4f, 0xbe, 0x36, 0x88, 0xda, 0x3d,
  0xd0, 0x13, 0x09, 0x3c, 0x50, 0x1c, 0x8e, 0xbc, 0xa0, 0xc2, 0x7e, 0xbc,
  0xe1, 0x2e, 0x53, 0xbe, 0xdc, 0x35, 0x4d, 0xbe, 0x68, 0xa5, 0x13, 0xbd,
  0xa6, 0x58, 0xb1, 0xbd, 0x68, 0xab, 0xb5, 0xbc, 0xea, 0x79, 0xfb, 0x3d,
  0x67, 0x07, 0x3b, 0x3e, 0x43, 0x9e, 0x32, 0xbe, 0x68, 0xcb, 0x6a, 0xbd,
  0x12, 0x35, 0xa7, 0x3d, 0xd1, 0x95, 0x0a, 0x3e, 0xfd, 0xa5, 0x46, 0x3e,
  0xe4, 0x62, 0x7b, 0x3d, 0x8c, 0x3a, 0x29, 0xbd, 0x4e, 0xec, 0x83, 0x3d,
  0x73, 0xf4, 0xcf, 0xbd, 0x68, 0x15, 0xe4, 0xbd, 0x74, 0xab, 0x95, 0xbd,
  0x0c, 0x4f, 0x8d, 0xbd, 0x82, 0x0d, 0xd9, 0x3d, 0xa1, 0xd6, 0x5b, 0x3e,
  0x95, 0x73, 0x3c, 0x3e, 0xb1, 0x9d, 0xce, 0xbd, 0x60, 0xde, 0xfe, 0xbb,
  0x60, 0x78, 0x01, 0xbe, 0x78, 0x05, 0xc8, 0x3c, 0x62, 0xde, 0x92, 0x3d,
  0x2e, 0x00, 0xc8, 0xbd, 0x00, 0xe8, 0x03, 0xbb, 0xcb, 0x19, 0x31, 0x3e,
  0x36, 0x3e, 0xd8, 0x3d, 0x7c, 0x71, 0x46, 0x3d, 0x45, 0x77, 0x2e, 0x3e,
  0xd0, 0xa8, 0x27, 0xbe, 0x1f, 0x4f, 0xd5, 0xbd, 0x8c, 0x83, 0x1a, 0xbe,
  0x88, 0x61, 0xc9, 0x3c, 0xfc, 0xc8, 0xa5, 0xbd, 0x5c, 0xdd, 0x66, 0xbd,
  0xce, 0xbf, 0x2c, 0xbe, 0xcf, 0xe4, 0x09, 0x3e, 0x55, 0x40, 0x24, 0x3e,
  0x2e, 0x8c, 0x90, 0xbd, 0x01, 0xe9, 0x30, 0x3e, 0x21, 0xc7, 0x38, 0x3e,
  0xf4, 0x21, 0x3c, 0x3d, 0x90, 0x83, 0xd8, 0x3c, 0xd4, 0x3e, 0x10, 0xbd,
  0x75, 0xc1, 0x51, 0x3e, 0x9a, 0xd8, 0x02, 0xbe, 0x29, 0x6d, 0x40, 0xbe,
  0xb3, 0x8b, 0xd7, 0xbd, 0x81, 0x63, 0x4d, 0x3e, 0x50, 0x9a, 0xa4, 0xbc,
  0x00, 0xa5, 0xbd, 0x3b, 0xc7, 0xdf, 0xff, 0xbd, 0xd0, 0xa7, 0x63, 0x3c,
  0x0c, 0xdc, 0x7c, 0xbd, 0x83, 0xca, 0x42, 0x3e, 0x2b, 0xad, 0x08, 0x3e,
  0xa3, 0x3c, 0x58, 0x3e, 0xe6, 0xdd, 0xcf, 0x3d, 0xd9, 0x2a, 0x10, 0x3e,
  0x3b, 0xc2, 0x56, 0x3e, 0x61, 0xfc, 0x14, 0x3e, 0x6a, 0xbc, 0x23, 0xbe,
  0x6c, 0xae, 0x34, 0x3d, 0xb7, 0x53, 0x22, 0xbe, 0x1a, 0xc3, 0x96, 0x3d,
  0x04, 0xa0, 0x53, 0x3d, 0xa8, 0x02, 0x9a, 0x3c, 0xc2, 0x2d, 0xf5, 0xbd,
  0x49, 0xdd, 0x52, 0x3e, 0xb6, 0xb5, 0xe0, 0xbd, 0xef, 0x5f, 0x0d, 0x3e,
  0xb0, 0xf4, 0xee, 0x3c, 0x2f, 0xf0, 0x35, 0x3e, 0xe0, 0x90, 0xbf, 0xbb,
  0x0c, 0x77, 0x90, 0xbd, 0xea, 0xc1, 0x24, 0xbe, 0xd5, 0xa2, 0x27, 0x3e,
  0xc7, 0x1d, 0x27, 0x3e, 0xcc, 0x15, 0x13, 0x3d, 0x93, 0x9b, 0x3e, 0x3e,
  0xc8, 0x74, 0x8a, 0x3c, 0xc8, 0x98, 0xe8, 0xbc, 0x95, 0x99, 0x42, 0xbe,
  0x40, 0x4e, 0xa6, 0xbb, 0x53, 0xef, 0xea, 0xbd, 0xda, 0x83, 0x9f, 0x3d,
  0x40, 0x0c, 0x39, 0xbe, 0x7a, 0xa4, 0xef, 0x3d, 0xa6, 0xcf, 0x9a, 0xbd,
  0x19, 0x16, 0x0f, 0x3e, 0x19, 0x17, 0x1e, 0xbe, 0x12, 0xea, 0xe1, 0x3d,
  0xeb, 0xeb, 0x25, 0x3e, 0xde, 0x0c, 0xab, 0xbd, 0x6f, 0x3f, 0x04, 0x3e,
  0x6b, 0x80, 0x3e, 0x3e, 0xa6, 0x6b, 0x0a, 0xbe, 0xca, 0xe0, 0x9d, 0x3d,
  0xa5, 0xbb, 0x52, 0x3e, 0xce, 0x5d, 0xf0, 0x3d, 0x97, 0x2f, 0xf3, 0xbd,
  0x4e, 0x6c, 0xaa, 0x3d, 0xa4, 0x69, 0x42, 0xbe, 0x08, 0x0c, 0xd7, 0xbc,
  0xe0, 0x45, 0xea, 0x3c, 0x96, 0xb2, 0x32, 0xbe, 0x06, 0x52, 0xd2, 0x3d,
  0x55, 0x2d, 0x40, 0x3e, 0xb8, 0x36, 0xbc, 0x3c, 0x0c, 0xd3, 0x13, 0x3d,
  0xfc, 0x45, 0xbd, 0xbd, 0x55, 0x5a, 0x1a, 0x3e, 0x33, 0x14, 0x28, 0x3e,
  0x9e, 0x82, 0x95, 0x3d, 0xc9, 0xa5, 0x44, 0xbe, 0xa8, 0xf9, 0x29, 0xbd,
  0x24, 0x9a, 0x97, 0xbd, 0x0a, 0xd6, 0xfe, 0x3d, 0x2e, 0xf4, 0xd5, 0x3d,
  0xec, 0xd9, 0x51, 0x3d, 0x0a, 0x5c, 0xe8, 0x3d, 0xba, 0x40, 0xd5, 0x3d,
  0x02, 0x4a, 0x94, 0xbd, 0x1c, 0xea, 0xcf, 0xbd, 0xf7, 0x99, 0x39, 0x3e,
  0xbf, 0xd1, 0x53, 0xbe, 0x1f, 0x59, 0x35, 0x3e, 0x82, 0xec, 0x96, 0xbd,
  0xf2, 0xf6, 0xec, 0x3d, 0x96, 0xdc, 0xca, 0x3d, 0x45, 0x4f, 0x4d, 0x3e,
  0x00, 0xb4, 0x0d, 0x39, 0x8a, 0x43, 0x36, 0xbe, 0xfc, 0xbb, 0xac, 0xbd,
  0x2f, 0xec, 0x3d, 0x3e, 0xb3, 0x4f, 0x44, 0x3e, 0x8c, 0x3f, 0x53, 0x3d,
  0xc2, 0xab, 0xf0, 0x3d, 0x6d, 0x0c, 0x50, 0x3e, 0xe8, 0x0d, 0x2d, 0xbe,
  0xe2, 0x85, 0x4d, 0xbe, 0x1c, 0xe2, 0x37, 0x3d, 0x98, 0x56, 0x21, 0xbd,
  0xf9, 0xd7, 0x4e, 0xbe, 0x65, 0xcb, 0x26, 0x3e, 0x5c, 0xb8, 0x39, 0xbe,
  0x3b, 0x8a, 0x12, 0xbe, 0x93, 0xa1, 0x1a, 0x3e, 0x50, 0xcd, 0x8e, 0xbc,
  0x30, 0x6b, 0x31, 0xbd, 0x40, 0xd9, 0x04, 0x3c, 0xce, 0xf4, 0xe5, 0xbd,
  0x98, 0xb8, 0xcb, 0x3c, 0xf6, 0xea, 0x97, 0x3d, 0x92, 0x53, 0xf5, 0x3d,
  0xbd, 0x7d, 0x4f, 0x3e, 0xc0, 0xae, 0x9f, 0xbd, 0x16, 0x48, 0xf0, 0x3d,
  0xd8, 0x98, 0xec, 0xbc, 0x7c, 0x63, 0x61, 0xbd, 0xdc, 0x0a, 0x56, 0xbe,
  0x74, 0x9f, 0xd1, 0xbd, 0xa1, 0x88, 0x57, 0xbe, 0xb6, 0x05, 0x02, 0xbe,
  0x4e, 0xba, 0x99, 0xbd, 0x20, 0x41, 0xf9, 0xbb, 0xc3, 0x15, 0x12, 0x3e,
  0x9e, 0x84, 0xd7, 0x3d, 0x42, 0x14, 0x19, 0xbe, 0x1c, 0xfd, 0x1c, 0x3d,
  0x7e, 0x87, 0x01, 0xbe, 0x07, 0x43, 0x4e, 0x3e, 0xc0, 0x88, 0x45, 0xbc,
  0xfb, 0xc8, 0x5b, 0xbe, 0xe4, 0x67, 0x1d, 0xbe, 0x9d, 0x94, 0x22, 0xbe,
  0x66, 0x1c, 0xe7, 0x3d, 0xae, 0xf9, 0xa0, 0x3d, 0x5f, 0xf1, 0x44, 0x3e,
  0x1c, 0xe2, 0x70, 0x3d, 0xfc, 0x41, 0x75, 0x3d, 0x50, 0xef, 0x8e, 0x3c,
  0x1e, 0x0d, 0x8a, 0x3d, 0x4e, 0xee, 0x28, 0xbe, 0xce, 0xd6, 0xd6, 0x3d,
  0x88, 0xc8, 0x12, 0xbe, 0x29, 0xd0, 0x48, 0xbe, 0xc0, 0xa2, 0x81, 0xbc,
  0xae, 0x84, 0xb1, 0x3d, 0x51, 0x21, 0x58, 0x3e, 0x7f, 0x7d, 0x15, 0x3e,
  0xa9, 0xeb, 0xbe, 0xbd, 0xa4, 0x82, 0x9f, 0xbd, 0xaf, 0x4f, 0x06, 0x3e,
  0xd4, 0xf1, 0x46, 0x3d, 0xb4, 0xc9, 0x1b, 0xbe, 0x6c, 0xf3, 0x3f, 0xbd,
  0xaf, 0xa7, 0x16, 0xbe, 0x94, 0xbc, 0x7e, 0x3d, 0x50, 0x57, 0xa5, 0xbd,
  0xde, 0xa1, 0xa5, 0x3d, 0x05, 0x16, 0x43, 0x3e, 0xa2, 0xc5, 0x48, 0xbe,
  0xa8, 0x0b, 0x8f, 0x3c, 0x05, 0x53, 0x29, 0xbe, 0x86, 0xb0, 0xdf, 0x3d,
  0xdc, 0x84, 0x04, 0xbd, 0x10, 0x55, 0xe7, 0xbd, 0x1f, 0x73, 0x31, 0x3e,
  0x63, 0x79, 0x12, 0x3e, 0x50, 0x3e, 0x2b, 0xbd, 0x6d, 0x08, 0x04, 0x3e,
  0xbd, 0x76, 0x4d, 0x3e, 0x64, 0xf2, 0xdc, 0xbd, 0x68, 0xbb, 0x6b, 0xbd,
  0xc1, 0xb7, 0x0b, 0x3e, 0xe4, 0x21, 0x67, 0x3d, 0x26, 0x43, 0xd3, 0xbd,
  0x3e, 0xe3, 0xd4, 0x3d, 0xf0, 0xfe, 0x23, 0xbe, 0xc0, 0x6c, 0x8b, 0x3b,
  0xce, 0xab, 0xca, 0x3d, 0x82, 0xb7, 0x8a, 0x3d, 0x6a, 0x83, 0x5b, 0xbe,
  0x81, 0x86, 0x45, 0xbe, 0x38, 0xc8, 0xaa, 0x3c, 0x50, 0x74, 0x76, 0x3c,
  0x3d, 0xc3, 0x08, 0x3e, 0x40, 0x12, 0x08, 0xbb, 0xc0, 0x53, 0xce, 0xbb,
  0x30, 0x46, 0x18, 0x3c, 0x1d, 0x18, 0xd7, 0xbd, 0x00, 0xae, 0x8c, 0xbc,
  0x4d, 0x35, 0x52, 0xbe, 0x54, 0x9e, 0x6a, 0x3d, 0xe1, 0xb8, 0x42, 0x3e,
  0xe6, 0x21, 0xaa, 0x3d, 0x05, 0xa7, 0x42, 0xbe, 0x4e, 0xd1, 0xa7, 0x3d,
  0x06, 0x63, 0x5c, 0xbe, 0xf1, 0xc2, 0x1f, 0x3e, 0x2f, 0xee, 0x4a, 0x3e,
  0x2a, 0x22, 0x8e, 0x3d, 0x75, 0xbd, 0x16, 0x3e, 0x25, 0x75, 0x11, 0x3e,
  0xef, 0xf9, 0x40, 0x3e, 0x50, 0x20, 0x59, 0x3c, 0x38, 0xe7, 0xd0, 0x3c,
  0xa0, 0x82, 0x37, 0xbc, 0xb6, 0xe7, 0x51, 0xbe, 0xfe, 0x9b, 0xa9, 0x3d,
  0xa3, 0x27, 0x02, 0xbe, 0xb3, 0xe4, 0x3b, 0x3e, 0x44, 0x4c, 0x3f, 0x3d,
  0x1e, 0xd6, 0xa7, 0xbd, 0x44, 0xb3, 0x4c, 0xbe, 0x00, 0x05, 0x91, 0x3c,
  0x2d, 0x13, 0x28, 0x3e, 0xd6, 0x89, 0x0f, 0xbe, 0x49, 0xea, 0xe1, 0xbd,
  0x34, 0xe5, 0xea, 0xbd, 0x1c, 0x43, 0x13, 0xbd, 0xbe, 0x8d, 0xf3, 0xbd,
  0x34, 0x05, 0x10, 0xbe, 0xc0, 0xc0, 0x19, 0x3b, 0xc0, 0x37, 0x04, 0xbc,
  0x27, 0x47, 0x26, 0x3e, 0x05, 0xcc, 0x0f, 0x3e, 0x3f, 0xbb, 0x4c, 0x3e,
  0xf2, 0xc6, 0xe1, 0x3d, 0x20, 0xa0, 0x4a, 0xbc, 0x78, 0x67, 0xa1, 0x3c,
  0x10, 0x6b, 0x45, 0xbc, 0x7a, 0xcd, 0x87, 0xbd, 0x33, 0x26, 0x48, 0x3e,
  0xbc, 0xde, 0x05, 0xbd, 0x9a, 0x79, 0xb2, 0x3d, 0xb9, 0x26, 0x47, 0x3e,
  0x80, 0x47, 0x53, 0xbb, 0xc7, 0x40, 0x30, 0x3e, 0x9c, 0x9f, 0x58, 0xbd,
  0x80, 0xf0, 0x44, 0xbb, 0x59, 0xd9, 0x19, 0x3e, 0xf8, 0xe0, 0x15, 0xbe,
  0x9c, 0x0e, 0x44, 0xbe, 0x12, 0x4e, 0xb4, 0xbd, 0x7c, 0x37, 0x08, 0xbe,
  0x6a, 0xdf, 0xa2, 0xbd, 0xca, 0x20, 0x19, 0xbe, 0x3e, 0x3e, 0x51, 0xbe,
  0x8d, 0xd2, 0x14, 0x3e, 0x38, 0x19, 0xb2, 0x3c, 0x4c, 0x98, 0xf6, 0xbd,
  0x67, 0xd8, 0x50, 0xbe, 0x89, 0x9c, 0x11, 0x3e, 0x18, 0x35, 0xd2, 0xbc,
  0xc3, 0xa0, 0x34, 0x3e, 0xa0, 0x48, 0xbe, 0xbc, 0x0c, 0x24, 0x50, 0xbd,
  0x0e, 0x22, 0x8e, 0x3d, 0xe6, 0xd3, 0xc4, 0x3d, 0x0d, 0x0a, 0x2f, 0x3e,
  0x5c, 0xe6, 0xde, 0xbd, 0x69, 0xa3, 0x5d, 0x3e, 0x30, 0xa6, 0x6b, 0xbd,
  0xac, 0xc3, 0x88, 0xbd, 0xd8, 0x0a, 0xb9, 0x3c, 0x6d, 0x8e, 0x2e, 0x3e,
  0x7e, 0x98, 0xc8, 0x3d, 0x94, 0x1c, 0x30, 0xbd, 0x54, 0x24, 0x25, 0xbd,
  0x62, 0x18, 0x4a, 0xbe, 0x80, 0xa2, 0x06, 0x3c, 0xdb, 0x85, 0x54, 0x3e,
  0xa7, 0xfe, 0x1e, 0xbe, 0xd2, 0x14, 0x8e, 0x3d, 0xd7, 0xce, 0x58, 0x3e,
  0x72, 0x8d, 0x2b, 0xbe, 0xf4, 0x9c, 0x4f, 0xbd, 0x10, 0x33, 0x17, 0xbd,
  0x0e, 0x6b, 0x84, 0x3d, 0xac, 0xf0, 0x4f, 0xbe, 0xfc, 0xd1, 0xcd, 0xbd,
  0x9e, 0xe7, 0xc8, 0x3d, 0xd8, 0x53, 0x02, 0xbd, 0xad, 0x02, 0x59, 0xbe,
  0x3c, 0xaf, 0xb3, 0xbd, 0x45, 0x71, 0x11, 0x3e, 0x22, 0xd5, 0x88, 0x3d,
  0x6d, 0x96, 0x49, 0xbe, 0x94, 0x19, 0x6b, 0xbd, 0x19, 0x3f, 0x02, 0x3e,
  0xf0, 0xc8, 0x91, 0xbc, 0x07, 0x3b, 0x31, 0x3e, 0xd0, 0x91, 0xbe, 0xbc,
  0x18, 0x31, 0x57, 0xbe, 0xf0, 0xd8, 0x11, 0x3c, 0xdd, 0x9e, 0x5d, 0x3e,
  0xcd, 0x8c, 0x24, 0x3e, 0x40, 0x60, 0x91, 0xbd, 0xca, 0x3b, 0x10, 0xbe,
  0xbc, 0x27, 0x92, 0xbd, 0x54, 0xc6, 0x2f, 0xbe, 0xd2, 0x5d, 0xec, 0x3d,
  0x0c, 0x58, 0x75, 0x3d, 0x7b, 0x64, 0x58, 0x3e, 0xe2, 0x9c, 0x4c, 0xbe,
  0x54, 0xbc, 0xb1, 0xbd, 0x90, 0xaf, 0xac, 0xbd, 0xe3, 0x0a, 0x4b, 0x3e,
  0x20, 0x7c, 0x98, 0x3b, 0x60, 0x69, 0x3e, 0xbd, 0x18, 0x37, 0xd5, 0xbc,
  0x4e, 0xb9, 0xa3, 0x3d, 0x5a, 0x0c, 0xf0, 0x3d, 0xdb, 0x43, 0xed, 0xbd,
  0x4e, 0x7c, 0xcc, 0x3d, 0x52, 0x36, 0x93, 0x3d, 0x77, 0x28, 0x2c, 0xbe,
  0x8e, 0x8a, 0xeb, 0x3d, 0xb6, 0xf7, 0x8f, 0x3d, 0xd6, 0x37, 0x99, 0xbd,
  0xa5, 0x73, 0xe7, 0xbd, 0x95, 0x04, 0x03, 0x3e, 0xe8, 0xed, 0xc9, 0xbc,
  0xe9, 0x6c, 0x5b, 0xbe, 0xdc, 0x09, 0x44, 0x3d, 0xd7, 0xde, 0x4a, 0xbe,
  0x88, 0xbb, 0x5d, 0xbd, 0xce, 0x9f, 0xd4, 0xbd, 0x1e, 0x53, 0xed, 0xbd,
  0xe4, 0xc8, 0x82, 0xbd, 0x62, 0xa5, 0xbd, 0xbd, 0xc8, 0x50, 0xe8, 0xbc,
  0xd0, 0x44, 0xc2, 0xbc, 0x63, 0xad, 0x48, 0x3e, 0x7e, 0x86, 0xd8, 0x3d,
  0xc2, 0x0f, 0xac, 0xbd, 0xb0, 0xa7, 0x22, 0xbd, 0x0c, 0xf1, 0x51, 0xbe,
  0x47, 0x3d, 0xed, 0xbd, 0xe9, 0xaf, 0x42, 0x3e, 0xbb, 0x34, 0xe6, 0xbd,
  0x42, 0xd6, 0x96, 0xbd, 0x44, 0x0a, 0x18, 0xbd, 0x5f, 0xba, 0x26, 0xbe,
  0x08, 0x80, 0x2a, 0xbe, 0xc7, 0xe6, 0x47, 0x3e, 0x05, 0x4e, 0x54, 0x3e,
  0x09, 0x5b, 0x4e, 0xbe, 0x7d, 0xc6, 0x58, 0xbe, 0x01, 0x97, 0x03, 0x3e,
  0xe0, 0x8f, 0x8b, 0x3c, 0xca, 0x66, 0x99, 0xbd, 0x80, 0x69, 0x46, 0xbe,
  0x73, 0x25, 0x53, 0x3e, 0x9e, 0x32, 0xea, 0x3d, 0x34, 0xec, 0x7b, 0xbd,
  0x71, 0xda, 0x1b, 0x3e, 0x82, 0x12, 0x8f, 0x3d, 0xcc, 0x74, 0x0d, 0xbe,
  0x48, 0x6d, 0x64, 0xbd, 0x3e, 0x24, 0x8c, 0x3d, 0x3b, 0x16, 0x3a, 0x3e,
  0x03, 0xcd, 0xc9, 0xbd, 0xe1, 0x14, 0xec, 0xbd, 0x87, 0xc2, 0x3d, 0x3e,
  0x35, 0x55, 0x40, 0x3e, 0xc4, 0x06, 0x75, 0x3d, 0xb0, 0x04, 0xd3, 0xbd,
  0x2a, 0x68, 0xd0, 0x3d, 0x94, 0x16, 0x65, 0x3d, 0x32, 0xea, 0xfc, 0x3d,
  0x08, 0x38, 0x3a, 0xbe, 0x4c, 0x06, 0x1a, 0xbd, 0x47, 0x31, 0x1d, 0xbe,
  0x50, 0xa2, 0x63, 0xbd, 0xe6, 0x02, 0xcd, 0xbd, 0x00, 0xe6, 0x14, 0xbd,
  0xe8, 0x65, 0x07, 0xbd, 0xe7, 0xbb, 0x2e, 0xbe, 0xd9, 0x04, 0x34, 0x3e,
  0xe4, 0x14, 0x4a, 0xbe, 0xf0, 0xb3, 0x07, 0x3c, 0x5a, 0x1b, 0xec, 0x3d,
  0x68, 0x11, 0xc3, 0x3c, 0x37, 0x98, 0x5c, 0x3e, 0x9b, 0x9e, 0xc5, 0xbd,
  0x77, 0x02, 0xcd, 0xbd, 0x25, 0xbb, 0x23, 0x3e, 0xce, 0x93, 0xa1, 0xbd,
  0xfc, 0xc9, 0x47, 0xbe, 0xe0, 0xab, 0x47, 0xbe, 0x09, 0x8e, 0x53, 0x3e,
  0xc5, 0x93, 0x17, 0x3e, 0x87, 0x5f, 0xff, 0xbd, 0x43, 0x8c, 0x55, 0x3e,
  0x4b, 0xbf, 0x2a, 0xbe, 0xa5, 0x5a, 0x15, 0x3e, 0xca, 0xbc, 0xf1, 0x3d,
  0xe3, 0xf9, 0x3a, 0x3e, 0x2c, 0xd4, 0x90, 0xbd, 0x8b, 0x34, 0xc5, 0xbd,
  0x00, 0x4e, 0xd9, 0x3c, 0xe0, 0x93, 0xdb, 0xbc, 0x99, 0xfd, 0x12, 0x3e,
  0x9a, 0xba, 0x9c, 0x3d, 0xaa, 0x75, 0xbb, 0x3d, 0xf0, 0xd5, 0x7d, 0xbd,
  0x1c, 0xb3, 0x2a, 0x3d, 0x44, 0x86, 0x58, 0x3d, 0x85, 0x6c, 0x2d, 0xbe,
  0x45, 0x0f, 0x0a, 0x3e, 0x99, 0x4c, 0x54, 0x3e, 0xd2, 0x2c, 0xe1, 0x3d,
  0xf0, 0x34, 0x62, 0x3c, 0xdc, 0x7e, 0x27, 0x3d, 0x32, 0x42, 0x0e, 0xbe,
  0xcf, 0x24, 0x3e, 0x3e, 0x32, 0x4b, 0x52, 0xbe, 0x72, 0x72, 0xa4, 0x3d,
  0x08, 0x5c, 0x1a, 0xbd, 0x83, 0x69, 0x41, 0xbe, 0x24, 0xfb, 0x17, 0xbe,
  0x84, 0x0c, 0x23, 0xbe, 0x08, 0x18, 0xe1, 0xbc, 0x2b, 0xe2, 0x5c, 0x3e,
  0xc8, 0xc8, 0x9a, 0x3c, 0x40, 0x17, 0x3c, 0xbc, 0x23, 0xab, 0x12, 0x3e,
  0xf2, 0x09, 0x0e, 0xbe, 0x7e, 0x21, 0xd5, 0xbd, 0x0d, 0x8c, 0x25, 0x3e,
  0x90, 0x1d, 0x85, 0x3c, 0x78, 0xea, 0x4a, 0xbd, 0xca, 0xbb, 0x9d, 0x3d,
  0xda, 0x8a, 0xad, 0x3d, 0xa3, 0xe0, 0x13, 0x3e, 0x99, 0xa6, 0x20, 0xbe,
  0x7c, 0xc5, 0x36, 0xbe, 0x44, 0x17, 0x5e, 0x3d, 0x7f, 0xc8, 0x54, 0xbe,
  0x90, 0x04, 0x11, 0xbc, 0x60, 0x60, 0x74, 0x3c, 0xae, 0x90, 0xc6, 0x3d,
  0x15, 0xd8, 0x03, 0x3e, 0xe2, 0x37, 0xfb, 0xbd, 0x33, 0x86, 0x27, 0x3e,
  0xf7, 0x66, 0xdf, 0xbd, 0x58, 0x3e, 0x9c, 0x3c, 0xf4, 0x66, 0x48, 0x3d,
  0x1c, 0x6a, 0x59, 0x3d, 0x42, 0xe7, 0x8c, 0x3d, 0x80, 0xfc, 0xd4, 0x3b,
  0xe0, 0x48, 0xce, 0x3b, 0xfd, 0x65, 0x11, 0xbe, 0x99, 0x75, 0x43, 0x3e,
  0xdb, 0xe0, 0x4a, 0xbe, 0xd7, 0x17, 0xeb, 0xbd, 0x30, 0x11, 0x59, 0xbc,
  0xa8, 0xd0, 0x30, 0xbd, 0xbf, 0xbf, 0x36, 0x3e, 0xc0, 0x53, 0xc4, 0xbb,
  0xa4, 0x43, 0x32, 0xbd, 0x24, 0x07, 0x41, 0x3d, 0x33, 0xd8, 0xf2, 0xbd,
  0xb8, 0x39, 0x62, 0xbd, 0x56, 0xe5, 0x93, 0x3d, 0xce, 0x64, 0xf1, 0x3d,
  0x34, 0x6a, 0x49, 0xbe, 0x8e, 0x4b, 0x1f, 0xbe, 0xea, 0xee, 0x3a, 0xbe,
  0x4c, 0xf8, 0x31, 0xbd, 0x01, 0xde, 0x58, 0x3e, 0x68, 0x4f, 0xdf, 0x3c,
  0x52, 0xaf, 0x5d, 0xbe, 0xb4, 0x95, 0x4a, 0x3d, 0xbc, 0x37, 0x9b, 0xbd,
  0x3d, 0x18, 0x24, 0xbe, 0x20, 0x91, 0xad, 0xbb, 0x6f, 0x0b, 0x4d, 0x3e,
  0x3d, 0xcb, 0x34, 0xbe, 0xf8, 0x5a, 0xd1, 0x3c, 0xf5, 0x40, 0x5b, 0x3e,
  0x64, 0x5e, 0x19, 0x3d, 0x57, 0x36, 0x1d, 0x3e, 0xcf, 0x9a, 0x15, 0xbe,
  0x7f, 0xe6, 0x2d, 0xbe, 0x3e, 0xa4, 0x2f, 0xbe, 0xf0, 0xcd, 0xc7, 0x3c,
  0x48, 0xe7, 0x06, 0xbe, 0xd1, 0xde, 0x36, 0xbe, 0xc1, 0xde, 0x44, 0xbe,
  0x80, 0xe6, 0xcc, 0x3c, 0xd5, 0x00, 0x1a, 0xbe, 0x88, 0xe9, 0xaf, 0x3c,
  0xee, 0x62, 0x91, 0x3d, 0x75, 0x7b, 0xeb, 0xbd, 0x15, 0x33, 0x04, 0x3e,
  0xc0, 0x20, 0x3c, 0xbd, 0x00, 0x8f, 0x5c, 0x3b, 0x12, 0xb1, 0x80, 0x3d,
  0x58, 0x94, 0xe9, 0xbc, 0x34, 0xce, 0x15, 0xbd, 0x0c, 0xf4, 0x1b, 0xbd,
  0x00, 0x6e, 0xd0, 0x3c, 0x0a, 0x66, 0xd5, 0x3d, 0xd8, 0x80, 0xcc, 0xbc,
  0xe4, 0x59, 0x21, 0xbd, 0x07, 0xff, 0x3f, 0xbe, 0xb2, 0x8e, 0x90, 0x3d,
  0x21, 0x44, 0x54, 0xbe, 0xe8, 0xe7, 0x40, 0xbe, 0xf8, 0x4e, 0x05, 0x3d,
  0x2b, 0x00, 0x46, 0x3e, 0xbf, 0x06, 0x22, 0x3e, 0x4a, 0x6a, 0xc9, 0x3d,
  0x67, 0xd3, 0x03, 0x3e, 0xa0, 0x54, 0xf9, 0x3b, 0x80, 0xd3, 0x0c, 0xbd,
  0x48, 0xb8, 0xee, 0xbc, 0x0c, 0x04, 0xa1, 0xbd, 0x95, 0x61, 0x3b, 0x3e,
  0xd2, 0x30, 0x16, 0xbe, 0xea, 0x83, 0x32, 0xbe, 0x05, 0x25, 0xc7, 0xbd,
  0xeb, 0x01, 0x04, 0x3e, 0x89, 0x7c, 0x0f, 0x3e, 0x29, 0x55, 0x17, 0x3e,
  0x48, 0x64, 0xab, 0xbd, 0x84, 0xe9, 0x40, 0x3d, 0x4d, 0xfb, 0x17, 0x3e,
  0x1c, 0x1e, 0x7c, 0x3d, 0x75, 0x96, 0x42, 0xbe, 0xe2, 0xcb, 0x84, 0xbd,
  0xf8, 0xfe, 0x49, 0xbd, 0x16, 0x97, 0xc4, 0x3d, 0xc9, 0x36, 0x53, 0x3e,
  0x8a, 0xdc, 0xa9, 0x3d, 0x4d, 0x81, 0x21, 0x3e, 0xea, 0x8e, 0xe2, 0x3d,
  0xf0, 0x15, 0x43, 0x3c, 0xc0, 0xa3, 0x50, 0xbe, 0xcc, 0x22, 0x10, 0xbe,
  0x11, 0x64, 0x29, 0x3e, 0xa1, 0x4a, 0x4a, 0x3e, 0x20, 0x71, 0x7d, 0xbc,
  0x1c, 0x5c, 0x04, 0xbe, 0xc0, 0xb3, 0x41, 0xbb, 0x90, 0xcc, 0x06, 0x3d,
  0x57, 0xc0, 0x3a, 0x3e, 0x56, 0xf2, 0xf9, 0x3d, 0xe0, 0x1f, 0x2b, 0xbc,
  0xe0, 0x48, 0xd1, 0xbc, 0x2a, 0xa8, 0xa7, 0x3d, 0x7a, 0x7e, 0x85, 0x3d,
  0x3d, 0xbc, 0xcf, 0xbd, 0xde, 0x43, 0xdc, 0x3d, 0x59, 0x2a, 0x5d, 0x3e,
  0x1f, 0x01, 0x54, 0xbe, 0x50, 0x2d, 0x46, 0xbc, 0x7d, 0xb5, 0x4d, 0x3e,
  0x3a, 0xfc, 0xb7, 0x3d, 0xc0, 0x7e, 0x1b, 0xbd, 0x27, 0x46, 0xf7, 0xbd,
  0x70, 0xc4, 0xd9, 0x3c, 0x18, 0x25, 0xcb, 0xbd, 0x9f, 0xe7, 0x19, 0x3e,
  0x13, 0x65, 0x53, 0x3e, 0x92, 0x11, 0x9e, 0x3d, 0x86, 0x79, 0x22, 0xbe,
  0x50, 0x6d, 0x7a, 0xbd, 0x25, 0x94, 0x0e, 0x3e, 0x47, 0x5f, 0x26, 0x3e,
  0xc8, 0xa3, 0x78, 0xbd, 0x71, 0xf7, 0x24, 0x3e, 0x86, 0x42, 0xdd, 0x3d,
  0xfc, 0x86, 0xb4, 0xbd, 0x0c, 0x69, 0x38, 0x3d, 0xb8, 0x38, 0x27, 0xbe,
  0x56, 0x09, 0x13, 0xbe, 0x3c, 0x38, 0x41, 0xbd, 0x80, 0xa5, 0x0e, 0xbc,
  0x55, 0x15, 0x2f, 0x3e, 0x4e, 0x90, 0xfd, 0x3d, 0x3f, 0x5c, 0x28, 0x3e,
  0x0d, 0xd6, 0x39, 0x3e, 0xc5, 0x03, 0x1a, 0x3e, 0x4f, 0x39, 0xef, 0xbd,
  0xe4, 0x44, 0x2c, 0x3d, 0x10, 0x1c, 0x17, 0x3c, 0x8d, 0x1d, 0x1b, 0x3e,
  0xd7, 0x30, 0x4d, 0x3e, 0xc2, 0x5d, 0x91, 0xbd, 0xd0, 0xe2, 0x2d, 0xbc,
  0x62, 0xbd, 0x46, 0xbe, 0x38, 0x64, 0x8a, 0x3c, 0x6c, 0xcd, 0x76, 0xbd,
  0x73, 0x02, 0x09, 0x3e, 0xd7, 0x24, 0x49, 0xbe, 0x0a, 0x6d, 0x8f, 0xbd,
  0x00, 0x02, 0x10, 0xbe, 0xed, 0xd3, 0x46, 0xbe, 0x8f, 0x2a, 0x0c, 0x3e,
  0x00, 0xfb, 0xf6, 0xbc, 0x46, 0xff, 0xe2, 0x3d, 0x40, 0x1b, 0x78, 0xbb,
  0xbf, 0x71, 0x0e, 0x3e, 0xfe, 0x44, 0xdd, 0x3d, 0xb1, 0xbc, 0x17, 0x3e,
  0xf3, 0xe0, 0x3d, 0xbe, 0x5d, 0x19, 0x1a, 0x3e, 0x8c, 0xda, 0x35, 0x3d,
  0x33, 0x27, 0x3d, 0xbe, 0xd3, 0x26, 0x58, 0x3e, 0x3a, 0x52, 0xc3, 0x3d,
  0xf8, 0x38, 0xfa, 0xbc, 0x42, 0x43, 0x8c, 0x3d, 0x60, 0x1b, 0xd4, 0x3b,
  0x49, 0x7d, 0x30, 0x3e, 0x5d, 0x65, 0x26, 0x3e, 0x10, 0x42, 0x68, 0x3c,
  0x00, 0x39, 0x99, 0xbd, 0x0a, 0x71, 0xc7, 0xbd, 0x9c, 0x8a, 0x52, 0x3d,
  0xff, 0xe8, 0x18, 0x3e, 0xf2, 0x6f, 0xaf, 0x3d, 0xba, 0xd1, 0x2b, 0xbe,
  0x24, 0xac, 0xff, 0xbd, 0x9e, 0xa3, 0xf2, 0xbd, 0xa0, 0x6c, 0x53, 0xbc,
  0x2e, 0xec, 0xca, 0xbd, 0x1a, 0xdb, 0xce, 0x3d, 0x1f, 0x21, 0x5b, 0x3e,
  0x5c, 0xe9, 0xb7, 0xbd, 0xaa, 0xe2, 0x06, 0xbe, 0x2b, 0xa4, 0x4a, 0x3e,
  0x1d, 0x46, 0x1a, 0xbe, 0xc7, 0xdb, 0x47, 0xbe, 0xcc, 0xb0, 0x5f, 0xbd,
  0x44, 0x94, 0x37, 0x3d, 0xe7, 0xd1, 0x4a, 0xbe, 0x18, 0xc5, 0xe5, 0xbc,
  0x80, 0x77, 0xec, 0x3c, 0x2f, 0x23, 0x1c, 0x3e, 0x65, 0x72, 0x0c, 0x3e,
  0x90, 0x1b, 0x99, 0xbc, 0xd0, 0xca, 0x93, 0xbc, 0x64, 0x36, 0x67, 0x3d,
  0x88, 0x74, 0xc4, 0xbd, 0x90, 0x48, 0x27, 0xbe, 0xa5, 0x25, 0x38, 0xbe,
  0x3b, 0x35, 0x5c, 0x3e, 0xd6, 0xbd, 0xae, 0x3d, 0x75, 0xce, 0x17, 0x3e,
  0x46, 0xdb, 0x98, 0x3d, 0x77, 0x43, 0x4c, 0xbe, 0x46, 0xe1, 0x59, 0xbe,
  0xd5, 0xf0, 0x32, 0x3e, 0xe6, 0x1f, 0xee, 0x3d, 0x9d, 0x98, 0x58, 0xbe,
  0x92, 0xb9, 0xe5, 0x3d, 0x78, 0x9e, 0x8e, 0xbd, 0x74, 0x17, 0x07, 0xbe,
  0x12, 0xae, 0x01, 0xbe, 0xa8, 0x0d, 0x55, 0xbe, 0x80, 0xf7, 0xc4, 0x3a,
  0x06, 0x7c, 0x2c, 0xbe, 0x1c, 0x85, 0x3c, 0xbd, 0xc1, 0xb0, 0x58, 0x3e,
  0xd2, 0x40, 0x5a, 0xbe, 0x31, 0x35, 0x2a, 0x3e, 0x51, 0x67, 0x4d, 0x3e,
  0x18, 0x2b, 0x03, 0xbe, 0xe0, 0xc3, 0x36, 0xbe, 0x1a, 0xf8, 0xdf, 0x3d,
  0x26, 0x2c, 0x84, 0x3d, 0x5e, 0x04, 0x95, 0xbd, 0x8c, 0x91, 0x73, 0x3d,
  0xc2, 0xdb, 0x31, 0xbe, 0x59, 0x65, 0x3d, 0x3e, 0x2e, 0xf3, 0xa7, 0x3d,
  0xa0, 0x06, 0xff, 0x3c, 0x6f, 0x5a, 0x07, 0x3e, 0x80, 0x74, 0x82, 0xbb,
  0x3b, 0xa4, 0x1b, 0x3e, 0x5c, 0xaa, 0xc4, 0xbd, 0x04, 0xa7, 0x00, 0xbe,
  0xa0, 0x3d, 0x12, 0x3c, 0x36, 0x61, 0x90, 0x3d, 0x80, 0xd8, 0x47, 0xbd,
  0x90, 0xc5, 0x60, 0xbc, 0x62, 0xc7, 0x10, 0xbe, 0xe6, 0x37, 0xb5, 0xbd,
  0x81, 0xfa, 0x2c, 0x3e, 0x81, 0x4c, 0x2d, 0xbe, 0x68, 0x13, 0x11, 0xbe,
  0xc8, 0x5a, 0x88, 0x3c, 0x00, 0x80, 0x29, 0x38, 0x92, 0x9d, 0x82, 0x3d,
  0x06, 0x70, 0xbf, 0xbd, 0x5a, 0x89, 0x98, 0xbd, 0xba, 0xed, 0xfa, 0x3d,
  0x6d, 0x1a, 0x16, 0x3e, 0x6d, 0x8e, 0x3b, 0x3e, 0x3a, 0x75, 0x83, 0x3d,
  0xf0, 0x76, 0xb2, 0xbc, 0x68, 0x3a, 0x8d, 0x3c, 0x30, 0x1d, 0xd9, 0x3c,
  0xdb, 0x48, 0x57, 0xbe, 0x2a, 0x5c, 0x8e, 0xbd, 0x86, 0x5d, 0x1a, 0xbe,
  0x80, 0xf9, 0x1f, 0xbe, 0x64, 0x1e, 0x06, 0x3d, 0x2d, 0xd8, 0x4e, 0xbe,
  0x47, 0xe3, 0x01, 0x3e, 0x5f, 0x21, 0xf4, 0xbd, 0x88, 0x76, 0x27, 0xbd,
  0x3f, 0xe3, 0x2f, 0x3e, 0x42, 0xb9, 0xd6, 0x3d, 0x20, 0xfd, 0xcc, 0x3c,
  0x06, 0xfc, 0x18, 0xbe, 0x4f, 0x67, 0x24, 0x3e, 0x8e, 0x61, 0x17, 0xbe,
  0x26, 0xd7, 0x8f, 0x3d, 0x4e, 0xd7, 0xb1, 0x3d, 0xc5, 0x33, 0xd1, 0xbd,
  0x4a, 0xcc, 0x9a, 0x3d, 0xee, 0x5b, 0xa7, 0xbd, 0x8a, 0xb9, 0xb4, 0x3d,
  0xf6, 0xcd, 0x9b, 0x3d, 0xe8, 0xaa, 0xe4, 0xbd, 0xb8, 0x0c, 0x35, 0xbe,
  0xc6, 0x2a, 0x88, 0x3d, 0x62, 0x6d, 0x80, 0xbd, 0x7e, 0xc7, 0x37, 0xbe,
  0xc0, 0x81, 0xb0, 0x3c, 0x30, 0x5f, 0xcb, 0xbc, 0x87, 0xde, 0xf6, 0xbd,
  0x59, 0x10, 0x42, 0x3e, 0xaa, 0x7a, 0xb8, 0xbd, 0xce, 0xee, 0xda, 0x3d,
  0xaf, 0x82, 0xd1, 0xbd, 0x0c, 0xa6, 0xd2, 0xbd, 0x94, 0x7a, 0xa8, 0xbd,
  0x18, 0xf0, 0xec, 0xbc, 0xc4, 0x88, 0x57, 0xbe, 0x1d, 0x73, 0x2b, 0x3e,
  0xe8, 0x5a, 0x33, 0xbe, 0xca, 0x34, 0x9a, 0x3d, 0x4b, 0xc0, 0x51, 0xbe,
  0xe8, 0xf8, 0x3e, 0xbe, 0x2d, 0xa3, 0x4c, 0xbe, 0xb8, 0x63, 0x8c, 0x3c,
  0x7a, 0x66, 0x81, 0x3d, 0xf7, 0xc7, 0x37, 0xbe, 0xa0, 0x9e, 0xfa, 0xbc,
  0xa0, 0xd2, 0xe6, 0xbb, 0xc0, 0xcd, 0x91, 0xbb, 0xb1, 0x37, 0x0e, 0x3e,
  0x00, 0x99, 0x32, 0xbd, 0x8c, 0x4c, 0x4a, 0x3d, 0x5d, 0xa5, 0x50, 0x3e,
  0xaa, 0x87, 0xd8, 0x3d, 0x20, 0x05, 0x01, 0xbc, 0x0b, 0xb3, 0x05, 0x3e,
  0xd4, 0x45, 0xa2, 0xbd, 0x74, 0x05, 0x4f, 0xbe, 0xae, 0xd8, 0x92, 0x3d,
  0x4f, 0x45, 0x29, 0x3e, 0xbb, 0x81, 0x5c, 0x3e, 0x20, 0xee, 0x44, 0xbe,
  0xea, 0x66, 0x4b, 0xbe, 0x40, 0xad, 0x4c, 0xbd, 0x90, 0x75, 0xa1, 0xbc,
  0x6d, 0x0c, 0x43, 0xbe, 0x02, 0x94, 0x93, 0xbd, 0xdf, 0x09, 0xe5, 0xbd,
  0xf9, 0xa0, 0x19, 0xbe, 0xe8, 0x15, 0xcc, 0x3c, 0x43, 0xda, 0x20, 0xbe,
  0x57, 0xa9, 0x10, 0x3e, 0xc0, 0x00, 0x17, 0x3c, 0xe3, 0x9b, 0x2e, 0x3e,
  0xeb, 0x00, 0x03, 0x3e, 0x81, 0x3e, 0x14, 0x3e, 0xdb, 0x5a, 0x00, 0x3e,
  0x10, 0x44, 0x0c, 0xbd, 0xea, 0x0b, 0x08, 0xbe, 0xaa, 0xb2, 0x4e, 0xbe,
  0x6b, 0x0b, 0x3d, 0x3e, 0xfc, 0x27, 0x58, 0x3d, 0xd7, 0x06, 0x00, 0xbe,
  0x60, 0xd1, 0xf4, 0xbb, 0xf6, 0x00, 0xd2, 0x3d, 0x81, 0x86, 0x25, 0x3e,
  0x1a, 0x5d, 0x17, 0xbe, 0x28, 0xa1, 0x00, 0x3d, 0xa4, 0x11, 0x34, 0xbe,
  0x00, 0xf0, 0x7a, 0x38, 0x44, 0x2b, 0x15, 0x3d, 0x98, 0x59, 0x35, 0xbe,
  0x30, 0x71, 0x25, 0xbc, 0x57, 0xf9, 0x4e, 0xbe, 0x56, 0x88, 0xb1, 0x3d,
  0x38, 0x96, 0x55, 0xbe, 0x1c, 0x09, 0x43, 0xbe, 0x77, 0x19, 0x1b, 0xbe,
  0x04, 0x29, 0x40, 0xbe, 0x68, 0x2d, 0xd8, 0x3c, 0x24, 0x91, 0x20, 0x3d,
  0x00, 0xf0, 0x33, 0xbe, 0xb7, 0xef, 0x19, 0x3e, 0xd2, 0x43, 0x9c, 0x3d,
  0xd7, 0x52, 0x01, 0x3e, 0x32, 0xfa, 0x96, 0x3d, 0x6d, 0xe0, 0x4b, 0x3e,
  0x1b, 0xb4, 0x1e, 0x3e, 0xd9, 0x3e, 0xc9, 0xbd, 0x20, 0x45, 0xa1, 0xbb,
  0x39, 0x8e, 0x05, 0x3e, 0xa0, 0x8a, 0xe4, 0x3c, 0xe7, 0xc9, 0x3a, 0xbe,
  0xf2, 0xdd, 0xea, 0x3d, 0x70, 0x4a, 0x62, 0xbd, 0x94, 0x30, 0x54, 0xbd,
  0x61, 0xff, 0x04, 0x3e, 0x85, 0xaa, 0x22, 0xbe, 0xd3, 0xb6, 0x07, 0x3e,
  0x26, 0xeb, 0x1a, 0xbe, 0x95, 0x1a, 0x22, 0x3e, 0x17, 0x1f, 0x56, 0x3e,
  0xb0, 0x08, 0x2b, 0xbe, 0x7c, 0xe9, 0x0b, 0xbe, 0x2b, 0xfa, 0x5b, 0xbe,
  0x79, 0x3f, 0x56, 0xbe, 0xd6, 0x03, 0x53, 0xbe, 0xec, 0x1e, 0x1c, 0xbe,
  0xfd, 0x6d, 0x04, 0x3e, 0xd6, 0x3b, 0x82, 0xbd, 0x33, 0x71, 0x51, 0x3e,
  0xd0, 0xff, 0xe2, 0x3c, 0x58, 0xf7, 0xac, 0x3c, 0xa9, 0x55, 0x5d, 0x3e,
  0xfe, 0x7a, 0xbf, 0x3d, 0x08, 0x80, 0x5b, 0xbe, 0xeb, 0xe9, 0x4e, 0x3e,
  0x2c, 0x8b, 0x31, 0xbd, 0xc4, 0xc5, 0x9e, 0xbd, 0x20, 0xba, 0x92, 0xbb,
  0x9e, 0x29, 0x32, 0xbe, 0x9f, 0x10, 0x0a, 0x3e, 0x3b, 0x24, 0x00, 0xbe,
  0x9d, 0xe8, 0x03, 0x3e, 0xe4, 0xe4, 0x58, 0x3d, 0xa6, 0x50, 0xfe, 0xbd,
  0xf8, 0xd8, 0x18, 0xbd, 0x17, 0xd7, 0x07, 0x3e, 0x50, 0xca, 0x24, 0xbd,
  0x41, 0xde, 0x1e, 0x3e, 0x60, 0x1f, 0xb1, 0xbb, 0x26, 0xd6, 0x90, 0xbd,
  0x64, 0x14, 0x13, 0x3d, 0x6c, 0x80, 0x39, 0xbe, 0x4b, 0xf9, 0x42, 0x3e,
  0xfb, 0x0b, 0x31, 0xbe, 0x12, 0xbb, 0xbc, 0xbd, 0xc6, 0x0f, 0x18, 0xbe,
  0x80, 0x82, 0x96, 0xbd, 0xb1, 0xdd, 0x0d, 0x3e, 0xa8, 0x88, 0x7d, 0xbd,
  0xbb, 0x9e, 0x43, 0xbe, 0x32, 0x3f, 0xa3, 0x3d, 0xb3, 0x84, 0x08, 0x3e,
  0x40, 0x93, 0x89, 0xbd, 0xe8, 0x5b, 0x9c, 0xbc, 0x94, 0x1d, 0x4e, 0x3d,
  0x7a, 0x5f, 0x3d, 0xbe, 0xee, 0x40, 0xa2, 0x3d, 0x64, 0xf3, 0x30, 0xbe,
  0xb0, 0xe7, 0x35, 0xbc, 0x38, 0x93, 0x0d, 0xbd, 0x2b, 0x72, 0xd5, 0xbd,
  0x0f, 0x04, 0x2b, 0xbe, 0xe4, 0x71, 0xf0, 0xbd, 0x75, 0x9f, 0x35, 0x3e,
  0x68, 0xc7, 0xff, 0xbc, 0x10, 0xc8, 0x97, 0x3c, 0x1a, 0x1a, 0xa5, 0xbd,
  0x5f, 0xae, 0x31, 0x3e, 0xc0, 0x0a, 0x95, 0xbd, 0x34, 0xa3, 0x4b, 0xbd,
  0x5d, 0x90, 0x08, 0x3e, 0x68, 0x9a, 0xa9, 0xbc, 0xf4, 0x4f, 0xaf, 0xbd,
  0x58, 0x57, 0x0f, 0xbd, 0xd8, 0x62, 0xd6, 0xbd, 0xb8, 0xe8, 0x92, 0xbd,
  0xa0, 0x1b, 0xee, 0xbc, 0xd9, 0x7f, 0xf1, 0xbd, 0x10, 0x8d, 0x91, 0xbc,
  0x7b, 0x0c, 0x05, 0xbe, 0xb8, 0xac, 0x3b, 0xbe, 0xa2, 0x45, 0xbd, 0x3d,
  0xb3, 0xe2, 0x5a, 0xbe, 0xd8, 0x87, 0xbe, 0x3c, 0x95, 0xe1, 0x47, 0x3e,
  0xca, 0x9c, 0x91, 0xbd, 0xcd, 0x8b, 0x07, 0x3e, 0x31, 0xeb, 0x2a, 0x3e,
  0x11, 0x85, 0x4a, 0x3e, 0x80, 0x3a, 0x21, 0xbd, 0xf9, 0xb6, 0x37, 0x3e,
  0xfb, 0x7e, 0x47, 0x3e, 0xa2, 0x66, 0x92, 0x3d, 0xaf, 0x46, 0x00, 0x3e,
  0xda, 0x57, 0xda, 0x3d, 0xf3, 0xc0, 0x23, 0x3e, 0xe8, 0x74, 0xcf, 0xbc,
  0xb0, 0x26, 0xd8, 0xbc, 0x08, 0xfc, 0x17, 0xbd, 0xe0, 0x8d, 0x03, 0xbe,
  0x88, 0xe6, 0xf6, 0xbc, 0xca, 0x4a, 0xcc, 0x3d, 0x9c, 0xe8, 0x31, 0x3d,
  0x80, 0xc6, 0x99, 0xbb, 0x80, 0x51, 0xa5, 0xbd, 0xb4, 0x7b, 0x18, 0x3d,
  0x36, 0xed, 0xb3, 0xbd, 0xe0, 0xe8, 0x20, 0xbe, 0x7b, 0x7a, 0x31, 0xbe,
  0xd8, 0x0c, 0x65, 0xbd, 0x7b, 0x6c, 0x5c, 0x3e, 0x1a, 0x37, 0x85, 0x3d,
  0xee, 0x6b, 0xf4, 0xbd, 0x71, 0xae, 0x05, 0x3e, 0xe4, 0x75, 0x3f, 0xbd,
  0xcd, 0x6a, 0x3f, 0x3e, 0xa0, 0xa9, 0x43, 0xbe, 0xba, 0x13, 0xad, 0xbd,
  0xb2, 0xb2, 0x47, 0xbe, 0x0a, 0xcc, 0x06, 0xbe, 0x17, 0x3b, 0x42, 0xbe,
  0x27, 0x84, 0x40, 0x3e, 0x10, 0x91, 0x8b, 0xbc, 0x45, 0xaa, 0x2b, 0x3e,
  0x03, 0xe2, 0x2f, 0xbe, 0xe4, 0x32, 0x19, 0xbe, 0x84, 0x43, 0x39, 0xbe,
  0xb0, 0xb5, 0xb5, 0xbd, 0xb4, 0xd0, 0x10, 0xbd, 0x2e, 0x03, 0x57, 0xbe,
  0xc6, 0x89, 0xaa, 0x3d, 0xee, 0x41, 0xdd, 0x3d, 0x12, 0xf0, 0x9d, 0xbd,
  0xc8, 0xd9, 0x2f, 0xbd, 0x5e, 0x06, 0xcc, 0x3d, 0x9f, 0xca, 0x33, 0x3e,
  0x7a, 0x41, 0xd9, 0x3d, 0xad, 0xf5, 0x1b, 0x3e, 0x98, 0x71, 0x81, 0xbc,
  0x5c, 0xc8, 0x2a, 0x3d, 0xc0, 0xa9, 0x80, 0xbc, 0x00, 0xfb, 0x39, 0x3a,
  0xbc, 0x55, 0x6f, 0x3d, 0xbc, 0xc4, 0x59, 0xbe, 0xa5, 0x12, 0x5c, 0xbe,
  0x58, 0x2e, 0x85, 0xbc, 0x15, 0x87, 0xfd, 0xbd, 0xfc, 0x12, 0x5e, 0x3d,
  0x7b, 0xd7, 0x3e, 0x3e, 0xd5, 0x6c, 0x20, 0xbe, 0x56, 0xe4, 0x92, 0xbd,
  0xaa, 0x3d, 0xf6, 0x3d, 0x19, 0xf7, 0x37, 0x3e, 0xb3, 0x75, 0x1b, 0x3e,
  0xaa, 0xe2, 0x94, 0x3d, 0xfc, 0xd7, 0xa4, 0xbd, 0x8f, 0x32, 0x22, 0x3e,
  0x00, 0xab, 0xb3, 0xbb, 0xb0, 0xcb, 0x88, 0xbd, 0x26, 0x93, 0x36, 0xbe,
  0x36, 0xbc, 0x8b, 0xbd, 0x03, 0xf3, 0x0e, 0x3e, 0x51, 0xdd, 0x0a, 0x3e,
  0x26, 0x36, 0x00, 0xbe, 0x40, 0xde, 0x6c, 0x3b, 0x05, 0x12, 0x44, 0xbe,
  0xd2, 0x3e, 0xfa, 0x3d, 0x68, 0x67, 0x0c, 0xbd, 0x25, 0x76, 0x55, 0x3e,
  0x9b, 0x7d, 0x46, 0x3e, 0x74, 0xfe, 0x31, 0xbe, 0xd9, 0x30, 0x0c, 0x3e,
  0xd1, 0x8d, 0x0d, 0x3e, 0xca, 0x37, 0xb2, 0xbd, 0xe4, 0xa5, 0x53, 0x3d,
  0x30, 0x17, 0xbf, 0xbc, 0xa6, 0x39, 0x8f, 0x3d, 0xa6, 0x65, 0xb3, 0xbd,
  0x00, 0xe0, 0xa2, 0x37, 0xdc, 0x8c, 0xba, 0xbd, 0xa3, 0x07, 0x49, 0x3e,
  0x85, 0x7a, 0xea, 0xbd, 0xa0, 0x4f, 0xed, 0xbb, 0xd2, 0x33, 0xf1, 0x3d,
  0xf2, 0xc1, 0x91, 0x3d, 0xe4, 0x83, 0x1e, 0x3d, 0x90, 0x1e, 0x3a, 0xbc,
  0xe8, 0xab, 0x22, 0xbd, 0x56, 0xea, 0x94, 0x3d, 0x2a, 0x70, 0x40, 0xbe,
  0x86, 0x9a, 0xbe, 0xbd, 0x41, 0x0f, 0x39, 0x3e, 0x28, 0x6c, 0x42, 0xbd,
  0x36, 0xe1, 0xbb, 0xbd, 0x24, 0x79, 0x47, 0xbd, 0x90, 0x38, 0x46, 0x3c,
  0xc2, 0xe3, 0x1f, 0xbe, 0xf0, 0x7a, 0xc8, 0x3c, 0x68, 0xd4, 0x26, 0xbe,
  0xf2, 0xcb, 0xb3, 0x3d, 0x22, 0x4d, 0xdd, 0xbd, 0x34, 0xa2, 0xd2, 0xbd,
  0xaa, 0xe7, 0xd4, 0x3d, 0x2d, 0x37, 0x59, 0x3e, 0x70, 0xea, 0x25, 0xbc,
  0xb8, 0x21, 0x4a, 0xbd, 0xfd, 0x41, 0x3c, 0xbe, 0xb6, 0xb0, 0x1c, 0xbe,
  0xfc, 0x03, 0x18, 0xbd, 0xc1, 0xad, 0x50, 0x3e, 0x3e, 0x34, 0xb2, 0xbd,
  0x24, 0x2f, 0x0b, 0xbe, 0x02, 0x2c, 0x99, 0x3d, 0x33, 0x01, 0x32, 0xbe,
  0x5f, 0x9e, 0x3f, 0xbe, 0x48, 0x70, 0xb4, 0xbd, 0x40, 0x2c, 0x06, 0xbd,
  0xf8, 0x27, 0xa0, 0xbd, 0x80, 0x6c, 0xef, 0xbb, 0x90, 0x50, 0x0e, 0xbe,
  0xd6, 0xba, 0x9b, 0x3d, 0x90, 0x03, 0xe1, 0xbc, 0xd0, 0x4f, 0x2c, 0xbd,
  0x24, 0x55, 0x2b, 0xbe, 0xa4, 0xd7, 0x5e, 0xbd, 0xda, 0x13, 0x9a, 0x3d,
  0xfc, 0x41, 0x08, 0x3d, 0x89, 0x9e, 0x3a, 0xbe, 0xd0, 0x27, 0x89, 0xbc,
  0x57, 0xea, 0xd7, 0xbd, 0x1e, 0x4d, 0xab, 0x3d, 0x4c, 0x0f, 0x46, 0xbd,
  0x30, 0xa2, 0x5a, 0xbd, 0xf0, 0xa7, 0x62, 0xbc, 0x88, 0x0e, 0x47, 0xbe,
  0xc2, 0xc1, 0xae, 0x3d, 0x00, 0xf6, 0x38, 0x3b, 0xa4, 0xdc, 0x08, 0xbe,
  0xba, 0x1b, 0x11, 0xbe, 0x7c, 0x5b, 0x11, 0x3d, 0x79, 0x06, 0x53, 0x3e,
  0xca, 0x43, 0xcd, 0x3d, 0x27, 0x5f, 0x30, 0xbe, 0x22, 0xb5, 0xe7, 0x3d,
  0xc2, 0x4e, 0xea, 0x3d, 0x04, 0xbc, 0x38, 0x3d, 0xb6, 0x3d, 0x9e, 0x3d,
  0xdb, 0x77, 0x1a, 0xbe, 0x74, 0x98, 0x46, 0xbe, 0x58, 0x56, 0x4c, 0xbe,
  0xf8, 0x58, 0xac, 0x3c, 0x1c, 0xae, 0x4f, 0xbd, 0xf5, 0x6e, 0x42, 0xbe,
  0x72, 0x35, 0xff, 0x3d, 0xcd, 0x7b, 0x23, 0xbe, 0x50, 0xde, 0x5f, 0x3c,
  0xb0, 0xe8, 0x11, 0xbe, 0x73, 0x2a, 0x52, 0x3e, 0xaa, 0x77, 0x94, 0x3d,
  0xd5, 0x14, 0x4e, 0xbe, 0x1c, 0x09, 0x12, 0xbe, 0x1b, 0xc4, 0x24, 0x3e,
  0xc2, 0x77, 0xb6, 0xbd, 0xba, 0x23, 0xb9, 0xbd, 0x2c, 0xdb, 0x9b, 0xbd,
  0x54, 0x0a, 0x40, 0x3d, 0xee, 0x0f, 0x87, 0x3d, 0x38, 0x5c, 0x90, 0xbc,
  0x50, 0xfd, 0x8f, 0xbd, 0xb7, 0x16, 0x13, 0x3e, 0x9d, 0x2e, 0xbf, 0xbd,
  0xe0, 0xac, 0x10, 0xbe, 0xa0, 0xa8, 0x8f, 0xbc, 0x40, 0xe1, 0x2d, 0x3c,
  0x4e, 0x2a, 0x27, 0xbe, 0x5b, 0xa2, 0x52, 0x3e, 0x90, 0x00, 0x10, 0xbc,
  0xa0, 0xef, 0x0f, 0x3c, 0xf4, 0x98, 0x07, 0x3d, 0xc4, 0xe1, 0x33, 0xbd,
  0x85, 0xe8, 0x24, 0xbe, 0x39, 0x00, 0x17, 0x3e, 0x93, 0x8c, 0x1d, 0xbe,
  0xfd, 0x05, 0xd3, 0xbd, 0x31, 0x9e, 0x25, 0x3e, 0x91, 0xac, 0x01, 0xbe,
  0xa9, 0x15, 0x3f, 0xbe, 0x58, 0x5d, 0x05, 0xbe, 0xfb, 0x21, 0x33, 0xbe,
  0xe4, 0xd3, 0x3e, 0xbd, 0x62, 0xe9, 0xd6, 0x3d, 0x00, 0xc7, 0xb0, 0x3a,
  0x34, 0xa5, 0x6d, 0x3d, 0xef, 0x24, 0x0f, 0x3e, 0x49, 0x22, 0x3a, 0xbe,
  0x72, 0x44, 0xde, 0x3d, 0x8a, 0x41, 0x97, 0xbd, 0x68, 0x07, 0xb0, 0xbc,
  0x28, 0xce, 0x5b, 0xbd, 0x64, 0xe1, 0x17, 0x3d, 0x80, 0x87, 0xdf, 0xba,
  0x8e, 0x4f, 0xbf, 0x3d, 0x5c, 0xf2, 0x12, 0x3d, 0x3a, 0xb1, 0xd1, 0x3d,
  0xfd, 0x07, 0x2f, 0x3e, 0x15, 0x6e, 0x1c, 0x3e, 0x18, 0x7f, 0x9c, 0x3c,
  0x04, 0xad, 0x57, 0xbd, 0x14, 0xd3, 0x9b, 0xbd, 0x50, 0xf8, 0xda, 0xbc,
  0xaa, 0x87, 0xca, 0x3d, 0x76, 0x4d, 0xed, 0x3d, 0x76, 0x50, 0x8f, 0xbd,
  0x3b, 0xa6, 0x49, 0x3e, 0x43, 0xd3, 0x2a, 0x3e, 0x1f, 0x87, 0x44, 0x3e,
  0x88, 0xa5, 0x97, 0x3c, 0x06, 0x33, 0x1b, 0xbe, 0x99, 0x15, 0x0a, 0x3e,
  0x70, 0x37, 0x9d, 0xbc, 0x00, 0xef, 0x53, 0xbc, 0xf0, 0xfa, 0x56, 0xbe,
  0xbd, 0x3c, 0xe0, 0xbd, 0xbf, 0xf9, 0x3f, 0x3e, 0xbb, 0xd4, 0x33, 0x3e,
  0x1f, 0x08, 0x2e, 0x3e, 0x90, 0x06, 0x7b, 0xbc, 0x0f, 0x18, 0x11, 0xbe,
  0xc8, 0x96, 0x1b, 0xbd, 0xbd, 0x99, 0x39, 0xbe, 0x91, 0x2d, 0xc1, 0xbd,
  0x5c, 0xa0, 0x56, 0xbe, 0x3b, 0xa2, 0x11, 0xbe, 0xf5, 0x82, 0x44, 0x3e,
  0x3b, 0x73, 0x56, 0xbe, 0x1f, 0xc2, 0x03, 0x3e, 0x5e, 0x3a, 0xe2, 0x3d,
  0xdc, 0xa1, 0x12, 0xbe, 0x27, 0xbf, 0x4b, 0xbe, 0xac, 0xe9, 0x37, 0xbe,
  0x56, 0x4f, 0xbf, 0x3d, 0x9b, 0x94, 0xf1, 0xbd, 0x04, 0x9e, 0x57, 0x3d,
  0x0f, 0xb8, 0x23, 0x3e, 0x56, 0x66, 0x32, 0xbe, 0x37, 0xc8, 0x28, 0x3e,
  0x10, 0x4d, 0xcf, 0x3c, 0xb0, 0xf7, 0x0f, 0xbc, 0xe2, 0x1b, 0xc3, 0x3d,
  0xd5, 0x5b, 0xf7, 0xbd, 0x60, 0x06, 0xd1, 0xbb, 0x08, 0xd5, 0xf1, 0x3c,
  0x87, 0x0e, 0x51, 0x3e, 0xa0, 0x02, 0x35, 0x3c, 0x94, 0xc9, 0x2d, 0x3d,
  0x21, 0xb3, 0xc7, 0xbd, 0xa6, 0xfb, 0xc2, 0xbd, 0x6b, 0x18, 0x4e, 0x3e,
  0xa4, 0x6f, 0x0a, 0xbe, 0xd8, 0x6e, 0x4f, 0xbd, 0xac, 0x22, 0x14, 0x3d,
  0x20, 0xba, 0x21, 0xbd, 0xa8, 0x2f, 0x77, 0xbd, 0x27, 0xc0, 0x27, 0x3e,
  0x7e, 0xeb, 0xf3, 0x3d, 0x98, 0x6e, 0x16, 0xbe, 0xd0, 0x65, 0x75, 0xbd,
  0xc6, 0x44, 0xc0, 0x3d, 0x21, 0x2f, 0x20, 0x3e, 0xc0, 0x62, 0x82, 0xbb,
  0xda, 0x2b, 0xe6, 0x3d, 0xa2, 0xbe, 0xa9, 0x3d, 0xb7, 0x5e, 0xf5, 0xbd,
  0xac, 0xbd, 0x59, 0x3d, 0xb2, 0xb5, 0x03, 0xbe, 0x74, 0xf9, 0x16, 0x3d,
  0x5c, 0xfa, 0x10, 0xbe, 0x4c, 0x47, 0x45, 0xbe, 0xc1, 0x13, 0x49, 0x3e,
  0x10, 0xef, 0x4f, 0xbe, 0xa0, 0x52, 0xbb, 0x3c, 0x4c, 0xae, 0x56, 0xbe,
  0x0e, 0x50, 0x3d, 0xbe, 0x36, 0x5c, 0x98, 0x3d, 0x4d, 0x7d, 0xe1, 0xbd,
  0xe6, 0xc4, 0xae, 0x3d, 0xc2, 0xae, 0x9f, 0x3d, 0x78, 0x24, 0xdb, 0x3c,
  0x77, 0xb9, 0x4c, 0x3e, 0xdc, 0xf7, 0x20, 0x3d, 0xc6, 0xe7, 0x48, 0xbe,
  0x0b, 0x12, 0x4e, 0xbe, 0x73, 0xbb, 0x49, 0x3e, 0xc6, 0x1e, 0xb3, 0xbd,
  0xb4, 0xd6, 0x49, 0xbe, 0x50, 0x45, 0x7e, 0x3c, 0x6c, 0x66, 0x45, 0xbe,
  0x78, 0x0f, 0xf2, 0x3c, 0x36, 0xc6, 0xe4, 0x3d, 0xee, 0x97, 0xfb, 0x3d,
  0x2e, 0x32, 0xfd, 0x3d, 0x04, 0x12, 0x3b, 0xbd, 0x1a, 0xa2, 0x90, 0xbd,
  0xd4, 0x4a, 0x26, 0x3d, 0xce, 0xeb, 0x12, 0xbe, 0x76, 0x86, 0xb5, 0x3d,
  0xc0, 0xfe, 0xdd, 0x3b, 0xdf, 0x80, 0x42, 0x3e, 0xa0, 0xb1, 0xc9, 0xbc,
  0x38, 0x95, 0x8d, 0x3c, 0x53, 0x13, 0x07, 0x3e, 0x96, 0xdf, 0xb2, 0x3d,
  0x60, 0x7d, 0x2e, 0xbc, 0xe0, 0x70, 0x2e, 0xbd, 0xe4, 0x74, 0xd0, 0xbd,
  0x7c, 0x9c, 0x9f, 0xbd, 0x49, 0x76, 0x31, 0x3e, 0x0a, 0xa9, 0x8f, 0x3d,
  0x4c, 0x5e, 0x22, 0xbe, 0x70, 0x6e, 0x6d, 0xbc, 0xec, 0x57, 0x1a, 0x3d,
  0x27, 0xe7, 0x43, 0x3e, 0x50, 0x9d, 0x79, 0xbd, 0x16, 0x20, 0xcc, 0x3d,
  0x10, 0xca, 0x85, 0xbd, 0xe7, 0x18, 0x58, 0xbe, 0x25, 0x11, 0x2d, 0x3e,
  0x65, 0xc8, 0x3c, 0x3e, 0x14, 0x7c, 0x79, 0x3d, 0xc1, 0x5b, 0x44, 0xbe,
  0x94, 0x9f, 0x0e, 0xbe, 0x5a, 0xc5, 0xea, 0x3d, 0x55, 0x44, 0x30, 0x3e,
  0x5c, 0x5b, 0x2a, 0xbe, 0x07, 0x3e, 0x28, 0xbe, 0xa4, 0x31, 0x3c, 0x3d,
  0x99, 0x3b, 0x50, 0x3e, 0x0b, 0xaa, 0x45, 0x3e, 0xf7, 0xd3, 0x1c, 0x3e,
  0x38, 0x47, 0xf9, 0xbd, 0x1f, 0x47, 0x06, 0x3e, 0x3e, 0x0c, 0x87, 0x3d,
  0xe6, 0x0b, 0xcc, 0x3d, 0x70, 0xee, 0x98, 0xbd, 0x89, 0xcd, 0x53, 0x3e,
  0x6b, 0x39, 0x2b, 0x3e, 0x4e, 0x10, 0xe9, 0x3d, 0xfd, 0xec, 0xde, 0xbd,
  0xad, 0xad, 0x42, 0x3e, 0x7a, 0xc8, 0xa1, 0x3d, 0x60, 0x23, 0x0f, 0xbe,
  0x80, 0xb9, 0xdc, 0xbb, 0xb2, 0x05, 0x4c, 0xbe, 0xd0, 0xc8, 0x4f, 0x3c,
  0x16, 0x39, 0x09, 0xbe, 0x98, 0xda, 0xd2, 0xbc, 0xb2, 0x17, 0xb1, 0xbd,
  0x5a, 0xac, 0xcf, 0x3d, 0x88, 0x29, 0xa5, 0xbc, 0x5b, 0x85, 0x07, 0x3e,
  0x5e, 0x06, 0xc3, 0x3d, 0xc5, 0xb0, 0x0b, 0x3e, 0x71, 0x56, 0x33, 0x3e,
  0x61, 0x50, 0x57, 0xbe, 0xc0, 0xee, 0x3d, 0x3c, 0xf4, 0x8b, 0x4c, 0xbe,
  0x1a, 0x50, 0xde, 0x3d, 0xa8, 0xcf, 0xba, 0xbd, 0xe1, 0x4d, 0x1f, 0xbe,
  0x8e, 0x0d, 0x3f, 0xbe, 0x0a, 0x59, 0xe0, 0x3d, 0x68, 0x4e, 0x15, 0xbd,
  0x8a, 0x4a, 0xf6, 0x3d, 0xfd, 0x31, 0x07, 0xbe, 0x0e, 0xea, 0x13, 0xbe,
  0x60, 0xda, 0xa3, 0xbb, 0x48, 0xc5, 0x99, 0xbc, 0x72, 0x16, 0xdc, 0x3d,
  0x0c, 0x9a, 0x61, 0xbd, 0x18, 0xc8, 0x2a, 0xbd, 0x2c, 0xfe, 0x6c, 0xbd,
  0xb6, 0x1a, 0xf1, 0x3d, 0x08, 0x83, 0xea, 0xbc, 0xb6, 0x86, 0x50, 0xbe,
  0x7c, 0xbf, 0x55, 0xbd, 0x9d, 0xad, 0x48, 0x3e, 0x21, 0x57, 0x45, 0x3e,
  0x4f, 0xfb, 0x54, 0x3e, 0xa0, 0x76, 0x61, 0x3c, 0x23, 0x16, 0x1e, 0x3e,
  0x4e, 0x71, 0x8d, 0xbd, 0x7a, 0x55, 0x11, 0xbe, 0x90, 0xda, 0x62, 0xbc,
  0x29, 0x59, 0x04, 0xbe, 0xf9, 0x1b, 0xec, 0xbd, 0xb9, 0xce, 0x32, 0x3e,
  0xd3, 0x5d, 0x3f, 0x3e, 0xa0, 0xbc, 0x9d, 0xbd, 0x5a, 0x7f, 0xb4, 0x3d,
  0x90, 0x8a, 0x90, 0x3c, 0xf0, 0xde, 0xb5, 0x3c, 0x30, 0x3f, 0x48, 0xbd,
  0x40, 0x68, 0x69, 0x3b, 0xd0, 0x0e, 0x71, 0xbc, 0xe0, 0x18, 0xf2, 0xbc,
  0x40, 0xe7, 0x2e, 0x3b, 0xaa, 0xb3, 0xe5, 0xbd, 0x74, 0xe3, 0x14, 0xbe,
  0xa9, 0xfb, 0x3a, 0x3e, 0xae, 0x57, 0xce, 0x3d, 0x10, 0xcf, 0x6b, 0xbd,
  0x30, 0x5e, 0x9d, 0x3c, 0x11, 0xbc, 0xda, 0xbd, 0x79, 0x16, 0x06, 0xbe,
  0x30, 0xcc, 0x71, 0xbd, 0x09, 0xd6, 0xc1, 0xbd, 0xc6, 0x71, 0x93, 0x3d,
  0x00, 0x30, 0x6c, 0xbd, 0x40, 0xfc, 0x09, 0x3b, 0x55, 0x9d, 0x26, 0x3e,
  0x82, 0x66, 0x1d, 0xbe, 0x38, 0x83, 0xff, 0xbc, 0xed, 0x4b, 0xf6, 0xbd,
  0x2e, 0x2e, 0x03, 0xbe, 0x57, 0x5e, 0x22, 0x3e, 0x24, 0x56, 0x6e, 0xbd,
  0x4c, 0xac, 0x3a, 0xbe, 0x27, 0x0e, 0x59, 0x3e, 0xb7, 0xcb, 0x11, 0x3e,
  0xbc, 0xba, 0x50, 0xbd, 0x94, 0x02, 0x0c, 0x3d, 0x9f, 0xac, 0x30, 0xbe,
  0x09, 0x7d, 0x55, 0xbe, 0xf0, 0x78, 0x8c, 0xbc, 0x5e, 0x24, 0x2c, 0xbe,
  0xee, 0x3e, 0x8e, 0x3d, 0x55, 0x01, 0x32, 0x3e, 0xd0, 0x8c, 0x1f, 0x3c,
  0x02, 0x4b, 0xd5, 0xbd, 0x22, 0x3e, 0x8d, 0x3d, 0xe4, 0xcb, 0x9d, 0xbd,
  0x6c, 0x9e, 0x19, 0xbd, 0xfd, 0x99, 0x4a, 0xbe, 0xc3, 0xc9, 0xd3, 0xbd,
  0x68, 0xd5, 0x0a, 0xbd, 0xa8, 0xd1, 0xeb, 0x3c, 0x87, 0x2f, 0x5a, 0x3e,
  0x3d, 0x94, 0x2e, 0x3e, 0x82, 0x3c, 0x0d, 0xbe, 0x54, 0x4c, 0xa2, 0xbd,
  0xf3, 0x46, 0x24, 0x3e, 0xdc, 0x43, 0x4c, 0xbe, 0x32, 0x06, 0xa3, 0xbd,
  0x21, 0x58, 0x26, 0x3e, 0x88, 0xd3, 0xbf, 0xbc, 0xe6, 0x1c, 0xe5, 0x3d,
  0x41, 0xfa, 0x4f, 0x3e, 0x9a, 0x01, 0xa3, 0x3d, 0xc3, 0x7c, 0x48, 0x3e,
  0xd9, 0x0d, 0x03, 0x3e, 0xac, 0x3a, 0x53, 0xbd, 0xde, 0x99, 0xdf, 0x3d,
  0x78, 0x65, 0x8d, 0x3c, 0x79, 0xc9, 0x48, 0x3e, 0xd9, 0x3a, 0xf3, 0xbd,
  0xed, 0x86, 0x04, 0x3e, 0x1c, 0xe4, 0x00, 0xbe, 0x6e, 0xcc, 0xfc, 0x3d,
  0x80, 0x10, 0x48, 0xbe, 0xf9, 0xa9, 0x17, 0x3e, 0x4c, 0xd8, 0x92, 0xbd,
  0xdb, 0x80, 0x56, 0xbe, 0xf7, 0x8c, 0x31, 0xbe, 0x3b, 0x4e, 0x36, 0xbe,
  0x83, 0x78, 0x33, 0x3e, 0xf8, 0x2e, 0x6c, 0xbd, 0xfc, 0xf1, 0x29, 0x3d,
  0xd1, 0x75, 0x51, 0x3e, 0xbe, 0x09, 0x92, 0x3d, 0x1a, 0xb9, 0xcb, 0x3d,
  0x93, 0x3d, 0x39, 0xbe, 0x99, 0x1a, 0x2f, 0xbe, 0xee, 0xd3, 0x13, 0xbe,
  0xb7, 0x6f, 0x3a, 0x3e, 0x70, 0x8c, 0x7a, 0xbc, 0x28, 0xe2, 0xb5, 0xbd,
  0xa0, 0x81, 0x8a, 0xbd, 0x86, 0xca, 0xa8, 0x3d, 0xc6, 0xbc, 0x8e, 0x3d,
  0x65, 0xea, 0x26, 0x3e, 0x88, 0x9a, 0xba, 0xbd, 0x77, 0x85, 0x07, 0xbe,
  0xe1, 0x9b, 0x50, 0x3e, 0x54, 0x8f, 0x99, 0xbd, 0xc9, 0xce, 0x56, 0xbe,
  0xab, 0x0d, 0x52, 0xbe, 0xe2, 0x2e, 0xa8, 0x3d, 0xa0, 0xbc, 0x8d, 0x3c,
  0x39, 0x22, 0x36, 0x3e, 0x4c, 0x3f, 0x29, 0x3d, 0xac, 0x97, 0x11, 0x3d,
  0xca, 0xce, 0x3a, 0xbe, 0x39, 0xb3, 0x32, 0xbe, 0x14, 0x13, 0x29, 0x3d,
  0x40, 0xa7, 0x6e, 0xbc, 0xdc, 0x7a, 0x22, 0x3d, 0x56, 0x94, 0xf5, 0x3d,
  0x57, 0x01, 0x33, 0xbe, 0xc6, 0x45, 0xd7, 0x3d, 0xac, 0x13, 0xc4, 0xbd,
  0xd4, 0x83, 0x29, 0x3d, 0x52, 0xe0, 0xc1, 0xbd, 0x6c, 0xed, 0x6b, 0x3d,
  0x10, 0x94, 0xf6, 0xbc, 0x02, 0x95, 0x99, 0xbd, 0xce, 0x01, 0xaa, 0x3d,
  0xc3, 0xcb, 0xf1, 0xbd, 0x29, 0x81, 0x0e, 0x3e, 0x5c, 0xf0, 0x1d, 0x3d,
  0x0b, 0x5a, 0xcd, 0xbd, 0xd3, 0x27, 0x47, 0x3e, 0xaa, 0x10, 0xbb, 0x3d,
  0x59, 0xc9, 0x3c, 0x3e, 0xdc, 0x1f, 0x54, 0x3d, 0x2d, 0xb1, 0x46, 0xbe,
  0xed, 0xb0, 0x4f, 0x3e, 0xf6, 0xeb, 0xb3, 0x3d, 0xeb, 0x9f, 0x33, 0x3e,
  0xa5, 0x1e, 0x44, 0xbe, 0x30, 0x6d, 0xab, 0x3c, 0xd8, 0x90, 0x33, 0xbd,
  0xa1, 0x0b, 0x2c, 0x3e, 0x34, 0x7e, 0x18, 0x3d, 0x49, 0xdd, 0x5a, 0x3e,
  0xb2, 0x23, 0xa6, 0xbd, 0x85, 0xf0, 0x59, 0x3e, 0xea, 0x94, 0xb5, 0xbd,
  0x82, 0x29, 0xec, 0x3d, 0x0e, 0xee, 0x10, 0xbe, 0x34, 0x2c, 0xf0, 0xbd,
  0xbc, 0x27, 0x41, 0x3d, 0x56, 0xd4, 0x47, 0xbe, 0x68, 0xd7, 0x08, 0xbe,
  0x70, 0x53, 0x1f, 0xbc, 0x46, 0x8e, 0x40, 0xbe, 0xe0, 0x17, 0x08, 0xbd,
  0xe2, 0xb4, 0x97, 0xbd, 0x58, 0x04, 0xb3, 0x3c, 0xe6, 0xd2, 0x5b, 0xbe,
  0x95, 0x3b, 0x21, 0xbe, 0xb1, 0x3f, 0x3f, 0x3e, 0x35, 0x11, 0x1d, 0xbe,
  0x72, 0x6f, 0x89, 0x3d, 0x04, 0xc5, 0x64, 0x3d, 0x00, 0x09, 0x7d, 0xbb,
  0xd7, 0x1b, 0x4e, 0x3e, 0x56, 0x7c, 0x49, 0xbe, 0x84, 0x10, 0x2a, 0x3d,
  0xf4, 0xf0, 0x4e, 0x3d, 0x9a, 0xef, 0xa2, 0xbd, 0xd8, 0x09, 0x90, 0xbc,
  0xb1, 0xb3, 0x17, 0xbe, 0xb0, 0x2d, 0x8b, 0x3c, 0x00, 0x04, 0x98, 0xb9,
  0xbf, 0x98, 0x3a, 0x3e, 0xc8, 0x75, 0xed, 0xbc, 0x20, 0xde, 0x32, 0xbd,
  0x61, 0xda, 0x05, 0xbe, 0x10, 0x91, 0x7e, 0xbd, 0xb0, 0xe1, 0xa1, 0xbc,
  0xc4, 0x92, 0x18, 0x3d, 0xcb, 0xf6, 0x38, 0x3e, 0xbc, 0x1e, 0x04, 0xbd,
  0x47, 0x9a, 0x46, 0x3e, 0x34, 0x62, 0x00, 0xbe, 0xc1, 0x16, 0x27, 0xbe,
  0x25, 0x06, 0xda, 0xbd, 0x8a, 0x4e, 0xee, 0x3d, 0xb4, 0x32, 0x4f, 0xbd,
  0xab, 0x9e, 0xf5, 0xbd, 0xba, 0x46, 0xb2, 0x3d, 0x88, 0xe6, 0xce, 0x3c,
  0xba, 0x95, 0x42, 0xbe, 0xa6, 0xba, 0x58, 0xbe, 0x19, 0x01, 0x52, 0x3e,
  0xd0, 0x7b, 0x06, 0xbe, 0xd5, 0xc2, 0x55, 0x3e, 0x62, 0x80, 0xc5, 0x3d,
  0x98, 0xe7, 0x91, 0xbd, 0x40, 0xf2, 0xb6, 0xbd, 0x78, 0xe5, 0x35, 0xbe,
  0x31, 0xae, 0x18, 0x3e, 0x8d, 0x5f, 0x0d, 0x3e, 0xa4, 0x5f, 0x8c, 0xbd,
  0x28, 0xa6, 0xe6, 0x3c, 0xa0, 0xcd, 0xc1, 0xbc, 0x80, 0x02, 0x9f, 0xba,
  0x20, 0x89, 0x57, 0xbd, 0xc3, 0x14, 0x00, 0x3e, 0x80, 0x87, 0xfc, 0xbc,
  0x63, 0xa2, 0x10, 0x3e, 0xb0, 0x32, 0xe3, 0xbc, 0xfe, 0x1f, 0xc0, 0xbd,
  0x1a, 0xd6, 0xa0, 0x3d, 0x03, 0xbe, 0x45, 0x3e, 0x07, 0x9e, 0x1f, 0xbe,
  0x38, 0x51, 0x26, 0xbe, 0xb6, 0x64, 0x37, 0xbe, 0x40, 0x7a, 0xbb, 0x3b,
  0x9c, 0xaf, 0xe8, 0xbd, 0xae, 0xc5, 0xfa, 0x3d, 0x04, 0x57, 0xf0, 0xbd,
  0x20, 0x56, 0x69, 0xbc, 0x80, 0xf4, 0xc8, 0x3c, 0x8c, 0x1c, 0x34, 0xbd,
  0x53, 0xb0, 0x0d, 0x3e, 0x7b, 0x9b, 0x00, 0x3e, 0x6c, 0x58, 0x54, 0x3d,
  0x20, 0x20, 0x04, 0xbe, 0x51, 0x86, 0x57, 0x3e, 0x39, 0x2e, 0x11, 0x3e,
  0x9c, 0xa1, 0x58, 0xbd, 0xc2, 0x54, 0x82, 0x3d, 0xbf, 0x42, 0xfa, 0xbd,
  0xf1, 0xe7, 0xc9, 0xbd, 0xa2, 0x88, 0x1f, 0xbe, 0x2c, 0xa9, 0xba, 0xbd,
  0x08, 0x35, 0xa1, 0xbd, 0x09, 0x91, 0x02, 0xbe, 0x9c, 0x90, 0x24, 0x3d,
  0x3c, 0xd0, 0x08, 0xbd, 0xa0, 0xbf, 0xe7, 0xbc, 0x2c, 0x00, 0x98, 0xbd,
  0xc1, 0x09, 0x5c, 0xbe, 0x9a, 0xdc, 0x9b, 0xbd, 0xa0, 0xcc, 0x6e, 0xbd,
  0xcf, 0x27, 0x52, 0x3e, 0xcb, 0x9d, 0xe9, 0xbd, 0x99, 0xbe, 0x45, 0x3e,
  0xcb, 0x59, 0x28, 0xbe, 0x52, 0x6f, 0x98, 0xbd, 0xf0, 0x40, 0x6f, 0xbd,
  0x49, 0xcb, 0x2b, 0x3e, 0x5c, 0x2a, 0x1d, 0xbe, 0xcd, 0x9f, 0x55, 0x3e,
  0x34, 0x36, 0x7c, 0x3d, 0x3e, 0x51, 0xf2, 0x3d, 0x00, 0x90, 0xd9, 0x3a,
  0xa0, 0xb0, 0xdf, 0x3b, 0x30, 0x73, 0x77, 0x3c, 0xba, 0x3f, 0x3c, 0xbe,
  0x60, 0x57, 0x85, 0xbc, 0x1f, 0xd3, 0x19, 0x3e, 0x22, 0x2c, 0x0a, 0xbe,
  0xe0, 0xd0, 0xea, 0xbc, 0xe0, 0x5f, 0x0f, 0x3c, 0x09, 0x41, 0x17, 0x3e,
  0x50, 0x1c, 0x5f, 0x3c, 0xc2, 0x28, 0x4d, 0xbe, 0x38, 0x71, 0x40, 0xbe,
  0x13, 0xe0, 0x34, 0x3e, 0x14, 0x7e, 0x3e, 0xbe, 0xa7, 0x7f, 0x18, 0xbe,
  0xf0, 0xee, 0x0c, 0xbd, 0x77, 0xca, 0x39, 0x3e, 0x06, 0xc9, 0x99, 0xbd,
  0x7a, 0xd8, 0x3f, 0xbe, 0xc5, 0xc0, 0xd4, 0xbd, 0x6d, 0x7b, 0x41, 0x3e,
  0x05, 0x85, 0x2e, 0x3e, 0x50, 0xfa, 0x30, 0xbc, 0x46, 0x01, 0xe7, 0x3d,
  0x2c, 0x07, 0x7c, 0x3d, 0x9c, 0xce, 0x08, 0x3d, 0xd8, 0x49, 0xc0, 0x3c,
  0xc0, 0xee, 0xff, 0x3b, 0x74, 0xb9, 0x59, 0xbd, 0x96, 0xee, 0x09, 0xbe,
  0xf6, 0xf7, 0xb5, 0x3d, 0x1b, 0xfc, 0x4e, 0x3e, 0x3b, 0x45, 0x33, 0xbe,
  0xb1, 0x5a, 0x12, 0x3e, 0x9f, 0xc3, 0x2c, 0x3e, 0x0a, 0x00, 0xd6, 0x3d,
  0x45, 0x68, 0x2c, 0x3e, 0x72, 0x22, 0xbb, 0x3d, 0xcc, 0x1c, 0x67, 0xbd,
  0x78, 0x36, 0x3f, 0xbd, 0xe3, 0x45, 0x06, 0x3e, 0x60, 0x9c, 0xfc, 0x3c,
  0x64, 0x59, 0x31, 0x3d, 0x16, 0xd0, 0x28, 0xbe, 0x94, 0x0a, 0x23, 0x3d,
  0xb5, 0x77, 0x53, 0x3e, 0xf0, 0x82, 0x0f, 0x3c, 0x48, 0xc3, 0x84, 0xbc,
  0xdc, 0xfb, 0x33, 0xbd, 0xc6, 0x42, 0xf4, 0x3d, 0xc8, 0x90, 0xef, 0x3c,
  0xb4, 0x76, 0x78, 0xbd, 0x7a, 0x52, 0xe9, 0xbd, 0xc2, 0x4a, 0x81, 0xbd,
  0x0c, 0x42, 0x7e, 0x3d, 0x2f, 0x08, 0x03, 0x3e, 0x17, 0xc3, 0x41, 0x3e,
  0x6c, 0xc1, 0xba, 0xbd, 0xbc, 0x87, 0x60, 0x3d, 0xbc, 0xcb, 0x7e, 0x3d,
  0xe2, 0x4b, 0xee, 0xbd, 0xe8, 0x85, 0x6a, 0xbd, 0xe0, 0x74, 0xb4, 0xbb,
  0xd0, 0xfb, 0x0a, 0xbe, 0x29, 0x6e, 0x32, 0x3e, 0xae, 0x01, 0xb7, 0x3d,
  0x44, 0x7a, 0x0b, 0x3d, 0x20, 0xec, 0xe7, 0xbb, 0x4a, 0xff, 0xff, 0xff,
  0x10, 0x00, 0x00, 0x00, 0x03, 0x00, 0x00, 0x00, 0x14, 0x00, 0x00, 0x00,
  0x2c, 0x00, 0x00, 0x00, 0x02, 0x00, 0x00, 0x00, 0x10, 0x00, 0x00, 0x00,
  0x70, 0x00, 0x00, 0x00, 0x17, 0x00, 0x00, 0x00, 0x73, 0x65, 0x71, 0x75,
  0x65, 0x6e, 0x74, 0x69, 0x61, 0x6c, 0x2f, 0x64, 0x65, 0x6e, 0x73, 0x65,
  0x2f, 0x4d, 0x61, 0x74, 0x4d, 0x75, 0x6c, 0x00, 0x90, 0xff, 0xff, 0xff,
  0x00, 0x00, 0x06, 0x00, 0x08, 0x00, 0x04, 0x00, 0x06, 0x00, 0x00, 0x00,
  0x04, 0x00, 0x00, 0x00, 0x08, 0x00, 0x00, 0x00, 0xff, 0xff, 0xff, 0xff,
  0x70, 0x00, 0x00, 0x00, 0x00, 0x00, 0x0e, 0x00, 0x18, 0x00, 0x08, 0x00,
  0x07, 0x00, 0x0c, 0x00, 0x10, 0x00, 0x14, 0x00, 0x0e, 0x00, 0x00, 0x00,
  0x00, 0x00, 0x00, 0x02, 0x10, 0x00, 0x00, 0x00, 0x02, 0x00, 0x00, 0x00,
  0x10, 0x00, 0x00, 0x00, 0x30, 0x00, 0x00, 0x00, 0x01, 0x00, 0x00, 0x00,
  0x02, 0x00, 0x00, 0x00, 0x18, 0x00, 0x00, 0x00, 0x73, 0x65, 0x71, 0x75,
  0x65, 0x6e, 0x74, 0x69, 0x61, 0x6c, 0x2f, 0x66, 0x6c, 0x61, 0x74, 0x74,
  0x65, 0x6e, 0x2f, 0x43, 0x6f, 0x6e, 0x73, 0x74, 0x00, 0x00, 0x00, 0x00,
  0x04, 0x00, 0x06, 0x00, 0x04, 0x00, 0x00, 0x00, 0x00, 0x00, 0x0e, 0x00,
  0x14, 0x00, 0x04, 0x00, 0x00, 0x00, 0x08, 0x00, 0x0c, 0x00, 0x10, 0x00,
  0x0e, 0x00, 0x00, 0x00, 0x10, 0x00, 0x00, 0x00, 0x01, 0x00, 0x00, 0x00,
  0x1c, 0x00, 0x00, 0x00, 0x2c, 0x00, 0x00, 0x00, 0x04, 0x00, 0x00, 0x00,
  0x01, 0x00, 0x00, 0x00, 0x40, 0x00, 0x00, 0x00, 0x03, 0x00, 0x00, 0x00,
  0x01, 0x00, 0x00, 0x00, 0x0c, 0x00, 0x00, 0x00, 0x63, 0x6f, 0x6e, 0x76,
  0x32, 0x64, 0x5f, 0x69, 0x6e, 0x70, 0x75, 0x74, 0x00, 0x00, 0x00, 0x00,
  0xfc, 0xff, 0xff, 0xff, 0x04, 0x00, 0x04, 0x00, 0x04, 0x00, 0x00, 0x00

};


unsigned int _content_midproject_model_model_tflite_len = 11940;
//unsigned int model_tflite_len = 11940;// Fill the int in `src/model.cc` here