#include "magic_wand_model_data.h"


// We need to keep the data array aligned on some architectures.

#ifdef __has_attribute

#define HAVE_ATTRIBUTE(x) __has_attribute(x)

#else

#define HAVE_ATTRIBUTE(x) 0

#endif

#if HAVE_ATTRIBUTE(aligned) || (defined(__GNUC__) && !defined(__clang__))

#define DATA_ALIGN_ATTRIBUTE __attribute__((aligned(4)))

#else

#define DATA_ALIGN_ATTRIBUTE

#endif


const unsigned char g_magic_wand_model_data[] DATA_ALIGN_ATTRIBUTE = {

  // Paste the data of the char array in `src/model.cc` here
  0x08, 0x00, 0x00, 0x00, 0x54, 0x46, 0x4c, 0x33, 0x62, 0xff, 0xff, 0xff,
  0x03, 0x00, 0x00, 0x00, 0x10, 0x00, 0x00, 0x00, 0x24, 0x00, 0x00, 0x00,
  0x78, 0x00, 0x00, 0x00, 0x24, 0x00, 0x00, 0x00, 0x05, 0x00, 0x00, 0x00,
  0x78, 0x05, 0x00, 0x00, 0xb0, 0x04, 0x00, 0x00, 0xe0, 0x02, 0x00, 0x00,
  0x60, 0x02, 0x00, 0x00, 0x54, 0x01, 0x00, 0x00, 0x01, 0x00, 0x00, 0x00,
  0x78, 0x00, 0x00, 0x00, 0x13, 0x00, 0x00, 0x00, 0x90, 0x2f, 0x00, 0x00,
  0x8c, 0x2f, 0x00, 0x00, 0x98, 0x2e, 0x00, 0x00, 0x28, 0x2e, 0x00, 0x00,
  0xbc, 0x2d, 0x00, 0x00, 0x6c, 0x11, 0x00, 0x00, 0x98, 0x10, 0x00, 0x00,
  0xbc, 0x0e, 0x00, 0x00, 0x60, 0x06, 0x00, 0x00, 0xfc, 0x05, 0x00, 0x00,
  0x78, 0x05, 0x00, 0x00, 0x64, 0x2f, 0x00, 0x00, 0x60, 0x2f, 0x00, 0x00,
  0x5c, 0x2f, 0x00, 0x00, 0x58, 0x2f, 0x00, 0x00, 0x54, 0x2f, 0x00, 0x00,
  0x50, 0x2f, 0x00, 0x00, 0x4c, 0x2f, 0x00, 0x00, 0x48, 0x2f, 0x00, 0x00,
  0x0f, 0x00, 0x00, 0x00, 0x4d, 0x4c, 0x49, 0x52, 0x20, 0x43, 0x6f, 0x6e,
  0x76, 0x65, 0x72, 0x74, 0x65, 0x64, 0x2e, 0x00, 0x00, 0x00, 0x0e, 0x00,
  0x18, 0x00, 0x04, 0x00, 0x08, 0x00, 0x0c, 0x00, 0x10, 0x00, 0x14, 0x00,
  0x0e, 0x00, 0x00, 0x00, 0x14, 0x00, 0x00, 0x00, 0x5c, 0x00, 0x00, 0x00,
  0x60, 0x00, 0x00, 0x00, 0x64, 0x00, 0x00, 0x00, 0x84, 0x00, 0x00, 0x00,
  0x12, 0x00, 0x00, 0x00, 0xc0, 0x2e, 0x00, 0x00, 0x5c, 0x2e, 0x00, 0x00,
  0xb4, 0x2d, 0x00, 0x00, 0x58, 0x2d, 0x00, 0x00, 0xf0, 0x2c, 0x00, 0x00,
  0x9c, 0x10, 0x00, 0x00, 0xc0, 0x0f, 0x00, 0x00, 0xe4, 0x0d, 0x00, 0x00,
  0xa0, 0x05, 0x00, 0x00, 0x3c, 0x05, 0x00, 0x00, 0xb0, 0x04, 0x00, 0x00,
  0xe8, 0x03, 0x00, 0x00, 0x38, 0x03, 0x00, 0x00, 0xa4, 0x02, 0x00, 0x00,
  0x10, 0x02, 0x00, 0x00, 0x90, 0x01, 0x00, 0x00, 0xfc, 0x00, 0x00, 0x00,
  0x80, 0x00, 0x00, 0x00, 0x01, 0x00, 0x00, 0x00, 0x00, 0x00, 0x00, 0x00,
  0x01, 0x00, 0x00, 0x00, 0x11, 0x00, 0x00, 0x00, 0x08, 0x00, 0x00, 0x00,
  0x1c, 0x04, 0x00, 0x00, 0x58, 0x03, 0x00, 0x00, 0xc8, 0x02, 0x00, 0x00,
  0x24, 0x02, 0x00, 0x00, 0xac, 0x01, 0x00, 0x00, 0x10, 0x01, 0x00, 0x00,
  0x94, 0x00, 0x00, 0x00, 0x10, 0x00, 0x00, 0x00, 0x04, 0x00, 0x00, 0x00,
  0x6d, 0x61, 0x69, 0x6e, 0x00, 0x00, 0x00, 0x00, 0x8e, 0xff, 0xff, 0xff,
  0x00, 0x00, 0x00, 0x09, 0x04, 0x00, 0x00, 0x00, 0x1c, 0x00, 0x00, 0x00,
  0x10, 0x00, 0x00, 0x00, 0x04, 0x00, 0x00, 0x00, 0x92, 0xd2, 0xff, 0xff,
  0x00, 0x00, 0x80, 0x3f, 0x01, 0x00, 0x00, 0x00, 0x11, 0x00, 0x00, 0x00,
  0x01, 0x00, 0x00, 0x00, 0x10, 0x00, 0x00, 0x00, 0xf6, 0xfb, 0xff, 0xff,
  0x00, 0x00, 0x00, 0x19, 0x01, 0x00, 0x00, 0x00, 0x12, 0xd2, 0xff, 0xff,
  0x10, 0x00, 0x00, 0x00, 0x12, 0x00, 0x00, 0x00, 0x14, 0x00, 0x00, 0x00,
  0x20, 0x00, 0x00, 0x00, 0x02, 0x00, 0x00, 0x00, 0x01, 0x00, 0x00, 0x00,
  0x02, 0x00, 0x00, 0x00, 0x08, 0x00, 0x00, 0x00, 0x49, 0x64, 0x65, 0x6e,
  0x74, 0x69, 0x74, 0x79, 0x00, 0x00, 0x00, 0x00, 0x4c, 0xd2, 0xff, 0xff,
  0x00, 0x00, 0x0e, 0x00, 0x18, 0x00, 0x08, 0x00, 0x0c, 0x00, 0x10, 0x00,
  0x07, 0x00, 0x14, 0x00, 0x0e, 0x00, 0x00, 0x00, 0x00, 0x00, 0x00, 0x08,
  0x03, 0x00, 0x00, 0x00, 0x18, 0x00, 0x00, 0x00, 0x0c, 0x00, 0x00, 0x00,
  0x04, 0x00, 0x00, 0x00, 0x20, 0xd2, 0xff, 0xff, 0x01, 0x00, 0x00, 0x00,
  0x10, 0x00, 0x00, 0x00, 0x03, 0x00, 0x00, 0x00, 0x0f, 0x00, 0x00, 0x00,
  0x05, 0x00, 0x00, 0x00, 0x02, 0x00, 0x00, 0x00, 0x8a, 0xd2, 0xff, 0xff,
  0x10, 0x00, 0x00, 0x00, 0x11, 0x00, 0x00, 0x00, 0x14, 0x00, 0x00, 0x00,
  0x30, 0x00, 0x00, 0x00, 0x02, 0x00, 0x00, 0x00, 0x01, 0x00, 0x00, 0x00,
  0x02, 0x00, 0x00, 0x00, 0x1a, 0x00, 0x00, 0x00, 0x73, 0x65, 0x71, 0x75,
  0x65, 0x6e, 0x74, 0x69, 0x61, 0x6c, 0x2f, 0x64, 0x65, 0x6e, 0x73, 0x65,
  0x5f, 0x31, 0x2f, 0x42, 0x69, 0x61, 0x73, 0x41, 0x64, 0x64, 0x00, 0x00,
  0x7c, 0xd2, 0xff, 0xff, 0xd6, 0xfd, 0xff, 0xff, 0x00, 0x00, 0x00, 0x08,
  0x03, 0x00, 0x00, 0x00, 0x24, 0x00, 0x00, 0x00, 0x18, 0x00, 0x00, 0x00,
  0x0c, 0x00, 0x00, 0x00, 0x00, 0x00, 0x06, 0x00, 0x08, 0x00, 0x07, 0x00,
  0x06, 0x00, 0x00, 0x00, 0x00, 0x00, 0x00, 0x01, 0x01, 0x00, 0x00, 0x00,
  0x0f, 0x00, 0x00, 0x00, 0x03, 0x00, 0x00, 0x00, 0x0e, 0x00, 0x00, 0x00,
  0x04, 0x00, 0x00, 0x00, 0x01, 0x00, 0x00, 0x00, 0xfe, 0xfc, 0xff, 0xff,
  0x00, 0x00, 0x00, 0x09, 0x01, 0x00, 0x00, 0x00, 0x1a, 0xd3, 0xff, 0xff,
  0x10, 0x00, 0x00, 0x00, 0x10, 0x00, 0x00, 0x00, 0x14, 0x00, 0x00, 0x00,
  0x2c, 0x00, 0x00, 0x00, 0x02, 0x00, 0x00, 0x00, 0x01, 0x00, 0x00, 0x00,
  0x10, 0x00, 0x00, 0x00, 0x15, 0x00, 0x00, 0x00, 0x73, 0x65, 0x71, 0x75,
  0x65, 0x6e, 0x74, 0x69, 0x61, 0x6c, 0x2f, 0x64, 0x65, 0x6e, 0x73, 0x65,
  0x2f, 0x52, 0x65, 0x6c, 0x75, 0x00, 0x00, 0x00, 0x60, 0xd3, 0xff, 0xff,
  0x00, 0x00, 0x0a, 0x00, 0x10, 0x00, 0x04, 0x00, 0x08, 0x00, 0x0c, 0x00,
  0x0a, 0x00, 0x00, 0x00, 0x02, 0x00, 0x00, 0x00, 0x10, 0x00, 0x00, 0x00,
  0x04, 0x00, 0x00, 0x00, 0x01, 0x00, 0x00, 0x00, 0x0e, 0x00, 0x00, 0x00,
  0x02, 0x00, 0x00, 0x00, 0x0d, 0x00, 0x00, 0x00, 0x03, 0x00, 0x00, 0x00,
  0x7a, 0xfd, 0xff, 0xff, 0x00, 0x00, 0x00, 0x16, 0x01, 0x00, 0x00, 0x00,
  0x96, 0xd3, 0xff, 0xff, 0x10, 0x00, 0x00, 0x00, 0x0f, 0x00, 0x00, 0x00,
  0x14, 0x00, 0x00, 0x00, 0x30, 0x00, 0x00, 0x00, 0x02, 0x00, 0x00, 0x00,
  0x01, 0x00, 0x00, 0x00, 0x70, 0x00, 0x00, 0x00, 0x1a, 0x00, 0x00, 0x00,
  0x73, 0x65, 0x71, 0x75, 0x65, 0x6e, 0x74, 0x69, 0x61, 0x6c, 0x2f, 0x66,
  0x6c, 0x61, 0x74, 0x74, 0x65, 0x6e, 0x2f, 0x52, 0x65, 0x73, 0x68, 0x61,
  0x70, 0x65, 0x00, 0x00, 0x88, 0xd3, 0xff, 0xff, 0xe2, 0xfe, 0xff, 0xff,
  0x00, 0x00, 0x00, 0x05, 0x01, 0x00, 0x00, 0x00, 0x38, 0x00, 0x00, 0x00,
  0x2c, 0x00, 0x00, 0x00, 0x14, 0x00, 0x00, 0x00, 0x00, 0x00, 0x0e, 0x00,
  0x14, 0x00, 0x00, 0x00, 0x10, 0x00, 0x0c, 0x00, 0x08, 0x00, 0x04, 0x00,
  0x0e, 0x00, 0x00, 0x00, 0x03, 0x00, 0x00, 0x00, 0x01, 0x00, 0x00, 0x00,
  0x03, 0x00, 0x00, 0x00, 0x01, 0x00, 0x00, 0x00, 0x01, 0x00, 0x00, 0x00,
  0x0d, 0x00, 0x00, 0x00, 0x01, 0x00, 0x00, 0x00, 0x0c, 0x00, 0x00, 0x00,
  0x26, 0xd4, 0xff, 0xff, 0x10, 0x00, 0x00, 0x00, 0x0e, 0x00, 0x00, 0x00,
  0x1c, 0x00, 0x00, 0x00, 0x40, 0x00, 0x00, 0x00, 0x04, 0x00, 0x00, 0x00,
  0x01, 0x00, 0x00, 0x00, 0x07, 0x00, 0x00, 0x00, 0x01, 0x00, 0x00, 0x00,
  0x10, 0x00, 0x00, 0x00, 0x22, 0x00, 0x00, 0x00, 0x73, 0x65, 0x71, 0x75,
  0x65, 0x6e, 0x74, 0x69, 0x61, 0x6c, 0x2f, 0x6d, 0x61, 0x78, 0x5f, 0x70,
  0x6f, 0x6f, 0x6c, 0x69, 0x6e, 0x67, 0x32, 0x64, 0x5f, 0x31, 0x2f, 0x4d,
  0x61, 0x78, 0x50, 0x6f, 0x6f, 0x6c, 0x00, 0x00, 0x28, 0xd4, 0xff, 0xff,
  0xc2, 0xfe, 0xff, 0xff, 0x00, 0x00, 0x00, 0x01, 0x24, 0x00, 0x00, 0x00,
  0x18, 0x00, 0x00, 0x00, 0x04, 0x00, 0x00, 0x00, 0xb4, 0xfe, 0xff, 0xff,
  0x01, 0x00, 0x00, 0x00, 0x01, 0x00, 0x00, 0x00, 0x00, 0x00, 0x00, 0x01,
  0x01, 0x00, 0x00, 0x00, 0x0c, 0x00, 0x00, 0x00, 0x03, 0x00, 0x00, 0x00,
  0x0b, 0x00, 0x00, 0x00, 0x07, 0x00, 0x00, 0x00, 0x09, 0x00, 0x00, 0x00,
  0xb6, 0xd4, 0xff, 0xff, 0x10, 0x00, 0x00, 0x00, 0x0d, 0x00, 0x00, 0x00,
  0x1c, 0x00, 0x00, 0x00, 0x2c, 0x00, 0x00, 0x00, 0x04, 0x00, 0x00, 0x00,
  0x01, 0x00, 0x00, 0x00, 0x15, 0x00, 0x00, 0x00, 0x01, 0x00, 0x00, 0x00,
  0x10, 0x00, 0x00, 0x00, 0x0c, 0x00, 0x00, 0x00, 0x74, 0x66, 0x6c, 0x2e,
  0x63, 0x6f, 0x6e, 0x76, 0x5f, 0x32, 0x64, 0x31, 0x00, 0x00, 0x00, 0x00,
  0xfc, 0xd4, 0xff, 0xff, 0x00, 0x00, 0x0e, 0x00, 0x1a, 0x00, 0x08, 0x00,
  0x0c, 0x00, 0x10, 0x00, 0x07, 0x00, 0x14, 0x00, 0x0e, 0x00, 0x00, 0x00,
  0x00, 0x00, 0x00, 0x05, 0x01, 0x00, 0x00, 0x00, 0x3c, 0x00, 0x00, 0x00,
  0x30, 0x00, 0x00, 0x00, 0x14, 0x00, 0x00, 0x00, 0x00, 0x00, 0x0e, 0x00,
  0x18, 0x00, 0x17, 0x00, 0x10, 0x00, 0x0c, 0x00, 0x08, 0x00, 0x04, 0x00,
  0x0e, 0x00, 0x00, 0x00, 0x03, 0x00, 0x00, 0x00, 0x03, 0x00, 0x00, 0x00,
  0x03, 0x00, 0x00, 0x00, 0x03, 0x00, 0x00, 0x00, 0x00, 0x00, 0x00, 0x01,
  0x01, 0x00, 0x00, 0x00, 0x0b, 0x00, 0x00, 0x00, 0x01, 0x00, 0x00, 0x00,
  0x0a, 0x00, 0x00, 0x00, 0x46, 0xff, 0xff, 0xff, 0x00, 0x00, 0x00, 0x11,
  0x01, 0x00, 0x00, 0x00, 0x62, 0xd5, 0xff, 0xff, 0x10, 0x00, 0x00, 0x00,
  0x0c, 0x00, 0x00, 0x00, 0x1c, 0x00, 0x00, 0x00, 0x40, 0x00, 0x00, 0x00,
  0x04, 0x00, 0x00, 0x00, 0x01, 0x00, 0x00, 0x00, 0x15, 0x00, 0x00, 0x00,
  0x01, 0x00, 0x00, 0x00, 0x08, 0x00, 0x00, 0x00, 0x20, 0x00, 0x00, 0x00,
  0x73, 0x65, 0x71, 0x75, 0x65, 0x6e, 0x74, 0x69, 0x61, 0x6c, 0x2f, 0x6d,
  0x61, 0x78, 0x5f, 0x70, 0x6f, 0x6f, 0x6c, 0x69, 0x6e, 0x67, 0x32, 0x64,
  0x2f, 0x4d, 0x61, 0x78, 0x50, 0x6f, 0x6f, 0x6c, 0x00, 0x00, 0x00, 0x00,
  0xbc, 0xd5, 0xff, 0xff, 0x00, 0x00, 0x0e, 0x00, 0x14, 0x00, 0x00, 0x00,
  0x08, 0x00, 0x0c, 0x00, 0x07, 0x00, 0x10, 0x00, 0x0e, 0x00, 0x00, 0x00,
  0x00, 0x00, 0x00, 0x01, 0x30, 0x00, 0x00, 0x00, 0x24, 0x00, 0x00, 0x00,
  0x10, 0x00, 0x00, 0x00, 0x0c, 0x00, 0x10, 0x00, 0x00, 0x00, 0x04, 0x00,
  0x08, 0x00, 0x0f, 0x00, 0x0c, 0x00, 0x00, 0x00, 0x01, 0x00, 0x00, 0x00,
  0x01, 0x00, 0x00, 0x00, 0x00, 0x00, 0x00, 0x01, 0x01, 0x00, 0x00, 0x00,
  0x0a, 0x00, 0x00, 0x00, 0x03, 0x00, 0x00, 0x00, 0x00, 0x00, 0x00, 0x00,
  0x06, 0x00, 0x00, 0x00, 0x08, 0x00, 0x00, 0x00, 0x00, 0x00, 0x0a, 0x00,
  0x0c, 0x00, 0x07, 0x00, 0x00, 0x00, 0x08, 0x00, 0x0a, 0x00, 0x00, 0x00,
  0x00, 0x00, 0x00, 0x03, 0x01, 0x00, 0x00, 0x00, 0x26, 0xd6, 0xff, 0xff,
  0x10, 0x00, 0x00, 0x00, 0x0b, 0x00, 0x00, 0x00, 0x1c, 0x00, 0x00, 0x00,
  0x28, 0x00, 0x00, 0x00, 0x04, 0x00, 0x00, 0x00, 0x01, 0x00, 0x00, 0x00,
  0x40, 0x00, 0x00, 0x00, 0x03, 0x00, 0x00, 0x00, 0x08, 0x00, 0x00, 0x00,
  0x0b, 0x00, 0x00, 0x00, 0x74, 0x66, 0x6c, 0x2e, 0x63, 0x6f, 0x6e, 0x76,
  0x5f, 0x32, 0x64, 0x00, 0x10, 0xd6, 0xff, 0xff, 0x06, 0xd7, 0xff, 0xff,
  0x04, 0x00, 0x00, 0x00, 0x40, 0x00, 0x00, 0x00, 0xa6, 0x94, 0x86, 0x3e,
  0x5a, 0x39, 0x21, 0xbf, 0x87, 0x79, 0xa8, 0x3e, 0xea, 0x75, 0x7a, 0xbe,
  0x7a, 0xb9, 0xab, 0xbf, 0x70, 0x3b, 0x29, 0x3f, 0x4b, 0x82, 0x76, 0x3e,
  0xd7, 0x11, 0x09, 0xbe, 0x38, 0x76, 0x03, 0xbd, 0xf3, 0x6d, 0xa4, 0xbe,
  0x94, 0xa2, 0x46, 0x40, 0x77, 0x19, 0xc4, 0xbd, 0x15, 0x2d, 0xbd, 0xbe,
  0xb5, 0xcc, 0x34, 0xbf, 0xf1, 0x2b, 0x88, 0x40, 0xbd, 0x02, 0x77, 0x3d,
  0xae, 0xd6, 0xff, 0xff, 0x10, 0x00, 0x00, 0x00, 0x0a, 0x00, 0x00, 0x00,
  0x10, 0x00, 0x00, 0x00, 0x20, 0x00, 0x00, 0x00, 0x01, 0x00, 0x00, 0x00,
  0x10, 0x00, 0x00, 0x00, 0x0d, 0x00, 0x00, 0x00, 0x73, 0x74, 0x64, 0x2e,
  0x63, 0x6f, 0x6e, 0x73, 0x74, 0x61, 0x6e, 0x74, 0x31, 0x00, 0x00, 0x00,
  0x90, 0xd6, 0xff, 0xff, 0x86, 0xd7, 0xff, 0xff, 0x04, 0x00, 0x00, 0x00,
  0x20, 0x00, 0x00, 0x00, 0x64, 0xcc, 0xa0, 0xbf, 0x5b, 0xee, 0x81, 0xbe,
  0x5d, 0xb0, 0x71, 0xbf, 0xd8, 0x6e, 0x9f, 0xbe, 0x5d, 0xe0, 0x45, 0x3e,
  0x9f, 0x03, 0xa4, 0xbf, 0xca, 0x75, 0x13, 0x3f, 0xd2, 0x65, 0xe1, 0x3e,
  0x0e, 0xd7, 0xff, 0xff, 0x10, 0x00, 0x00, 0x00, 0x09, 0x00, 0x00, 0x00,
  0x10, 0x00, 0x00, 0x00, 0x20, 0x00, 0x00, 0x00, 0x01, 0x00, 0x00, 0x00,
  0x08, 0x00, 0x00, 0x00, 0x0c, 0x00, 0x00, 0x00, 0x73, 0x74, 0x64, 0x2e,
  0x63, 0x6f, 0x6e, 0x73, 0x74, 0x61, 0x6e, 0x74, 0x00, 0x00, 0x00, 0x00,
  0xf0, 0xd6, 0xff, 0xff, 0xe6, 0xd7, 0xff, 0xff, 0x04, 0x00, 0x00, 0x00,
  0x00, 0x08, 0x00, 0x00, 0xd8, 0x0c, 0x45, 0xbd, 0x53, 0x8c, 0x98, 0x3d,
  0x0e, 0x66, 0x0a, 0xbc, 0x79, 0x59, 0xf8, 0x3c, 0x0e, 0x04, 0x50, 0xbf,
  0xa7, 0xbb, 0xb1, 0x3d, 0x4b, 0xce, 0x91, 0xbd, 0xf4, 0x00, 0xdd, 0xbe,
  0xc9, 0xb9, 0x39, 0x3d, 0x63, 0x11, 0x20, 0xbe, 0x99, 0x43, 0x31, 0x3d,
  0x82, 0xc9, 0x04, 0x3f, 0x4a, 0x7f, 0x4c, 0xbf, 0xc0, 0x41, 0xaf, 0x3e,
  0xdb, 0x68, 0x5b, 0xbe, 0xc0, 0x45, 0xa3, 0xbe, 0x93, 0x7c, 0xd8, 0x3d,
  0xdb, 0x66, 0x38, 0x3c, 0x2f, 0x14, 0x02, 0xbd, 0x95, 0xfd, 0xcd, 0x3d,
  0xd2, 0x63, 0x45, 0xbf, 0x97, 0x9b, 0x5e, 0x3e, 0x6d, 0x17, 0xa1, 0xbe,
  0xfa, 0x38, 0xe2, 0xbe, 0x83, 0x32, 0x88, 0x3e, 0x51, 0xc1, 0x15, 0xbe,
  0xed, 0xfc, 0x7a, 0x3e, 0x82, 0x31, 0xc8, 0x3e, 0x49, 0x01, 0x3d, 0xbf,
  0x17, 0x65, 0xae, 0x3e, 0x62, 0x6b, 0x05, 0xbe, 0x65, 0x88, 0xb6, 0xbe,
  0x36, 0x89, 0x1e, 0xbe, 0x3b, 0xe8, 0xcc, 0x3e, 0xc7, 0xf7, 0xd5, 0xbd,
  0x00, 0xed, 0x28, 0xbe, 0xd7, 0xea, 0x8f, 0x3b, 0xf9, 0xd8, 0xfd, 0xbc,
  0x4c, 0x32, 0x04, 0xbd, 0x46, 0x6b, 0x2e, 0x3d, 0xf4, 0xb6, 0x1a, 0x3f,
  0xf0, 0x04, 0x8d, 0x3e, 0xc1, 0x59, 0xe9, 0x3c, 0xcd, 0xd1, 0xf4, 0x3d,
  0xd6, 0xf1, 0xf7, 0xbe, 0x07, 0x07, 0xa6, 0xbd, 0x53, 0x78, 0x49, 0xbe,
  0x8f, 0x9f, 0x0e, 0xbe, 0x3e, 0x2d, 0x33, 0xbd, 0xd9, 0xc5, 0x5f, 0xbe,
  0xcf, 0xc2, 0x7d, 0xbe, 0x75, 0x16, 0x30, 0x3e, 0xe3, 0xd6, 0x29, 0xbe,
  0x4e, 0xbc, 0xa3, 0x3e, 0x15, 0x8a, 0xc5, 0x3d, 0x8d, 0x87, 0x06, 0xbd,
  0xd6, 0x34, 0x0e, 0xbe, 0xae, 0x74, 0x13, 0xbd, 0x30, 0xda, 0x30, 0xbe,
  0x2c, 0xd5, 0x0f, 0xbe, 0x04, 0x6e, 0x72, 0x3b, 0xea, 0xc2, 0xa6, 0xbc,
  0x45, 0xd1, 0x4a, 0xbc, 0xf3, 0x35, 0x20, 0x3e, 0xcc, 0xe8, 0xf0, 0x3e,
  0xd1, 0xf2, 0x29, 0x3d, 0x43, 0xf9, 0x40, 0x3e, 0x69, 0x86, 0x07, 0x3f,
  0xc4, 0xe1, 0x37, 0xbe, 0xa1, 0x5d, 0x0b, 0x3e, 0xb6, 0xed, 0x43, 0xbe,
  0x56, 0x43, 0xb3, 0xbc, 0x02, 0x1d, 0x09, 0x3e, 0x15, 0x15, 0xd7, 0x3d,
  0x69, 0xe4, 0x56, 0x3d, 0x5c, 0xb2, 0x12, 0xbd, 0xc1, 0xc5, 0xe1, 0xbb,
  0x02, 0x34, 0xaf, 0x3e, 0xb1, 0x73, 0x06, 0x3f, 0x93, 0x6f, 0x78, 0x3d,
  0xb4, 0x6a, 0x1d, 0x3d, 0x39, 0xfa, 0x0f, 0xbe, 0xe2, 0x71, 0x43, 0x3d,
  0x7c, 0xf3, 0xc3, 0x3b, 0x91, 0x31, 0x31, 0xbc, 0xa3, 0xa3, 0x9b, 0x3e,
  0x02, 0x21, 0x03, 0xbe, 0xce, 0x65, 0x95, 0x3d, 0xde, 0xe8, 0x8e, 0xbe,
  0x63, 0xbf, 0x81, 0xbc, 0x6d, 0x7c, 0xce, 0xbd, 0x6c, 0xb9, 0x55, 0xbe,
  0xf1, 0xe7, 0x4b, 0xbd, 0x64, 0xa1, 0x9f, 0xbd, 0x7e, 0xb6, 0x49, 0xbe,
  0x6d, 0xdb, 0x5c, 0xbd, 0xc5, 0x4e, 0xb7, 0x3e, 0xa7, 0x59, 0x1d, 0xbe,
  0x84, 0xd0, 0x51, 0x3e, 0xd9, 0x54, 0xb8, 0x3e, 0xbe, 0xf0, 0xca, 0xbd,
  0x18, 0x20, 0x1a, 0x3f, 0x5d, 0xcb, 0x60, 0x3e, 0x88, 0x23, 0x62, 0x3c,
  0xef, 0x19, 0xca, 0xbd, 0x95, 0x59, 0x8b, 0xbe, 0x38, 0xdd, 0x90, 0xbe,
  0x31, 0x57, 0xc6, 0x3d, 0xb9, 0x3d, 0xe4, 0xbd, 0xb5, 0xb6, 0x9a, 0xbe,
  0x73, 0xb4, 0xeb, 0xbd, 0x96, 0x89, 0x92, 0x3c, 0xfa, 0x26, 0x3d, 0xbe,
  0xe0, 0x77, 0x2c, 0x3e, 0xc5, 0xdc, 0x59, 0xbe, 0x49, 0xc4, 0x9f, 0xbd,
  0xfd, 0x96, 0x0c, 0x3e, 0xc7, 0xef, 0x7c, 0xbe, 0x54, 0xca, 0x30, 0x3e,
  0x73, 0xff, 0x1b, 0xbd, 0x3b, 0x50, 0x8a, 0xbe, 0x69, 0xff, 0x04, 0xbe,
  0xa7, 0xc9, 0x25, 0xbd, 0xfc, 0x24, 0x43, 0x3d, 0xf2, 0xc2, 0x36, 0x3d,
  0x8b, 0x33, 0x95, 0xbc, 0xc7, 0xb1, 0x47, 0xbe, 0xc1, 0x48, 0x14, 0xbe,
  0xc5, 0x8e, 0x6f, 0x3e, 0xa3, 0xc1, 0x37, 0x3e, 0x32, 0xa2, 0x0c, 0xbe,
  0x2d, 0x04, 0x94, 0xbd, 0x8d, 0x69, 0x0a, 0xbf, 0xb8, 0x2d, 0x17, 0x3e,
  0x4a, 0xfd, 0xb2, 0xbe, 0xcd, 0xdc, 0x05, 0xbf, 0x5b, 0x89, 0x8b, 0x3e,
  0xaa, 0x47, 0x8d, 0x3d, 0xb4, 0x53, 0xe1, 0x3e, 0x52, 0xb1, 0xfd, 0x3e,
  0x4b, 0xb0, 0x5e, 0xbf, 0x16, 0x5d, 0xf9, 0x3d, 0xd3, 0xdf, 0x5f, 0xbe,
  0x95, 0x0a, 0xb4, 0xbe, 0x93, 0x37, 0x0e, 0x3c, 0xad, 0xe0, 0x4f, 0x3d,
  0x7c, 0x55, 0x17, 0x3d, 0x76, 0x1b, 0x54, 0x3e, 0x98, 0x2e, 0x47, 0xbe,
  0x76, 0xaa, 0x00, 0x3e, 0xe7, 0xc9, 0x3d, 0xbe, 0x40, 0xaf, 0x94, 0xbe,
  0x71, 0x9c, 0x00, 0xbe, 0xb9, 0x12, 0xa7, 0xbd, 0xf0, 0x80, 0x3b, 0x3e,
  0x66, 0x04, 0x9b, 0xbd, 0x18, 0x0c, 0x29, 0xbe, 0xff, 0x7d, 0x02, 0x3e,
  0x68, 0x5b, 0x0a, 0xbe, 0x03, 0xb6, 0xb3, 0xbe, 0x67, 0x08, 0x8d, 0xbe,
  0x66, 0x6d, 0x79, 0xbe, 0xfb, 0xd9, 0x72, 0xbe, 0xbc, 0x94, 0x72, 0xbe,
  0x22, 0x80, 0x19, 0xbe, 0x4e, 0x35, 0xaf, 0xbe, 0x0c, 0x21, 0xe8, 0xbc,
  0x71, 0xa5, 0x84, 0x3e, 0xe8, 0x6f, 0x9d, 0x3c, 0x0d, 0x76, 0x11, 0x3e,
  0x1a, 0xcf, 0x1c, 0xbe, 0x31, 0xb4, 0xa0, 0x3d, 0x48, 0x4f, 0xbf, 0x3a,
  0x97, 0x97, 0x2d, 0x3e, 0x9f, 0x23, 0x37, 0xbe, 0x99, 0xfd, 0x17, 0xbe,
  0x95, 0x65, 0xc6, 0xba, 0xdd, 0xbc, 0x40, 0xbc, 0xbd, 0xc9, 0x6a, 0xbd,
  0x9b, 0xb7, 0x15, 0xbe, 0x6f, 0xea, 0xbf, 0xbe, 0xa0, 0x6a, 0x01, 0xbe,
  0xca, 0x99, 0x59, 0xbe, 0x27, 0x9e, 0x59, 0xbe, 0xd4, 0x5c, 0x87, 0x3e,
  0x32, 0x52, 0x9a, 0xbd, 0xa3, 0xde, 0x93, 0x3e, 0xdf, 0xe6, 0x79, 0x3e,
  0x92, 0x0a, 0x59, 0xbe, 0xff, 0x4c, 0x51, 0x3d, 0x03, 0xff, 0xfd, 0xbd,
  0xf5, 0xe1, 0x95, 0xbc, 0x7d, 0x94, 0x5d, 0x3d, 0x06, 0xc8, 0xa4, 0x3c,
  0xe4, 0xe5, 0x87, 0x3d, 0x59, 0x40, 0x37, 0xbd, 0x69, 0xdd, 0x5a, 0xbd,
  0xf5, 0xe5, 0xcb, 0xbd, 0x89, 0x7d, 0x2f, 0x3d, 0xf0, 0xdf, 0x3f, 0x3e,
  0xbe, 0x26, 0x25, 0x3d, 0x15, 0x47, 0x10, 0xbb, 0x03, 0x34, 0x3d, 0xbe,
  0x8c, 0xdc, 0xc1, 0xbd, 0x56, 0x43, 0xe1, 0xbd, 0x05, 0x33, 0x19, 0xbe,
  0x00, 0x0f, 0xec, 0x3c, 0x24, 0x04, 0x6e, 0x3e, 0x8d, 0x87, 0x0e, 0xbe,
  0x57, 0x7d, 0x61, 0x3d, 0xaf, 0x8a, 0x15, 0xbd, 0xa9, 0x1d, 0x25, 0x3e,
  0x76, 0xd9, 0xcf, 0xbd, 0xf8, 0x10, 0x85, 0xbd, 0xcf, 0x3e, 0x76, 0xbd,
  0xa7, 0x5c, 0x84, 0x3d, 0x3e, 0x91, 0x05, 0xbe, 0xc1, 0x46, 0xa8, 0xbd,
  0x1b, 0x9e, 0xf7, 0x3c, 0x01, 0x8e, 0x55, 0x3e, 0x6b, 0xfe, 0xde, 0xbd,
  0x61, 0x58, 0xe1, 0xbd, 0x56, 0x1a, 0x04, 0xbd, 0x82, 0xc9, 0x2d, 0x3e,
  0xc5, 0x3a, 0x0a, 0xbe, 0x95, 0x63, 0xb0, 0x3d, 0x7d, 0xb9, 0x5f, 0xbe,
  0xa9, 0x87, 0x4c, 0x3d, 0x0d, 0x0a, 0xfe, 0xbc, 0x80, 0xe4, 0xeb, 0xbc,
  0x12, 0x61, 0x33, 0xbe, 0xf2, 0xf5, 0xcd, 0xbc, 0x75, 0x3a, 0x0f, 0xbe,
  0x6a, 0xe1, 0x22, 0xbe, 0xf5, 0xd1, 0x32, 0xbe, 0x3a, 0x4c, 0xf8, 0xbd,
  0xce, 0xa5, 0xad, 0xbd, 0x9c, 0x4e, 0x7a, 0xbd, 0x0f, 0xcf, 0x12, 0xbe,
  0xec, 0x12, 0xd6, 0xbd, 0x07, 0x46, 0xe5, 0x3d, 0x78, 0x7d, 0x8f, 0xbe,
  0xaa, 0x29, 0x8f, 0xbe, 0x0b, 0x4b, 0xef, 0xbd, 0x69, 0x27, 0x3d, 0xbe,
  0x74, 0xe6, 0xda, 0xbd, 0xb0, 0xc6, 0xd1, 0xbd, 0x51, 0x71, 0xbf, 0xbd,
  0xa0, 0x41, 0xa4, 0x3d, 0x19, 0x89, 0x41, 0x3e, 0x35, 0xf7, 0x4b, 0xbe,
  0xd3, 0x0a, 0x89, 0x3e, 0xbb, 0x6a, 0xdf, 0x3d, 0xb1, 0x0a, 0xc1, 0xbc,
  0x36, 0xe9, 0xf0, 0x3d, 0xd6, 0x08, 0x7a, 0x3c, 0x42, 0xff, 0xe6, 0x3c,
  0x9a, 0xb5, 0x00, 0x3e, 0x36, 0x68, 0xa2, 0x3c, 0xdc, 0x75, 0x6a, 0x3e,
  0xe2, 0x11, 0x00, 0x3d, 0xad, 0x20, 0xc0, 0x3e, 0xb6, 0xe6, 0x3f, 0x3d,
  0xdb, 0x4f, 0x02, 0x3e, 0x88, 0x3c, 0xfa, 0x3d, 0xb5, 0x14, 0x73, 0x3e,
  0x03, 0x8d, 0xfd, 0x3d, 0xf8, 0x96, 0xad, 0xbe, 0x96, 0x0c, 0x97, 0x3d,
  0xcf, 0x7b, 0x6b, 0xbe, 0xd6, 0x19, 0x05, 0xbe, 0x4e, 0xca, 0x3d, 0xbe,
  0x99, 0x4d, 0xc9, 0x3d, 0x20, 0xa8, 0x9b, 0x3d, 0x48, 0x56, 0xd3, 0xbd,
  0x92, 0x5b, 0x17, 0xbb, 0xac, 0x27, 0x21, 0xbd, 0x3a, 0x3f, 0x0c, 0x3c,
  0x61, 0xd3, 0x60, 0xbe, 0x0f, 0x58, 0xca, 0xbd, 0xb7, 0x17, 0x45, 0xbd,
  0x38, 0x76, 0xf7, 0xbc, 0x67, 0x5b, 0xa0, 0x3c, 0x0d, 0x7c, 0x82, 0x3e,
  0x14, 0x28, 0x12, 0xbe, 0x32, 0xce, 0x25, 0x3d, 0xdf, 0xbf, 0x8e, 0xbe,
  0x14, 0x8a, 0x58, 0xbc, 0x96, 0x76, 0xb4, 0xbe, 0x19, 0x94, 0x20, 0xbe,
  0x15, 0xb9, 0x10, 0xbe, 0x13, 0x6e, 0x3c, 0xbf, 0x54, 0x00, 0x96, 0x3e,
  0xde, 0x08, 0x32, 0xbf, 0x7c, 0xf6, 0x8a, 0x39, 0x2f, 0x4c, 0x4b, 0xbe,
  0xa3, 0xe2, 0x12, 0xbf, 0x72, 0x62, 0x03, 0x3e, 0x53, 0x8d, 0x28, 0x3d,
  0x32, 0xd7, 0x60, 0xbf, 0xee, 0xa4, 0x98, 0x3e, 0xb1, 0x29, 0x6c, 0xbf,
  0x25, 0x9a, 0xf7, 0x3c, 0x09, 0xe9, 0x5f, 0xbe, 0x3f, 0x05, 0xd2, 0xbd,
  0x59, 0x8d, 0xf6, 0x3d, 0xac, 0xe2, 0x97, 0x3c, 0x7c, 0x98, 0x3e, 0xbf,
  0x11, 0x1b, 0xb7, 0xbe, 0x1e, 0x07, 0xff, 0xbe, 0xc4, 0xdb, 0xdf, 0x3b,
  0xe6, 0x40, 0x70, 0x3d, 0x42, 0xe4, 0xd9, 0xbd, 0x6f, 0x67, 0x7a, 0xbe,
  0x89, 0x60, 0xde, 0xbd, 0x02, 0x00, 0x2c, 0xbf, 0x0c, 0x68, 0xc6, 0xbe,
  0xef, 0x4d, 0xc0, 0xbd, 0x76, 0x0e, 0x84, 0xbd, 0x62, 0x0a, 0xb4, 0xbe,
  0x96, 0xe5, 0x32, 0xbd, 0xd8, 0x50, 0xc8, 0xbc, 0xa9, 0x17, 0x17, 0xbe,
  0x9a, 0x1d, 0x51, 0x3d, 0xa2, 0xea, 0x2d, 0x3d, 0xde, 0x2d, 0x40, 0xbe,
  0xc7, 0x33, 0x7c, 0xbd, 0xea, 0xce, 0xeb, 0x3d, 0xec, 0xf0, 0xc0, 0x3e,
  0xc5, 0x98, 0x6d, 0xbb, 0x16, 0x1a, 0x47, 0x3d, 0xa9, 0x34, 0x89, 0x3e,
  0xa0, 0x94, 0x9f, 0xbd, 0xcd, 0x8a, 0xe9, 0xbd, 0x9b, 0x78, 0xdb, 0xbd,
  0x17, 0x89, 0x36, 0xbe, 0x4e, 0x9a, 0x05, 0xbd, 0x8e, 0x05, 0x26, 0xbe,
  0xfd, 0x7b, 0x58, 0xbe, 0xa8, 0x50, 0xcb, 0x3d, 0x9e, 0xe4, 0xa4, 0xbd,
  0x04, 0x88, 0x82, 0xbe, 0x46, 0x4d, 0xa9, 0xbd, 0xcd, 0x93, 0xc3, 0xbe,
  0x98, 0x6d, 0x30, 0xbe, 0x42, 0x4c, 0x01, 0xbe, 0x24, 0xf8, 0x19, 0xbe,
  0x2f, 0x2b, 0x25, 0x3e, 0x6d, 0x51, 0x19, 0x3e, 0xed, 0x72, 0x24, 0xbe,
  0x5d, 0x44, 0x9e, 0x3e, 0x28, 0x81, 0x08, 0xbe, 0x0f, 0xbc, 0x42, 0x3e,
  0x1d, 0xcc, 0x5a, 0x3e, 0x18, 0xb5, 0x37, 0xbe, 0x2f, 0xa7, 0x15, 0x3d,
  0x27, 0x04, 0xe0, 0x3d, 0xee, 0x8c, 0xad, 0x3e, 0x85, 0x67, 0xa8, 0x3e,
  0xa5, 0xd2, 0x03, 0x3e, 0xeb, 0xfa, 0x73, 0xbe, 0x8e, 0x09, 0xaf, 0xbe,
  0xd0, 0x7b, 0x56, 0xbe, 0xce, 0x43, 0x94, 0xbd, 0x45, 0x7a, 0xa2, 0x3d,
  0xee, 0x0a, 0x26, 0xbe, 0x48, 0x9f, 0x33, 0x3d, 0x6d, 0x6e, 0xc5, 0xbe,
  0x4d, 0x53, 0x57, 0xbd, 0x1a, 0x8f, 0xe4, 0xbc, 0xe4, 0xef, 0x09, 0xbe,
  0xe2, 0x28, 0x0a, 0x3e, 0x74, 0x15, 0x31, 0x3d, 0x23, 0x69, 0x68, 0x3e,
  0xae, 0x9c, 0xdc, 0x3d, 0xba, 0x37, 0xcd, 0xbe, 0x3e, 0x2c, 0xf8, 0x3d,
  0x2b, 0xb9, 0xf4, 0x3c, 0x03, 0x8d, 0x28, 0xbe, 0x8b, 0x70, 0x3b, 0x3e,
  0xd5, 0xba, 0xac, 0x3b, 0x89, 0x7c, 0x17, 0xbe, 0x99, 0x6a, 0xc0, 0x3d,
  0x3b, 0x03, 0xc5, 0xbe, 0x65, 0x33, 0x87, 0x3d, 0xff, 0x6a, 0x9c, 0x3d,
  0x2f, 0x68, 0xa8, 0x3d, 0x76, 0x1b, 0x62, 0x3d, 0xff, 0x00, 0x54, 0x3e,
  0xe7, 0xa7, 0x0c, 0xbe, 0xd9, 0x81, 0x91, 0xbe, 0x98, 0xe7, 0x5f, 0xbe,
  0x69, 0xb5, 0x50, 0x3e, 0x93, 0x7b, 0xa6, 0xbd, 0xcb, 0xc0, 0x7c, 0x3e,
  0x86, 0xef, 0xc3, 0x3e, 0xff, 0xb1, 0xa5, 0xbc, 0x3f, 0x41, 0x2a, 0x3f,
  0xdf, 0x4e, 0x11, 0xbe, 0xbd, 0x96, 0x40, 0xbe, 0x1d, 0x85, 0x0f, 0xbe,
  0xc8, 0x43, 0xec, 0x3d, 0xfa, 0xfd, 0x74, 0xbd, 0xbd, 0x73, 0x00, 0xbe,
  0x77, 0x62, 0x6f, 0x3e, 0x96, 0x67, 0x20, 0xbc, 0x11, 0x04, 0x0c, 0x3e,
  0xb4, 0xa4, 0xa8, 0xbd, 0x2c, 0xc5, 0x2a, 0xbe, 0x21, 0x22, 0xd7, 0xbe,
  0xf6, 0xcd, 0x59, 0xbe, 0x4f, 0x81, 0x84, 0xbe, 0xe7, 0x16, 0xce, 0xbd,
  0x25, 0x40, 0x84, 0xbe, 0x45, 0x77, 0x6f, 0xbe, 0xb1, 0x09, 0x69, 0xbe,
  0xf6, 0xa8, 0x4e, 0xbe, 0x5e, 0xc6, 0x29, 0x3d, 0x6d, 0xa9, 0xff, 0x3d,
  0xd5, 0x0d, 0x64, 0xbe, 0x87, 0xfd, 0x96, 0xbe, 0xc6, 0x3a, 0x30, 0xbe,
  0x87, 0x5b, 0x98, 0xbe, 0xda, 0xee, 0xd5, 0xbe, 0x4e, 0x28, 0xb9, 0x3e,
  0xb5, 0x46, 0xcc, 0xbd, 0xa3, 0x09, 0x09, 0x3e, 0xc5, 0x62, 0xbf, 0xbd,
  0x76, 0xa2, 0x16, 0xbf, 0xfd, 0x57, 0xc5, 0x3e, 0x8d, 0x77, 0xbd, 0xbd,
  0x9c, 0xf1, 0x67, 0xbd, 0x21, 0x77, 0x30, 0xbe, 0x33, 0xfe, 0xae, 0xbe,
  0xd5, 0xa5, 0xed, 0xbd, 0xf5, 0x19, 0x9d, 0x3e, 0xbd, 0xe4, 0xb5, 0xbd,
  0x12, 0x16, 0xb2, 0x3e, 0x9d, 0x28, 0xc8, 0xbd, 0x80, 0x8b, 0x18, 0xba,
  0xf0, 0xaa, 0x90, 0xbe, 0x47, 0x0b, 0x9f, 0xbe, 0x78, 0xe0, 0xa5, 0xbd,
  0xcc, 0x3d, 0x87, 0xbd, 0x4b, 0x29, 0x06, 0x3d, 0x05, 0xe1, 0xa0, 0xbe,
  0x81, 0xb8, 0x7c, 0x3d, 0x9f, 0xd2, 0x48, 0x3d, 0x24, 0xb1, 0x97, 0xbe,
  0x36, 0x57, 0x0b, 0xbd, 0x2f, 0x2e, 0xc4, 0xbe, 0xa8, 0x39, 0x88, 0xbe,
  0xc0, 0x96, 0x60, 0xbd, 0x46, 0xb1, 0x99, 0xbd, 0xa6, 0xd5, 0x13, 0x3e,
  0x70, 0x14, 0x09, 0xbe, 0x55, 0xfd, 0xba, 0xbd, 0x91, 0x86, 0xa6, 0xbe,
  0x00, 0xd5, 0xe5, 0xbe, 0x69, 0x33, 0x62, 0xbe, 0x23, 0x8f, 0xbd, 0xbd,
  0x79, 0x2d, 0x85, 0xbe, 0x9d, 0x5d, 0x15, 0xbb, 0x7b, 0xa2, 0x8c, 0x3c,
  0xaa, 0xd2, 0xb8, 0xbe, 0x46, 0xa8, 0x9f, 0xbe, 0xa7, 0xd9, 0x73, 0xbb,
  0x66, 0x9d, 0xf4, 0x3c, 0x53, 0xcf, 0x29, 0xbe, 0xee, 0x2b, 0xa2, 0xbd,
  0xff, 0x5d, 0x9c, 0xbc, 0xae, 0x24, 0x06, 0x3e, 0x54, 0x58, 0xe9, 0xbd,
  0xe4, 0xaa, 0x63, 0xbe, 0x64, 0xff, 0x93, 0xbe, 0xbc, 0xee, 0x15, 0x3d,
  0x27, 0x4c, 0x52, 0xbd, 0x62, 0xd1, 0xab, 0xbe, 0x6b, 0x39, 0xcf, 0x3d,
  0xa9, 0x8b, 0xbe, 0xbd, 0x08, 0x55, 0xde, 0xbc, 0x55, 0x16, 0x54, 0x3e,
  0x96, 0x65, 0xb6, 0xbe, 0x9e, 0x74, 0x85, 0x3d, 0xba, 0x4d, 0x7c, 0xbc,
  0x52, 0x67, 0xb4, 0xbb, 0x15, 0x48, 0xb5, 0x3d, 0xbd, 0xae, 0x55, 0x3e,
  0xed, 0x42, 0xec, 0x3b, 0x31, 0x97, 0x3d, 0xbe, 0xad, 0x44, 0xc9, 0xbe,
  0x5c, 0x47, 0x85, 0x3d, 0xea, 0x57, 0x09, 0x3d, 0x24, 0x6f, 0xf3, 0x3d,
  0xbb, 0x8c, 0x47, 0x3e, 0x66, 0xf4, 0xc8, 0x3c, 0xc0, 0xf9, 0xad, 0x3d,
  0x41, 0x48, 0x02, 0x3e, 0xd7, 0x18, 0xc7, 0xbe, 0xe8, 0x9d, 0x43, 0x3e,
  0xb2, 0x56, 0x0a, 0xbe, 0x0d, 0xe4, 0x3e, 0x3d, 0xf3, 0x1b, 0xb1, 0xbc,
  0x7a, 0xb2, 0x46, 0x3e, 0x80, 0x36, 0x91, 0xbd, 0xc5, 0x16, 0x8b, 0x3d,
  0x2b, 0x4b, 0x44, 0xbe, 0x8c, 0x3f, 0x83, 0x3e, 0xc6, 0xdf, 0xf7, 0x3d,
  0xce, 0x5d, 0x80, 0x3e, 0x2f, 0x2e, 0x05, 0x3e, 0xc3, 0x39, 0xbd, 0xbe,
  0x4e, 0xdf, 0xff, 0xff, 0x10, 0x00, 0x00, 0x00, 0x08, 0x00, 0x00, 0x00,
  0x1c, 0x00, 0x00, 0x00, 0x38, 0x00, 0x00, 0x00, 0x04, 0x00, 0x00, 0x00,
  0x10, 0x00, 0x00, 0x00, 0x04, 0x00, 0x00, 0x00, 0x01, 0x00, 0x00, 0x00,
  0x08, 0x00, 0x00, 0x00, 0x1a, 0x00, 0x00, 0x00, 0x73, 0x65, 0x71, 0x75,
  0x65, 0x6e, 0x74, 0x69, 0x61, 0x6c, 0x2f, 0x63, 0x6f, 0x6e, 0x76, 0x32,
  0x64, 0x5f, 0x31, 0x2f, 0x43, 0x6f, 0x6e, 0x76, 0x32, 0x44, 0x00, 0x00,
  0x48, 0xdf, 0xff, 0xff, 0x3e, 0xe0, 0xff, 0xff, 0x04, 0x00, 0x00, 0x00,
  0x80, 0x01, 0x00, 0x00, 0x99, 0xa2, 0x4b, 0xbd, 0x07, 0xbe, 0xb4, 0xbc,
  0xe2, 0x89, 0x0a, 0xbe, 0xb7, 0x34, 0x6d, 0xbd, 0x31, 0x1a, 0xc2, 0x3d,
  0x3f, 0xe3, 0xba, 0x3e, 0xba, 0xde, 0xf8, 0x3d, 0x6f, 0x4c, 0x15, 0xbd,
  0xfc, 0xc0, 0x74, 0x3e, 0xba, 0x3e, 0x8f, 0x3d, 0x00, 0xd2, 0x43, 0xbc,
  0x49, 0x0d, 0xb3, 0xbe, 0x99, 0x3a, 0x58, 0xbe, 0xf2, 0xaf, 0xb2, 0xbd,
  0xb7, 0xe6, 0xbd, 0xbb, 0x43, 0x6d, 0x77, 0x3e, 0x92, 0x38, 0xa8, 0x3c,
  0x38, 0xbb, 0x26, 0xbe, 0xac, 0x38, 0xaf, 0xbe, 0x8d, 0x1a, 0xd0, 0xbd,
  0x7f, 0x5d, 0xfc, 0x3d, 0xa0, 0x37, 0xc8, 0x3e, 0x94, 0x92, 0x42, 0x3e,
  0xf8, 0x75, 0x0c, 0x3d, 0x03, 0x19, 0x0b, 0xbe, 0x68, 0xe8, 0x3f, 0xbe,
  0xfe, 0x1a, 0x32, 0xbe, 0xc0, 0x79, 0xbf, 0xbd, 0xe6, 0xbc, 0x75, 0x3d,
  0x1d, 0xd9, 0xae, 0x3e, 0x69, 0x34, 0x3a, 0xbd, 0x70, 0xe9, 0xa1, 0x3d,
  0x17, 0x9e, 0xa2, 0x3e, 0x42, 0xf4, 0x04, 0xbe, 0x51, 0xf6, 0xf3, 0xbd,
  0x8c, 0x51, 0x11, 0x3e, 0xa0, 0x12, 0xfb, 0xbd, 0x95, 0xe6, 0x1e, 0x3f,
  0xdc, 0x2a, 0x66, 0xbd, 0x34, 0xa3, 0x3a, 0xbe, 0x09, 0xae, 0xb7, 0x3e,
  0x99, 0x9b, 0x84, 0x3d, 0x6d, 0xe5, 0x07, 0xbd, 0x6e, 0x76, 0x24, 0xbe,
  0x2b, 0xd9, 0xc9, 0xbd, 0x70, 0x2f, 0x2f, 0x3d, 0xd8, 0xc5, 0xae, 0xbe,
  0x2e, 0xd2, 0x6a, 0x3d, 0xb6, 0x9f, 0x6b, 0x3d, 0x7b, 0xbb, 0x79, 0xbe,
  0x30, 0x68, 0xd1, 0xbc, 0x2c, 0xb3, 0x5b, 0x3d, 0xae, 0x07, 0x40, 0xbe,
  0x9d, 0x13, 0x8b, 0xbe, 0x0c, 0x3c, 0xf4, 0x3e, 0xac, 0xeb, 0x6c, 0xbe,
  0xec, 0x19, 0xe0, 0x3d, 0x33, 0x0c, 0xcb, 0x3e, 0x17, 0x2c, 0x2f, 0x3e,
  0x27, 0xfd, 0xa1, 0x3c, 0x30, 0x62, 0xb7, 0xbb, 0x26, 0x20, 0xf2, 0x3e,
  0x2e, 0x1d, 0xd0, 0x3d, 0x9c, 0x69, 0x1b, 0x3d, 0x7e, 0x75, 0xd8, 0x3e,
  0xa3, 0xad, 0x51, 0xbe, 0xd2, 0x74, 0x06, 0xbd, 0x28, 0x42, 0x2b, 0xbd,
  0xc2, 0xe0, 0xe4, 0xbb, 0xf3, 0xfc, 0xae, 0xbc, 0xfa, 0xa2, 0x09, 0xbf,
  0x1d, 0xc6, 0xa5, 0x3d, 0xc0, 0x10, 0x3c, 0x3e, 0x4f, 0x3e, 0x6d, 0x3e,
  0xbb, 0x57, 0xa3, 0xbd, 0x2e, 0xf9, 0xe5, 0x3e, 0xd7, 0x80, 0xa6, 0xbe,
  0xc0, 0x5d, 0xe0, 0x3b, 0x9a, 0xbb, 0xe5, 0x3d, 0xef, 0x54, 0x07, 0xbe,
  0x3b, 0x42, 0x30, 0x3d, 0x8b, 0x4e, 0xa9, 0x3e, 0xd6, 0x7e, 0xcb, 0x3d,
  0x24, 0x1f, 0xe3, 0xbc, 0xf1, 0xa4, 0xf4, 0xbe, 0xcc, 0x5d, 0x69, 0xbd,
  0x92, 0x45, 0x3a, 0x3e, 0x14, 0xe8, 0xf7, 0xbe, 0x9b, 0x08, 0xd7, 0x3c,
  0x0b, 0xef, 0x16, 0xbe, 0x7b, 0x35, 0xb8, 0xbc, 0x96, 0xb6, 0x71, 0x3d,
  0xe6, 0x07, 0x3b, 0xbe, 0x92, 0x67, 0xe4, 0xbe, 0xee, 0x4b, 0x80, 0xbd,
  0xf5, 0x8e, 0x44, 0x3e, 0x26, 0xe1, 0xff, 0xff, 0x10, 0x00, 0x00, 0x00,
  0x07, 0x00, 0x00, 0x00, 0x1c, 0x00, 0x00, 0x00, 0x38, 0x00, 0x00, 0x00,
  0x04, 0x00, 0x00, 0x00, 0x08, 0x00, 0x00, 0x00, 0x04, 0x00, 0x00, 0x00,
  0x03, 0x00, 0x00, 0x00, 0x01, 0x00, 0x00, 0x00, 0x18, 0x00, 0x00, 0x00,
  0x73, 0x65, 0x71, 0x75, 0x65, 0x6e, 0x74, 0x69, 0x61, 0x6c, 0x2f, 0x63,
  0x6f, 0x6e, 0x76, 0x32, 0x64, 0x2f, 0x43, 0x6f, 0x6e, 0x76, 0x32, 0x44,
  0x00, 0x00, 0x00, 0x00, 0x20, 0xe1, 0xff, 0xff, 0x16, 0xe2, 0xff, 0xff,
  0x04, 0x00, 0x00, 0x00, 0x80, 0x00, 0x00, 0x00, 0x76, 0x99, 0x4f, 0xbe,
  0x08, 0x32, 0xb0, 0x3e, 0xa6, 0xd5, 0xce, 0x3e, 0x59, 0xb6, 0x0c, 0x3f,
  0x13, 0x2e, 0x41, 0xbe, 0x63, 0x5d, 0x93, 0x3e, 0x98, 0xcb, 0x43, 0xbe,
  0x46, 0x6e, 0xdc, 0xbe, 0xba, 0xa0, 0x9e, 0x3d, 0xaa, 0x8e, 0x33, 0xbd,
  0xd0, 0xd1, 0x0b, 0xbe, 0xe3, 0xd0, 0x73, 0x3e, 0xe9, 0xb1, 0x8f, 0x3e,
  0x64, 0xb9, 0x08, 0xbf, 0x5d, 0x82, 0x43, 0xbe, 0x1e, 0x99, 0x92, 0x3e,
  0xd1, 0x65, 0x08, 0xbf, 0x43, 0x34, 0x8d, 0x3e, 0x08, 0xef, 0xf4, 0xbd,
  0x5b, 0xc8, 0xe2, 0xbe, 0x82, 0x9d, 0x76, 0xbe, 0x4d, 0x25, 0x92, 0x3d,
  0x3b, 0x96, 0xd6, 0x3e, 0x3b, 0xef, 0xcb, 0xbe, 0xbb, 0x4d, 0x33, 0x3e,
  0xff, 0x2b, 0x53, 0xbe, 0xa8, 0xb7, 0xc4, 0xbd, 0x8b, 0x65, 0x11, 0x3e,
  0x40, 0xa0, 0x0b, 0xbe, 0x8b, 0xf5, 0x03, 0xbf, 0xfa, 0x0b, 0x03, 0xbe,
  0x41, 0x88, 0x9a, 0x3e, 0xfe, 0xe1, 0xff, 0xff, 0x10, 0x00, 0x00, 0x00,
  0x06, 0x00, 0x00, 0x00, 0x14, 0x00, 0x00, 0x00, 0x30, 0x00, 0x00, 0x00,
  0x02, 0x00, 0x00, 0x00, 0x02, 0x00, 0x00, 0x00, 0x10, 0x00, 0x00, 0x00,
  0x19, 0x00, 0x00, 0x00, 0x73, 0x65, 0x71, 0x75, 0x65, 0x6e, 0x74, 0x69,
  0x61, 0x6c, 0x2f, 0x64, 0x65, 0x6e, 0x73, 0x65, 0x5f, 0x31, 0x2f, 0x4d,
  0x61, 0x74, 0x4d, 0x75, 0x6c, 0x00, 0x00, 0x00, 0xf0, 0xe1, 0xff, 0xff,
  0xe6, 0xe2, 0xff, 0xff, 0x04, 0x00, 0x00, 0x00, 0x00, 0x1c, 0x00, 0x00,
  0x9b, 0x36, 0x03, 0x3d, 0x5a, 0x69, 0xee, 0xbd, 0x60, 0x25, 0x37, 0xbe,
  0x3d, 0x13, 0xc6, 0xbd, 0xc3, 0xec, 0xc1, 0x3d, 0x8a, 0x26, 0xff, 0xbc,
  0x22, 0x6a, 0x83, 0xbe, 0x12, 0xfa, 0x52, 0x3e, 0x8c, 0xa7, 0x8e, 0xbe,
  0x12, 0x15, 0xdb, 0x3d, 0x39, 0x34, 0x60, 0x3e, 0x8d, 0x91, 0xa6, 0xbc,
  0x48, 0xbc, 0x55, 0xbe, 0xdf, 0x9d, 0x62, 0xbd, 0x16, 0xa9, 0x6d, 0x3f,
  0x56, 0xbd, 0x05, 0xbe, 0x7a, 0x70, 0x89, 0xbe, 0x58, 0x0e, 0xac, 0x3d,
  0xee, 0xe5, 0x06, 0xbd, 0x5c, 0xb6, 0x4c, 0xbe, 0xfd, 0xb1, 0x90, 0xbe,
  0x6d, 0x98, 0xdf, 0xbd, 0x34, 0x2c, 0x17, 0xbe, 0xe2, 0xba, 0x44, 0x3e,
  0xe8, 0xa9, 0x1d, 0xbe, 0x35, 0x70, 0x3e, 0xbe, 0x99, 0xe5, 0x2b, 0x3e,
  0xbe, 0x98, 0xbb, 0x3c, 0x48, 0x32, 0x60, 0xbd, 0x27, 0x48, 0xf6, 0x3d,
  0xeb, 0x02, 0x50, 0x3f, 0x98, 0xd2, 0x11, 0xbd, 0x89, 0x5a, 0xa5, 0x3b,
  0x78, 0x58, 0x51, 0x3e, 0x79, 0x58, 0x82, 0xbe, 0x3a, 0xe3, 0x4b, 0xbe,
  0xae, 0xf7, 0x85, 0xbd, 0x7b, 0x78, 0xb0, 0x3d, 0x55, 0x17, 0xdb, 0x3d,
  0x5e, 0x7f, 0x2a, 0xbe, 0xd9, 0x48, 0xf6, 0xbd, 0x0b, 0xbe, 0x2d, 0xbe,
  0x34, 0x51, 0x89, 0x3e, 0x50, 0x38, 0x26, 0xbe, 0x32, 0x57, 0xae, 0xbd,
  0x25, 0xe6, 0x4c, 0x3d, 0x25, 0xb3, 0x27, 0x3f, 0xa3, 0x93, 0xc8, 0xbc,
  0x3a, 0x12, 0x62, 0x3d, 0xb7, 0x87, 0xbf, 0x3c, 0x46, 0x3d, 0x67, 0xbe,
  0x1a, 0x63, 0x94, 0xbe, 0x90, 0xfa, 0xd2, 0x3b, 0xdc, 0xe1, 0x05, 0x3c,
  0x4d, 0xc8, 0xe3, 0x3c, 0x65, 0x66, 0x1c, 0xbe, 0x0a, 0xca, 0x71, 0xbe,
  0xff, 0xe8, 0xe9, 0x3c, 0xa7, 0x65, 0xbb, 0x3e, 0x9a, 0x49, 0xe9, 0xbd,
  0x67, 0x8b, 0x75, 0xbe, 0x04, 0xc8, 0x60, 0xbe, 0xd5, 0x69, 0x3f, 0x3f,
  0x53, 0x3c, 0x71, 0xbe, 0xc0, 0x9b, 0xab, 0x3d, 0x40, 0xfc, 0x83, 0xbd,
  0x06, 0xc6, 0xae, 0xbd, 0x1e, 0xfd, 0x84, 0x3d, 0x54, 0xd0, 0x13, 0xbe,
  0x60, 0x68, 0x0a, 0x3d, 0xe4, 0x83, 0x44, 0x3d, 0x12, 0x37, 0xa6, 0x3d,
  0x95, 0xd1, 0x84, 0x3b, 0xb9, 0x18, 0x3f, 0xbe, 0x6c, 0x45, 0x1e, 0x3d,
  0x34, 0xa7, 0x41, 0x3e, 0xdc, 0xa3, 0xe2, 0xbd, 0x2a, 0x00, 0x5c, 0xbe,
  0x59, 0x36, 0x2a, 0x3f, 0xd8, 0x73, 0x38, 0xbe, 0x91, 0x56, 0xd8, 0x3d,
  0xcd, 0xda, 0xb1, 0xbd, 0x9e, 0xff, 0x80, 0xbe, 0x72, 0x13, 0x91, 0xbe,
  0x6f, 0x0b, 0x5e, 0xbe, 0xf5, 0xaa, 0x9f, 0x3d, 0x83, 0xad, 0x77, 0xbe,
  0xe2, 0x9c, 0xbb, 0xbd, 0x0b, 0x6b, 0x4b, 0x3d, 0xf4, 0xea, 0x27, 0x3e,
  0xe5, 0x2c, 0xac, 0x3e, 0x38, 0x63, 0xd9, 0xbc, 0x4e, 0x1e, 0x77, 0xbd,
  0xa5, 0x67, 0x6b, 0xbe, 0x44, 0x5e, 0x62, 0x3f, 0x23, 0xb2, 0x79, 0xbc,
  0x70, 0xd1, 0x6b, 0x3d, 0xd6, 0x6f, 0x2e, 0xbe, 0xd5, 0x82, 0x27, 0xbe,
  0x47, 0x6c, 0x15, 0xbe, 0x90, 0x93, 0x7c, 0x3d, 0xca, 0xf4, 0xb8, 0x3c,
  0x07, 0xa1, 0x86, 0xbd, 0xad, 0xb5, 0xb6, 0xbc, 0xf2, 0x0d, 0x91, 0xbd,
  0x70, 0xb0, 0x05, 0xbe, 0x30, 0x66, 0x32, 0xbd, 0x43, 0xe4, 0xc6, 0xbb,
  0x32, 0x2b, 0x07, 0x3d, 0x40, 0xf7, 0x7e, 0xbe, 0x2f, 0x5b, 0x52, 0x3f,
  0x7d, 0x3d, 0x80, 0xbe, 0xd5, 0xaf, 0x0e, 0x3e, 0xdb, 0xec, 0xc7, 0x3e,
  0x8b, 0xda, 0x0d, 0xbd, 0x10, 0x3c, 0x82, 0x3e, 0x7b, 0x8c, 0x05, 0x3f,
  0x04, 0xc1, 0x95, 0xbb, 0x6b, 0xe1, 0x6b, 0x3d, 0xab, 0x74, 0xf8, 0x3d,
  0x99, 0x58, 0x11, 0x3e, 0xb0, 0x62, 0x24, 0xbe, 0x62, 0xbf, 0x3f, 0x3e,
  0x80, 0x48, 0x8a, 0x3e, 0xd5, 0x51, 0xdf, 0x3e, 0x63, 0x78, 0xf9, 0x3e,
  0x73, 0x49, 0x8e, 0x3e, 0x78, 0x78, 0x62, 0xbe, 0x63, 0xc4, 0xb7, 0xbd,
  0x59, 0x7d, 0xd7, 0xbc, 0x3a, 0x38, 0x30, 0xbe, 0x9e, 0x91, 0x16, 0xbe,
  0xc0, 0x0d, 0x8d, 0xbc, 0x97, 0x4a, 0x31, 0xbe, 0x07, 0xcd, 0x29, 0x3d,
  0x1b, 0xe5, 0xaf, 0x3c, 0x96, 0x97, 0x6b, 0xbe, 0x54, 0x0e, 0xff, 0xbd,
  0xc9, 0x75, 0xac, 0xb8, 0x76, 0xfe, 0x56, 0xbe, 0xb1, 0x11, 0x1d, 0xbe,
  0xe1, 0x2d, 0xbc, 0xbe, 0xd2, 0x0c, 0x45, 0x3e, 0xdd, 0x73, 0xa8, 0xbd,
  0xcd, 0xf1, 0x4b, 0x3c, 0x1e, 0x3f, 0x8f, 0xbd, 0x8e, 0x0d, 0xd7, 0xbd,
  0x9d, 0xf5, 0x9d, 0xbe, 0xc3, 0x4e, 0x0d, 0xbc, 0x20, 0x84, 0xd1, 0x3c,
  0x5c, 0x42, 0xda, 0xbd, 0x18, 0x76, 0x56, 0xbe, 0xbd, 0x04, 0xf0, 0xbd,
  0xf1, 0x3a, 0xbc, 0xbd, 0x07, 0xe2, 0xe5, 0x3d, 0x62, 0x70, 0x4a, 0xbe,
  0x50, 0x88, 0x8a, 0xbe, 0x14, 0xd3, 0xc0, 0xbd, 0x4c, 0xdc, 0xdb, 0x3e,
  0x80, 0xe4, 0x3f, 0xbd, 0xdd, 0xdf, 0xf7, 0xbd, 0x7b, 0x00, 0x1e, 0x3e,
  0xb0, 0x2a, 0x32, 0xbe, 0x29, 0xe8, 0x85, 0xbe, 0x40, 0x44, 0xeb, 0xbc,
  0xc7, 0xf2, 0x95, 0xbd, 0xea, 0x63, 0x0b, 0xbe, 0x1a, 0x1e, 0x40, 0x3e,
  0x9a, 0x56, 0x6a, 0xbe, 0x5c, 0x4f, 0x22, 0xbe, 0x67, 0x90, 0xa9, 0x3d,
  0xd8, 0x9c, 0x29, 0x3a, 0xa1, 0x02, 0x80, 0xbe, 0x92, 0x5f, 0x54, 0x3c,
  0x23, 0xbf, 0xea, 0x3e, 0xeb, 0x42, 0xdb, 0x3c, 0xfc, 0x55, 0x90, 0xbd,
  0xa8, 0x2c, 0x92, 0xbd, 0x09, 0x1d, 0x0f, 0xbe, 0x39, 0x01, 0xa7, 0xbd,
  0x30, 0x8a, 0x10, 0xbd, 0x40, 0xc1, 0x68, 0xbd, 0x90, 0xba, 0x1e, 0x3d,
  0xb8, 0xee, 0x8a, 0x3d, 0x59, 0xd9, 0xa9, 0xbd, 0x73, 0x4d, 0x1b, 0xbd,
  0xc8, 0x1a, 0xd5, 0xbc, 0x63, 0x21, 0xcf, 0xbd, 0x38, 0xc8, 0x38, 0xbe,
  0x07, 0xa8, 0x3d, 0xbc, 0xdd, 0xf3, 0x50, 0x3e, 0xda, 0x3e, 0x61, 0xbd,
  0xc8, 0x1c, 0x58, 0xbc, 0x37, 0xb4, 0x8c, 0x3d, 0xd4, 0xef, 0xd5, 0xbd,
  0x5f, 0xb2, 0x62, 0xbe, 0x1d, 0x81, 0x40, 0xbd, 0x72, 0xa1, 0x21, 0x3e,
  0x6b, 0xca, 0x04, 0xbd, 0x30, 0xe2, 0xe0, 0x3d, 0x25, 0x8d, 0x8c, 0xbd,
  0x4f, 0xbb, 0x33, 0xbe, 0xa2, 0xd5, 0x69, 0x3e, 0xd6, 0xed, 0x50, 0xbe,
  0xbc, 0xe2, 0x94, 0xbe, 0x4e, 0x1b, 0x41, 0x3e, 0xda, 0x77, 0x3c, 0x3e,
  0xc4, 0x2f, 0xbc, 0x3d, 0x42, 0xf6, 0x4a, 0xbd, 0x3a, 0x95, 0x3c, 0xbd,
  0xa4, 0xde, 0xae, 0xbd, 0x58, 0xf5, 0x89, 0xbe, 0x21, 0xdc, 0x56, 0xbd,
  0x6e, 0xd6, 0x04, 0xbd, 0x98, 0xf5, 0x48, 0x3d, 0xe3, 0x13, 0x02, 0x3d,
  0xe5, 0xe0, 0xa1, 0xbe, 0x21, 0x87, 0xb8, 0xbe, 0x8b, 0x3f, 0x50, 0xbd,
  0x50, 0x20, 0xa6, 0x3d, 0x0a, 0xb3, 0x83, 0xbd, 0x2d, 0x45, 0x37, 0xbe,
  0xc1, 0x31, 0x1e, 0x3e, 0x15, 0xab, 0xf1, 0xbc, 0xf7, 0x14, 0x20, 0xbe,
  0xfa, 0xa6, 0xa9, 0x3d, 0x3a, 0x02, 0x48, 0xbe, 0xc4, 0x22, 0xcd, 0x3d,
  0x4f, 0xd9, 0x92, 0x3e, 0x4d, 0x10, 0xef, 0x3d, 0x61, 0x48, 0x23, 0xbe,
  0x8c, 0xf0, 0x84, 0x3d, 0x9b, 0xe7, 0x0f, 0x3e, 0xa0, 0x42, 0x62, 0xbe,
  0x5e, 0x90, 0x14, 0xbd, 0x37, 0xe2, 0xe6, 0xbd, 0x7a, 0xa1, 0x91, 0x3c,
  0xca, 0x52, 0x5f, 0x3e, 0xa0, 0xf3, 0x29, 0xbe, 0xcf, 0x13, 0xec, 0x3c,
  0x3f, 0x26, 0x03, 0xbe, 0x4c, 0x4a, 0x2b, 0x3e, 0x25, 0x95, 0x66, 0xbe,
  0x51, 0x5e, 0xc2, 0xbc, 0x38, 0xe9, 0x20, 0xbe, 0x4b, 0x50, 0x87, 0x3d,
  0xa7, 0x8c, 0x2c, 0xbe, 0x45, 0xc2, 0xa8, 0xbd, 0x7c, 0x59, 0x82, 0xbe,
  0x79, 0x16, 0xd8, 0x3d, 0x67, 0x42, 0x3a, 0x3e, 0x51, 0x03, 0x6e, 0xbe,
  0x1a, 0xf9, 0x0a, 0xbe, 0xd0, 0xcf, 0xc4, 0xbd, 0xad, 0xcf, 0xb0, 0xbd,
  0x61, 0xb3, 0x80, 0xbe, 0x28, 0x72, 0x56, 0xbe, 0xb1, 0x24, 0xea, 0x3d,
  0xe4, 0x8e, 0x03, 0x3d, 0x4e, 0xfd, 0x31, 0xbc, 0xab, 0xdb, 0x71, 0xbd,
  0x99, 0x8a, 0x01, 0x3e, 0x2e, 0xd5, 0x0f, 0xbe, 0xe2, 0xf6, 0xd6, 0x3d,
  0xcc, 0xe7, 0x76, 0xbd, 0x80, 0x59, 0x8c, 0xbb, 0xcc, 0xf7, 0x16, 0x3d,
  0x2d, 0xdf, 0xa4, 0x3d, 0x3b, 0xa9, 0x92, 0xbe, 0x30, 0x0a, 0x64, 0xbe,
  0x19, 0xf7, 0x7c, 0xbd, 0x2b, 0x74, 0x89, 0x3d, 0xcc, 0x53, 0x5c, 0xbe,
  0x83, 0xe9, 0x35, 0xbe, 0xc3, 0x3d, 0xbd, 0xbc, 0x4e, 0x87, 0x26, 0xbe,
  0xa3, 0x9a, 0xec, 0xbc, 0x6e, 0xcd, 0xc6, 0xbd, 0x88, 0xe4, 0x01, 0xbd,
  0xe2, 0xaa, 0x6a, 0x3c, 0x82, 0x20, 0x93, 0xbc, 0x98, 0x86, 0x52, 0xbc,
  0xae, 0xd4, 0x7e, 0xbd, 0x1c, 0xed, 0x22, 0xbe, 0xc2, 0x23, 0xf4, 0xbd,
  0xf5, 0x8e, 0x17, 0x3d, 0x23, 0x2a, 0x1f, 0x3e, 0x89, 0x38, 0xd1, 0xbc,
  0x67, 0x46, 0xbb, 0x3d, 0xf2, 0xf2, 0x36, 0x3e, 0x02, 0x2d, 0x42, 0x3d,
  0xe5, 0xc5, 0x97, 0xbd, 0x7e, 0xbf, 0x84, 0x3d, 0xdc, 0x84, 0x52, 0x3c,
  0xcc, 0x47, 0x0a, 0x3c, 0xab, 0x98, 0x87, 0x3c, 0xfa, 0x9b, 0x3d, 0xbd,
  0xd3, 0x38, 0x81, 0xbd, 0xf4, 0xf0, 0x39, 0xbe, 0x2a, 0x7a, 0x17, 0xbe,
  0xb2, 0xbf, 0x80, 0xbd, 0x2c, 0xb3, 0x6e, 0x3d, 0x35, 0x87, 0x2a, 0xbe,
  0xaf, 0x83, 0x79, 0xbd, 0xed, 0x33, 0x6f, 0x3d, 0x8b, 0x4c, 0xb0, 0x3d,
  0x30, 0x8e, 0x56, 0xbe, 0x83, 0xef, 0x98, 0x3d, 0x43, 0xa5, 0x37, 0xbe,
  0x96, 0x6e, 0xce, 0x3d, 0x5a, 0xee, 0xd3, 0x3d, 0x7e, 0x87, 0x4d, 0x3d,
  0xf3, 0x48, 0xf8, 0x3d, 0x18, 0x5f, 0x4e, 0x3b, 0x5a, 0xe5, 0x65, 0xbe,
  0x47, 0xcf, 0x54, 0xbe, 0xe3, 0x88, 0x54, 0xbe, 0xe5, 0x67, 0xde, 0x3d,
  0xac, 0x8f, 0xeb, 0x3b, 0xaf, 0x14, 0x1f, 0xbe, 0xab, 0xbe, 0x97, 0xbc,
  0xff, 0x72, 0x64, 0xbe, 0x9c, 0x69, 0x77, 0xbe, 0x23, 0xa3, 0x0e, 0xbe,
  0xc8, 0xfe, 0xa2, 0x39, 0x15, 0x7c, 0x35, 0xbe, 0x06, 0xa5, 0xd6, 0x3c,
  0xd7, 0xb0, 0x3d, 0x3e, 0x90, 0xc3, 0xed, 0xbd, 0x42, 0xa9, 0x17, 0xbd,
  0xdd, 0xd9, 0x63, 0xba, 0xf2, 0x8c, 0x0c, 0xbd, 0x99, 0x95, 0x0c, 0xbe,
  0x82, 0x31, 0x0d, 0xbe, 0x62, 0xde, 0x1d, 0xbe, 0x1d, 0x55, 0x90, 0xbe,
  0x23, 0x91, 0x13, 0xbe, 0xe7, 0x19, 0xcf, 0xbd, 0xb3, 0x37, 0x90, 0xbe,
  0x74, 0xbb, 0x63, 0xbe, 0x10, 0xb0, 0x2c, 0x3e, 0x77, 0x92, 0x46, 0xbe,
  0x37, 0x70, 0xba, 0x3d, 0x9f, 0x68, 0xc6, 0x3d, 0x6b, 0x91, 0xe3, 0x3d,
  0x81, 0x70, 0x28, 0xbd, 0x55, 0xb5, 0x1b, 0xbc, 0x5c, 0xd6, 0x5d, 0xbe,
  0x69, 0x33, 0xb5, 0xbd, 0x23, 0xfd, 0xc0, 0x3d, 0x2c, 0x15, 0x77, 0x3e,
  0xc1, 0xc9, 0x18, 0xbe, 0x6c, 0x13, 0x12, 0xbd, 0xcc, 0xa8, 0x15, 0xbe,
  0xb9, 0x9a, 0x48, 0x3d, 0x25, 0xe8, 0xb1, 0xbc, 0xbd, 0x7e, 0x37, 0x3d,
  0xf6, 0x5c, 0x1e, 0xbe, 0x53, 0x1b, 0x21, 0xbe, 0x73, 0x46, 0xec, 0xbc,
  0x3e, 0x59, 0xa3, 0x3d, 0x45, 0x12, 0x3e, 0xbe, 0xbc, 0xb3, 0x4d, 0x3e,
  0xf8, 0xad, 0xc1, 0xbc, 0x63, 0xe1, 0xa9, 0xbd, 0x99, 0xd5, 0x9f, 0xbd,
  0x49, 0x90, 0x08, 0x3e, 0xb8, 0x22, 0xfe, 0xbb, 0x5c, 0x9e, 0x50, 0xbe,
  0x2c, 0xf8, 0x4c, 0xbe, 0xa3, 0x95, 0x57, 0xbc, 0xaa, 0xaa, 0x75, 0xbe,
  0x8e, 0x2b, 0xf5, 0x3c, 0xf2, 0x0b, 0x7e, 0xbd, 0x51, 0x07, 0x07, 0x3e,
  0x5d, 0x57, 0x4c, 0x3e, 0x47, 0x3c, 0x45, 0xbe, 0xe4, 0xe2, 0x6d, 0xbd,
  0xe0, 0x07, 0x52, 0xbd, 0x84, 0xa7, 0x43, 0xbe, 0xee, 0x6c, 0x09, 0xbd,
  0xac, 0x9d, 0x78, 0xbe, 0xe5, 0x85, 0x8c, 0x3e, 0x07, 0x8e, 0xf9, 0x3d,
  0x43, 0x9a, 0x82, 0xbd, 0x04, 0x96, 0x0c, 0xbe, 0x7a, 0x4d, 0x3b, 0xbd,
  0xc8, 0xb0, 0x8c, 0xbe, 0x41, 0x83, 0xde, 0x3c, 0x9e, 0x5c, 0x1d, 0x3e,
  0x4a, 0xf1, 0x40, 0xbe, 0xb0, 0xa6, 0x85, 0x3d, 0x70, 0xa6, 0x4b, 0xbe,
  0x2a, 0x06, 0x18, 0xbe, 0x52, 0xee, 0x81, 0x3e, 0x2a, 0xb9, 0x2e, 0xbe,
  0xeb, 0xd5, 0x34, 0xbe, 0x91, 0xce, 0x2d, 0xbd, 0x38, 0x1a, 0x39, 0x3e,
  0x74, 0x56, 0x2b, 0xbd, 0x90, 0xdd, 0x5c, 0x3d, 0x33, 0x24, 0x31, 0x3d,
  0x3d, 0xe8, 0x59, 0xbe, 0x51, 0x8c, 0x84, 0xbe, 0xd2, 0x9a, 0x7e, 0xbd,
  0x3b, 0x31, 0x2a, 0xbd, 0x9f, 0x8a, 0x7f, 0xbe, 0x83, 0x32, 0x07, 0x3e,
  0x9c, 0x72, 0x4b, 0xbe, 0x02, 0x81, 0xac, 0x3d, 0x57, 0xcc, 0x23, 0x3e,
  0x95, 0xb2, 0x2f, 0xbd, 0xca, 0xf7, 0x73, 0xbe, 0x8c, 0x24, 0x08, 0x3e,
  0x40, 0x79, 0x7f, 0x3e, 0x66, 0xfa, 0x4a, 0x3d, 0x07, 0xb9, 0xb4, 0x3d,
  0x22, 0x2f, 0xf8, 0x3d, 0xb7, 0xe3, 0x2e, 0xbd, 0xc1, 0x7b, 0x72, 0xbe,
  0x02, 0x6a, 0x89, 0xbd, 0x1e, 0x81, 0x41, 0xbd, 0x9e, 0x33, 0xf9, 0xbd,
  0x30, 0x17, 0x8f, 0x3d, 0x33, 0x32, 0x16, 0xbe, 0x37, 0xe7, 0x24, 0xbe,
  0xd7, 0xb6, 0x00, 0x3e, 0xfb, 0x6a, 0xfc, 0xbc, 0xc6, 0x43, 0x2b, 0xbe,
  0xb1, 0x6a, 0x23, 0x3e, 0x8d, 0x92, 0x0a, 0x3e, 0x53, 0xfb, 0x22, 0xbe,
  0x16, 0x66, 0x96, 0x3d, 0xef, 0x82, 0x4b, 0x3d, 0xf9, 0x32, 0x5a, 0xbe,
  0x0d, 0x0b, 0x7b, 0xbe, 0x39, 0x55, 0x1e, 0xbd, 0x4b, 0xec, 0x14, 0x3e,
  0xac, 0x67, 0xbf, 0xbd, 0x4f, 0xe2, 0x97, 0xbd, 0xeb, 0x5f, 0x87, 0xbe,
  0xad, 0x90, 0x75, 0xbe, 0xad, 0xa5, 0x8c, 0x3e, 0x5e, 0xb5, 0x01, 0x3e,
  0x90, 0xfd, 0x88, 0xbd, 0x09, 0xad, 0xd2, 0xba, 0x74, 0x6b, 0x8c, 0x3e,
  0x39, 0x8a, 0x7a, 0xbd, 0x19, 0x52, 0x88, 0x3e, 0x7d, 0x92, 0xd1, 0x3e,
  0x3a, 0x1e, 0xc4, 0x3c, 0x4b, 0x65, 0x3c, 0x3d, 0x7c, 0x7e, 0xaa, 0x3e,
  0xaa, 0x98, 0x4f, 0x3e, 0x42, 0x6e, 0xa4, 0xbc, 0xbb, 0x29, 0x61, 0xbd,
  0xa5, 0x06, 0x38, 0x3e, 0x4c, 0x3b, 0xdb, 0xbc, 0xcc, 0xe0, 0x88, 0x3e,
  0x5b, 0xbe, 0x58, 0xbc, 0xb7, 0x02, 0x1f, 0x3e, 0x62, 0x88, 0xad, 0x3e,
  0x06, 0x57, 0x95, 0x3f, 0x79, 0x86, 0x18, 0xbe, 0x22, 0xee, 0x89, 0x3c,
  0x65, 0xa1, 0xea, 0x3e, 0x9f, 0xee, 0x82, 0xbb, 0x8b, 0x40, 0x54, 0x3e,
  0x8a, 0x16, 0xfa, 0x3d, 0xfb, 0x88, 0xef, 0x3d, 0x0f, 0x13, 0x80, 0x3d,
  0xa2, 0x0a, 0x47, 0x3c, 0x37, 0x63, 0x26, 0xbe, 0x5d, 0x28, 0x58, 0xbe,
  0x02, 0xb3, 0x9e, 0x3e, 0x13, 0x2c, 0xa4, 0x3d, 0xfd, 0x10, 0x58, 0x3e,
  0xf2, 0x86, 0x92, 0x3e, 0x89, 0x37, 0x99, 0x3f, 0x7a, 0xdc, 0xac, 0xbe,
  0x77, 0xcc, 0xdc, 0xbd, 0xcf, 0xe8, 0x6e, 0xbe, 0x75, 0xfb, 0x13, 0xbe,
  0x75, 0x26, 0xf7, 0xbd, 0x36, 0x9f, 0xcf, 0xbd, 0x5b, 0x63, 0x37, 0x3e,
  0x45, 0x74, 0xcf, 0xbc, 0x0e, 0xb5, 0x52, 0xbe, 0x2a, 0xaa, 0x81, 0xbe,
  0x18, 0x4e, 0xe6, 0x3d, 0x21, 0xc3, 0xa3, 0x3d, 0x79, 0x8d, 0xba, 0x3c,
  0x16, 0xe5, 0xe6, 0xbe, 0x10, 0x52, 0x6c, 0xbe, 0x89, 0x2d, 0x24, 0x3f,
  0x89, 0xad, 0x34, 0xbe, 0xe6, 0xa5, 0x72, 0xbd, 0x31, 0x74, 0x64, 0xbe,
  0x8e, 0x8d, 0x21, 0xbe, 0xe9, 0xc0, 0xb8, 0xbe, 0x73, 0x91, 0xda, 0xbd,
  0x82, 0x8f, 0x5d, 0x3c, 0xc8, 0x31, 0x44, 0x3e, 0xdf, 0x8b, 0x39, 0xbd,
  0x98, 0x4c, 0x85, 0xbe, 0xf0, 0xdd, 0xbc, 0xbd, 0x1b, 0xd9, 0xc4, 0x3b,
  0xd5, 0x22, 0x92, 0xbe, 0x3f, 0xe5, 0x84, 0xbe, 0xf5, 0x3f, 0x3a, 0xbe,
  0x85, 0xfe, 0xb3, 0x3f, 0x3e, 0x85, 0x06, 0xbe, 0x80, 0x1b, 0x6b, 0xbd,
  0xa0, 0xd3, 0x1e, 0xbe, 0x61, 0x80, 0x9d, 0xbd, 0x58, 0xd1, 0x4a, 0xbe,
  0xc9, 0xe2, 0x26, 0xbe, 0x52, 0x33, 0x1e, 0x3e, 0xea, 0xf5, 0xff, 0x3c,
  0xd7, 0x55, 0x28, 0x3e, 0xf6, 0x09, 0x1d, 0xbe, 0x2d, 0x0f, 0x97, 0xbd,
  0x6d, 0x50, 0x9f, 0xbd, 0x70, 0xc5, 0xd9, 0xbd, 0x89, 0x7f, 0x4d, 0xbe,
  0xbb, 0xb6, 0x8c, 0xbe, 0xd7, 0x1d, 0x5f, 0x3f, 0x64, 0xa0, 0x04, 0xbd,
  0x8b, 0xf5, 0x06, 0xbe, 0x92, 0x88, 0x18, 0x3d, 0xb7, 0x01, 0x38, 0xbe,
  0xa4, 0xa0, 0x2b, 0xbd, 0x7c, 0x1f, 0x23, 0xbe, 0xcc, 0x08, 0x9e, 0x3d,
  0xd8, 0xab, 0x5b, 0xbd, 0xc5, 0xf0, 0x1e, 0x3e, 0xa0, 0xdb, 0x1a, 0xbe,
  0xb3, 0xab, 0xc8, 0xbd, 0xa0, 0x5a, 0x1a, 0x3e, 0x1b, 0x0d, 0xad, 0xbd,
  0x29, 0x08, 0x8a, 0xbe, 0xed, 0x3f, 0x06, 0xbe, 0xfb, 0x76, 0x96, 0x3f,
  0xb8, 0x7b, 0x4f, 0xbe, 0x9d, 0x76, 0x12, 0xbd, 0x4b, 0xd1, 0x96, 0x3c,
  0xba, 0xe2, 0xfa, 0xbd, 0xf8, 0x05, 0x54, 0xbe, 0x8a, 0x1e, 0xa3, 0xbd,
  0x31, 0x79, 0xec, 0x3b, 0xcc, 0x81, 0xd0, 0xbc, 0x47, 0x98, 0x4b, 0x3d,
  0x72, 0x59, 0x6e, 0xbe, 0xa7, 0xf0, 0xbd, 0xbe, 0x5b, 0x00, 0xc3, 0xbd,
  0x47, 0xec, 0x9e, 0xbd, 0xe1, 0x85, 0x11, 0xbe, 0xe8, 0x52, 0x11, 0xbe,
  0xfb, 0x98, 0x8c, 0x3f, 0x58, 0xa8, 0x2c, 0x3c, 0x27, 0x24, 0x4a, 0xbe,
  0x0a, 0x68, 0xb0, 0xbd, 0x1a, 0x31, 0x8a, 0xbe, 0x55, 0xe7, 0x7b, 0xbe,
  0x7d, 0xfb, 0x8c, 0xbc, 0x62, 0x05, 0x3c, 0xbd, 0xcc, 0x82, 0x5c, 0xbc,
  0x5f, 0x4e, 0x52, 0x3e, 0xec, 0x9f, 0xd1, 0xbd, 0xa5, 0x57, 0x53, 0xbe,
  0xa2, 0xd1, 0x96, 0x3e, 0xee, 0xf4, 0x5b, 0xbe, 0xc6, 0x59, 0x97, 0xbc,
  0x09, 0xb0, 0x48, 0xbb, 0x3e, 0xcc, 0x3c, 0x3e, 0x14, 0x60, 0x2f, 0x3d,
  0x8c, 0x5d, 0x85, 0xbe, 0x80, 0x69, 0x8d, 0x3d, 0x9a, 0x76, 0x5a, 0xbe,
  0x2d, 0x0c, 0x7c, 0xbe, 0x65, 0xbb, 0x0a, 0xbd, 0x73, 0x3c, 0x2d, 0x3e,
  0x82, 0xe1, 0xb0, 0xba, 0x01, 0x1a, 0x00, 0x3d, 0x2b, 0xf6, 0xae, 0xbd,
  0x23, 0xed, 0x7d, 0xbc, 0xea, 0xfb, 0x99, 0x3e, 0x93, 0x66, 0xaf, 0x3b,
  0xdd, 0xa1, 0x8b, 0xbe, 0xd0, 0xcb, 0x05, 0x3e, 0xcc, 0x3f, 0x15, 0x3f,
  0x89, 0x40, 0xc2, 0xbd, 0xb8, 0x49, 0xb9, 0x3d, 0xc0, 0xca, 0x4e, 0x3e,
  0x6e, 0x71, 0x02, 0xbe, 0xd7, 0x95, 0x62, 0xbe, 0x34, 0x1b, 0xae, 0x3d,
  0x3a, 0x32, 0x90, 0x3c, 0x4f, 0xc6, 0x68, 0xbd, 0x04, 0x4a, 0x59, 0xbe,
  0x57, 0xe6, 0xb3, 0xbe, 0xcc, 0x03, 0xb9, 0xbd, 0x3d, 0x44, 0x82, 0xbc,
  0x21, 0xba, 0xb2, 0xbb, 0x73, 0x23, 0x88, 0x3d, 0x78, 0xae, 0x21, 0xbc,
  0x4e, 0x64, 0xa7, 0x3e, 0x9b, 0x43, 0x21, 0xbe, 0x63, 0xa4, 0x65, 0x3d,
  0x2c, 0xed, 0x20, 0x3e, 0x87, 0x6a, 0xe1, 0xbd, 0xbc, 0x1c, 0x3e, 0xbd,
  0xf5, 0x1f, 0x15, 0xbb, 0x12, 0xf4, 0xb4, 0x3d, 0xb7, 0xa3, 0xf6, 0xbd,
  0x53, 0x5b, 0xfa, 0xbc, 0xf9, 0x8c, 0x01, 0xbe, 0xbe, 0xf0, 0x25, 0x3e,
  0xd1, 0x40, 0xd7, 0x3d, 0x32, 0x4d, 0xac, 0x3c, 0xa5, 0xa2, 0xe7, 0xbc,
  0x46, 0x0f, 0x4f, 0x3c, 0x19, 0xfa, 0x0c, 0x3f, 0xbd, 0x57, 0x84, 0xbd,
  0x18, 0x2d, 0x1d, 0xbe, 0xb8, 0x77, 0xbd, 0xbd, 0x70, 0x5f, 0xa4, 0xbd,
  0x51, 0x56, 0xe3, 0xbd, 0xad, 0xb1, 0x2d, 0x3d, 0xa2, 0x44, 0xc6, 0x3c,
  0xa5, 0x41, 0x42, 0xbb, 0x29, 0x4b, 0xd2, 0x3c, 0x74, 0xfa, 0x5a, 0xbe,
  0x39, 0x2c, 0x97, 0x3d, 0x5f, 0xd0, 0xa4, 0x3e, 0xb3, 0x97, 0x2d, 0xbe,
  0x02, 0x78, 0x31, 0xbe, 0xbd, 0x53, 0x80, 0x3d, 0xc0, 0x21, 0x9b, 0x3e,
  0x56, 0xb1, 0xf0, 0xbc, 0xf8, 0x00, 0x5c, 0xbb, 0xb0, 0xbd, 0xcb, 0x3d,
  0xfa, 0x23, 0x92, 0xbd, 0x33, 0xf7, 0xaa, 0xbd, 0xa7, 0x9c, 0xd6, 0x3d,
  0x08, 0xef, 0x34, 0x3e, 0x26, 0x56, 0x05, 0xbd, 0x63, 0x32, 0xbb, 0xbd,
  0x1c, 0x90, 0x22, 0xbe, 0xcc, 0x82, 0x01, 0x3e, 0xa6, 0x9e, 0x94, 0x3e,
  0xc0, 0xb4, 0x90, 0x3d, 0x3e, 0x85, 0x77, 0xbd, 0x40, 0x57, 0xa2, 0x3a,
  0x8d, 0x47, 0x0b, 0x3f, 0x90, 0xa8, 0x96, 0xbe, 0xe9, 0xa0, 0xec, 0xbd,
  0x19, 0x66, 0x2b, 0x3e, 0x03, 0xf5, 0x27, 0xbe, 0x4f, 0x37, 0x9d, 0xbe,
  0xa3, 0x6b, 0x3c, 0xbe, 0x57, 0xa2, 0x4d, 0x3e, 0xb4, 0xe9, 0xd5, 0x3d,
  0x4b, 0x74, 0xa2, 0x3d, 0x06, 0x3e, 0xfb, 0xbd, 0xef, 0x61, 0x8b, 0x3c,
  0x12, 0x96, 0x2f, 0x3c, 0xfe, 0x4f, 0x89, 0x3d, 0xce, 0xee, 0x1e, 0xbd,
  0x36, 0x6b, 0x02, 0x3e, 0xb9, 0x39, 0x04, 0x3f, 0xaa, 0x54, 0x2f, 0xbe,
  0x88, 0x8a, 0x5b, 0xbe, 0x15, 0x0e, 0x62, 0xbd, 0xa8, 0x77, 0x41, 0xbd,
  0xc1, 0xa5, 0xca, 0x3d, 0x84, 0x29, 0x7b, 0xbe, 0xd4, 0x9f, 0xa0, 0x3c,
  0x7b, 0xaa, 0x24, 0xbe, 0xd7, 0xeb, 0x1e, 0x3e, 0xb9, 0x4d, 0x09, 0x3d,
  0xe0, 0xff, 0x44, 0x3c, 0x82, 0x00, 0xa2, 0xbd, 0x38, 0xca, 0x60, 0xbc,
  0x8e, 0xaa, 0x39, 0xbd, 0xb7, 0x4c, 0x3e, 0x3d, 0x51, 0x77, 0x13, 0xbe,
  0x62, 0x90, 0xe9, 0x3c, 0x58, 0x50, 0x1a, 0x3e, 0x8c, 0x8b, 0xed, 0xbd,
  0x3d, 0x03, 0x3e, 0xbe, 0x3f, 0x04, 0xcc, 0x3d, 0x5b, 0x49, 0x1e, 0x3e,
  0xbb, 0xfc, 0xa5, 0x3d, 0xcb, 0x21, 0x21, 0xbc, 0xc1, 0x34, 0x85, 0x3d,
  0x5a, 0xeb, 0x20, 0x3d, 0xeb, 0x81, 0x8d, 0xbd, 0xb6, 0x89, 0x6a, 0xbe,
  0x9b, 0xaf, 0x56, 0xbe, 0x1b, 0xad, 0x90, 0xbe, 0xb6, 0xa3, 0xfe, 0x3d,
  0xc1, 0x25, 0x14, 0xbe, 0x2a, 0x5f, 0x41, 0xbe, 0x78, 0xad, 0x18, 0xbd,
  0x36, 0x55, 0x04, 0xbe, 0x28, 0x1e, 0x7b, 0xbd, 0xfd, 0xef, 0x4a, 0xbe,
  0x68, 0x93, 0x03, 0xbe, 0x5a, 0x3e, 0x0b, 0x3d, 0x46, 0x5c, 0x35, 0x3e,
  0xb1, 0x52, 0xde, 0x3d, 0x08, 0xca, 0xa2, 0xbd, 0x3d, 0x78, 0x06, 0x3e,
  0x18, 0xe4, 0x1a, 0xbd, 0x0e, 0x41, 0xc4, 0x3d, 0x50, 0x8e, 0x89, 0xbd,
  0x3e, 0xab, 0x61, 0xbe, 0x31, 0x4d, 0x19, 0x3b, 0x23, 0x1b, 0x4f, 0xbe,
  0x8e, 0x51, 0xda, 0xbd, 0x57, 0x74, 0x44, 0xbd, 0xf2, 0xb5, 0x42, 0xbe,
  0x95, 0x8f, 0x3d, 0xbc, 0x7a, 0x3d, 0x20, 0x3d, 0x1c, 0x22, 0x81, 0xbd,
  0xc5, 0x65, 0x03, 0xbc, 0x24, 0x1b, 0x37, 0xbe, 0xd4, 0x9f, 0x00, 0xbe,
  0x8a, 0xaa, 0xa6, 0x3d, 0xe9, 0xc8, 0x2a, 0xbc, 0xa7, 0x65, 0x24, 0x3d,
  0x4a, 0x8b, 0x97, 0x3d, 0x0b, 0xee, 0xaa, 0xbd, 0x18, 0xa2, 0x4b, 0xbd,
  0x07, 0xca, 0xcf, 0xbc, 0x30, 0x7a, 0x86, 0xbb, 0x56, 0xae, 0x00, 0xbd,
  0x37, 0xc6, 0x45, 0xbd, 0xc2, 0xa4, 0xca, 0xbd, 0xe7, 0x97, 0x24, 0x3d,
  0xd8, 0x2a, 0x99, 0xbd, 0xa1, 0x1a, 0x4d, 0x3d, 0xcc, 0x29, 0xb2, 0xbd,
  0xd5, 0x79, 0x26, 0xbe, 0x18, 0xa4, 0xcb, 0xbd, 0x2e, 0xd8, 0xa2, 0x3d,
  0xbf, 0x19, 0x7b, 0xbc, 0xaf, 0x2c, 0xce, 0xbc, 0xa5, 0x93, 0x35, 0xbe,
  0x03, 0xa4, 0xe6, 0x3c, 0x6f, 0xca, 0x71, 0xbe, 0xb2, 0x70, 0xe4, 0xba,
  0x53, 0xe1, 0xc9, 0xbb, 0xfc, 0x30, 0x22, 0x3d, 0xc3, 0xdb, 0xae, 0xbd,
  0x44, 0x9a, 0xb0, 0xbd, 0x05, 0x61, 0x3d, 0xbe, 0xb0, 0x27, 0x2a, 0x3e,
  0x57, 0xcb, 0x4a, 0x3d, 0x57, 0x5f, 0x6a, 0xbe, 0x28, 0xb4, 0x05, 0xbe,
  0x43, 0xf3, 0x4b, 0xbe, 0x5c, 0x73, 0xd3, 0xbb, 0x1c, 0xd3, 0x88, 0xbe,
  0x4e, 0xfc, 0xc5, 0xba, 0x1f, 0x0b, 0xda, 0x3d, 0xf1, 0x47, 0x56, 0xbe,
  0xe5, 0xeb, 0xb9, 0xbd, 0x0d, 0xd5, 0xa4, 0xbd, 0x7d, 0xb4, 0x80, 0xbe,
  0x83, 0x4a, 0x9d, 0xbd, 0xff, 0xd8, 0x40, 0x3e, 0x4c, 0xb6, 0x11, 0xbe,
  0xba, 0xae, 0x6d, 0x3d, 0x5b, 0x59, 0xed, 0xbc, 0xfe, 0x17, 0x69, 0x3d,
  0x89, 0x07, 0x7a, 0xbe, 0xb4, 0xda, 0x4f, 0x3d, 0x84, 0x97, 0x3c, 0xbe,
  0x8b, 0x27, 0x92, 0x3c, 0x92, 0x93, 0x38, 0xbd, 0xf9, 0xf9, 0x69, 0x3b,
  0xf3, 0x43, 0xe7, 0x3d, 0xbe, 0xa3, 0xa2, 0xbd, 0x09, 0xa4, 0xa5, 0xbe,
  0x0b, 0xbc, 0xfd, 0xbd, 0x99, 0xff, 0x0c, 0xbe, 0xa4, 0x16, 0xa7, 0xbe,
  0xf2, 0x26, 0xd2, 0xbe, 0x3f, 0xf5, 0xf0, 0x3e, 0xda, 0xc7, 0x9f, 0x3c,
  0x1e, 0x88, 0x5f, 0xbe, 0xc7, 0xe4, 0xe1, 0x3c, 0x44, 0x86, 0x79, 0xbe,
  0xa6, 0x6c, 0x76, 0xbe, 0x1f, 0x30, 0x8c, 0xbe, 0x30, 0x83, 0xbd, 0xbe,
  0x37, 0x2f, 0x10, 0x3e, 0xa8, 0x51, 0x49, 0x3e, 0xa0, 0x20, 0x28, 0xbe,
  0x99, 0xe8, 0x02, 0x3e, 0x11, 0x53, 0x63, 0x3c, 0xcf, 0x67, 0x15, 0x3d,
  0xdf, 0x82, 0x09, 0xbe, 0xff, 0xad, 0x9b, 0x3e, 0x17, 0x19, 0xa8, 0x3e,
  0x4c, 0x2a, 0xac, 0x3e, 0x6d, 0xae, 0x17, 0x3e, 0x5b, 0xf5, 0x3c, 0xbc,
  0x98, 0xd6, 0x37, 0x3e, 0x5e, 0xf0, 0x89, 0x3e, 0x86, 0x63, 0xe8, 0xbd,
  0x49, 0x4f, 0xee, 0x3d, 0x70, 0xf4, 0x05, 0xbe, 0x39, 0x5b, 0x58, 0x3e,
  0x47, 0x08, 0x9b, 0xbd, 0xed, 0x30, 0x1d, 0x3f, 0x9e, 0x0f, 0x3f, 0x3e,
  0xd0, 0xe1, 0x31, 0x3d, 0xa1, 0x3f, 0xfc, 0xbd, 0x64, 0x5d, 0x2e, 0x3e,
  0xb3, 0x9a, 0x7d, 0x3e, 0xea, 0x76, 0xa4, 0x3d, 0x59, 0xda, 0xde, 0x3d,
  0x28, 0x08, 0x95, 0xbd, 0xfe, 0x97, 0x7e, 0x3c, 0x6c, 0x58, 0x85, 0x3e,
  0x1a, 0x94, 0x35, 0x3d, 0x6c, 0xf1, 0x68, 0x3e, 0xe1, 0xeb, 0xaf, 0xbc,
  0x9b, 0x79, 0x9b, 0x3d, 0xb6, 0xa7, 0x10, 0xbe, 0x06, 0xe0, 0x06, 0x3f,
  0xe2, 0x42, 0x0f, 0x3e, 0xf6, 0xd0, 0x89, 0x3e, 0x1a, 0xe1, 0x93, 0xbe,
  0xed, 0x93, 0x8e, 0x3e, 0xd0, 0x6d, 0x02, 0x3e, 0x6f, 0x9e, 0x11, 0x3f,
  0x7b, 0x74, 0x2b, 0x3e, 0x61, 0xfc, 0x85, 0xbe, 0x01, 0x3c, 0x02, 0x3f,
  0xee, 0xc3, 0x5a, 0x3e, 0x4c, 0x66, 0x20, 0x3e, 0xab, 0x82, 0x61, 0x3e,
  0x4d, 0xdb, 0x71, 0x3c, 0x70, 0x19, 0x25, 0x3e, 0x99, 0xdc, 0x60, 0xbd,
  0x4f, 0xab, 0xaa, 0x3e, 0x4c, 0x9c, 0xa8, 0x3d, 0x46, 0xc4, 0x02, 0x3e,
  0xf5, 0x6c, 0x16, 0xbe, 0xea, 0xf6, 0xe8, 0x3e, 0xa5, 0xf2, 0x9e, 0x3d,
  0x39, 0x83, 0xfd, 0xbd, 0xb5, 0xe0, 0x5a, 0x3e, 0x80, 0x48, 0xcf, 0xbd,
  0xe8, 0xd8, 0x00, 0x3e, 0x54, 0x66, 0x89, 0x3e, 0xb6, 0xff, 0x9c, 0x3c,
  0xb8, 0x81, 0xf6, 0x3d, 0x4f, 0x17, 0x85, 0xbe, 0x3f, 0x6a, 0x11, 0xbd,
  0x25, 0x73, 0x79, 0xbe, 0x1c, 0xe7, 0x08, 0x3f, 0xba, 0xc4, 0x02, 0x3e,
  0x76, 0x4a, 0x4d, 0x3e, 0x54, 0x74, 0x22, 0xbe, 0xb7, 0x4c, 0x5f, 0xbd,
  0x00, 0x8c, 0xf5, 0x3d, 0xb2, 0xf7, 0xeb, 0x3d, 0xbd, 0x90, 0xa1, 0xbd,
  0xe7, 0x44, 0x1e, 0x3e, 0x03, 0xe7, 0x09, 0x3f, 0x2b, 0xe6, 0xcb, 0x3e,
  0x40, 0x07, 0x8e, 0x3e, 0xb7, 0xed, 0x98, 0x3e, 0xa8, 0xbb, 0x7d, 0x3a,
  0x85, 0xb1, 0xbd, 0x3c, 0x35, 0xbf, 0x18, 0xbd, 0xad, 0xb1, 0x8e, 0xbe,
  0x53, 0xd4, 0xee, 0x3d, 0x31, 0xc7, 0xf9, 0xbd, 0xb4, 0x9d, 0xec, 0xbd,
  0xdf, 0xa1, 0x83, 0x3e, 0xf7, 0xe8, 0x14, 0xbe, 0xe3, 0x89, 0x4f, 0x3c,
  0x95, 0xfc, 0x25, 0xbe, 0xae, 0xe6, 0x17, 0xbe, 0xc7, 0x3c, 0x92, 0x3e,
  0x37, 0x46, 0x2a, 0x3e, 0xa9, 0x8b, 0xb2, 0x3c, 0xb2, 0x14, 0x5a, 0xbe,
  0x73, 0x43, 0x6f, 0xbe, 0xf1, 0xc3, 0x8e, 0xba, 0xab, 0xda, 0x23, 0xbe,
  0xfa, 0x2e, 0x97, 0xbd, 0x24, 0x2f, 0x6f, 0xbe, 0x8a, 0x26, 0xa3, 0xbe,
  0x11, 0xe6, 0x8e, 0x3c, 0xec, 0x87, 0xfa, 0x3d, 0x38, 0x79, 0x99, 0x3d,
  0x8b, 0x81, 0x5d, 0xbd, 0xe9, 0xf7, 0x11, 0x3c, 0x42, 0xc8, 0x00, 0x3e,
  0xdf, 0x04, 0x02, 0x3e, 0xd1, 0xaa, 0x74, 0x3d, 0xe3, 0x5b, 0x15, 0x3d,
  0x28, 0x29, 0x4e, 0xbe, 0x0f, 0x86, 0xc8, 0xbd, 0xd8, 0x99, 0x94, 0x3c,
  0x3a, 0x29, 0x73, 0xbd, 0x7a, 0x3f, 0x82, 0xbd, 0x9c, 0x1d, 0x36, 0xbe,
  0xc0, 0x8e, 0x8f, 0xbd, 0x8f, 0xc4, 0x5f, 0xbd, 0x02, 0x92, 0x60, 0xbd,
  0x81, 0x8d, 0xae, 0xbc, 0x33, 0x19, 0x27, 0x3e, 0x8f, 0xd8, 0xa1, 0xbe,
  0x9f, 0x8f, 0xcb, 0x3c, 0x8f, 0x84, 0xfe, 0xbd, 0x69, 0xb5, 0x03, 0xbe,
  0x40, 0x25, 0x8f, 0x3d, 0xf1, 0x98, 0x10, 0xbe, 0xfa, 0x27, 0xc9, 0xbd,
  0x9f, 0x54, 0xb4, 0xbc, 0x9a, 0x05, 0x89, 0xbe, 0xbb, 0xd9, 0x69, 0x3e,
  0x27, 0x50, 0xdb, 0x3c, 0x46, 0x71, 0x8f, 0xbe, 0x60, 0x6c, 0xce, 0xbd,
  0xf0, 0x95, 0xaa, 0xbd, 0x5b, 0x9b, 0x95, 0x3e, 0xe0, 0x8d, 0xd6, 0xbd,
  0xa0, 0x44, 0x62, 0xbe, 0x0d, 0x1d, 0x18, 0x3e, 0xf6, 0x60, 0xa1, 0x3c,
  0xb6, 0x71, 0x48, 0xbe, 0xd9, 0x70, 0xa0, 0xbe, 0x6b, 0xd7, 0x2a, 0x3d,
  0x12, 0x2e, 0x00, 0x3d, 0x3a, 0x47, 0xe4, 0x3d, 0x4f, 0x05, 0xa4, 0xbd,
  0x75, 0x08, 0x0f, 0x3d, 0x4d, 0x2a, 0xc0, 0x3d, 0x17, 0x73, 0xa2, 0x3c,
  0x4a, 0x7f, 0xc7, 0xbc, 0xc4, 0x28, 0x48, 0xbe, 0xa1, 0x36, 0xa5, 0xbc,
  0x98, 0xcf, 0x52, 0xbe, 0xc8, 0x2b, 0x1a, 0xbe, 0x82, 0xcf, 0xca, 0xbc,
  0x90, 0xe5, 0xd8, 0x3c, 0x3b, 0xd8, 0x4a, 0x3e, 0xe8, 0x38, 0x41, 0xbe,
  0x46, 0x6e, 0x8f, 0x3d, 0x5b, 0x9d, 0xc9, 0x3d, 0xa4, 0xe4, 0xde, 0x3c,
  0x1a, 0xd7, 0xcf, 0xbc, 0x08, 0x94, 0x28, 0x3d, 0xb3, 0x44, 0x0c, 0x3e,
  0x65, 0x07, 0x16, 0xbe, 0x0a, 0xa0, 0x86, 0xbc, 0x24, 0x77, 0x99, 0xbb,
  0x12, 0xab, 0xec, 0xbb, 0x42, 0x06, 0x00, 0xbe, 0xb7, 0x63, 0x0f, 0x3e,
  0x9d, 0xc8, 0x1b, 0x3e, 0xd5, 0xe2, 0x2c, 0xbe, 0x61, 0xc0, 0xc6, 0x3d,
  0xe0, 0x17, 0x98, 0xbd, 0xfc, 0x3b, 0x8b, 0x3e, 0xc6, 0x92, 0xdd, 0xbd,
  0x76, 0xb7, 0x9a, 0x3d, 0x60, 0x0e, 0xe7, 0x3d, 0x66, 0x78, 0x41, 0x3e,
  0x4a, 0x04, 0x1e, 0xbc, 0x96, 0xa1, 0x7e, 0x3d, 0xe8, 0xba, 0x6e, 0xbe,
  0xf9, 0xef, 0x7e, 0x3d, 0x11, 0x55, 0x71, 0xbd, 0xf7, 0x82, 0x0b, 0xbc,
  0x57, 0xb4, 0x2e, 0xbe, 0xb7, 0x9f, 0xbc, 0x3d, 0x67, 0x51, 0xc6, 0x3d,
  0x06, 0x90, 0xf7, 0x3c, 0x29, 0xe5, 0xf7, 0x3d, 0x5f, 0xbb, 0xa8, 0xbd,
  0x29, 0xfc, 0xb6, 0x3d, 0x57, 0x6e, 0xa1, 0xbd, 0x8b, 0x93, 0xf6, 0xbd,
  0x46, 0x28, 0xc5, 0x3d, 0xfe, 0xaa, 0x95, 0xbd, 0xe7, 0x0a, 0x27, 0xbc,
  0x7a, 0xf3, 0x7c, 0xbd, 0x2f, 0x47, 0x40, 0xbe, 0x7f, 0x5c, 0x55, 0x3d,
  0x38, 0x1a, 0x19, 0x3e, 0x28, 0xa9, 0x98, 0xbe, 0x5f, 0xae, 0xbb, 0x3d,
  0xd7, 0x66, 0xe6, 0xbd, 0x56, 0xd4, 0xd6, 0x3d, 0x30, 0x43, 0xfe, 0xbd,
  0xed, 0x68, 0x8f, 0xbd, 0xab, 0x0d, 0x01, 0xbe, 0xe3, 0xe0, 0x3a, 0xbd,
  0x22, 0x41, 0x9d, 0x3d, 0x3f, 0x1c, 0xac, 0xbb, 0xb0, 0x0b, 0x82, 0xbe,
  0xc5, 0xed, 0x03, 0xbe, 0xe7, 0x37, 0x8f, 0x3c, 0xae, 0xee, 0x4f, 0xbd,
  0xd0, 0x70, 0x29, 0xbd, 0x43, 0x6e, 0xe3, 0x3d, 0x9a, 0x7c, 0x6d, 0xbe,
  0x28, 0x8a, 0xd4, 0x3d, 0x0e, 0x56, 0xcf, 0x3e, 0x7c, 0xde, 0x85, 0xbe,
  0x7b, 0x4c, 0x84, 0xbe, 0x80, 0x0f, 0x64, 0xbe, 0x36, 0x65, 0x44, 0x3f,
  0x61, 0xc3, 0x2a, 0xbe, 0x22, 0x3e, 0x4b, 0x3d, 0x7b, 0x9f, 0xbd, 0xbd,
  0x7d, 0xe9, 0x60, 0xbe, 0x28, 0xdc, 0x8f, 0xbc, 0xef, 0xbb, 0x49, 0xbe,
  0x5c, 0x84, 0xe6, 0x3e, 0x54, 0x5b, 0x80, 0xbd, 0x89, 0x30, 0x61, 0x3b,
  0x99, 0x28, 0xaa, 0xbe, 0x38, 0x1a, 0x61, 0xbd, 0xee, 0xc6, 0xaf, 0x3e,
  0x60, 0xd5, 0x93, 0xbc, 0x66, 0xb9, 0x61, 0xbe, 0xc8, 0x17, 0x0a, 0xbe,
  0x17, 0x60, 0x3e, 0x3f, 0x23, 0xd1, 0x95, 0xbc, 0x2d, 0xe4, 0x2f, 0xbe,
  0xa5, 0xc2, 0xec, 0xbb, 0x08, 0xf8, 0x68, 0xbe, 0x4b, 0x92, 0x10, 0xbe,
  0x3a, 0x67, 0xe8, 0x3d, 0x61, 0xd5, 0x92, 0x3e, 0xfa, 0xd4, 0x5a, 0xbe,
  0x8d, 0xc6, 0x1f, 0xbc, 0x96, 0xb2, 0x25, 0xbe, 0x69, 0x78, 0x04, 0xbc,
  0x5c, 0x28, 0xad, 0x3d, 0x21, 0xb1, 0x0e, 0xbe, 0xea, 0x95, 0x6d, 0xbd,
  0xd7, 0x7c, 0x71, 0xbd, 0xde, 0xb3, 0x59, 0x3f, 0x06, 0x31, 0x8d, 0x3d,
  0x30, 0x8f, 0xc7, 0x3c, 0x56, 0xdb, 0x46, 0xbe, 0xb9, 0x8a, 0x58, 0xbe,
  0x59, 0x79, 0x62, 0x3b, 0x6e, 0xf4, 0x2b, 0xbe, 0xcf, 0xf8, 0xde, 0x3c,
  0x67, 0x7e, 0x68, 0x39, 0x1d, 0x27, 0x11, 0xbd, 0xba, 0x82, 0x58, 0xbd,
  0x55, 0x1e, 0xa6, 0xbd, 0xe7, 0xd5, 0x2e, 0x3e, 0x48, 0x6e, 0xb0, 0x3d,
  0x6a, 0x57, 0x33, 0xbe, 0x16, 0x46, 0xaf, 0x3d, 0x69, 0xf9, 0x4d, 0x3f,
  0x13, 0xa8, 0x5b, 0xbd, 0xe7, 0xa2, 0x17, 0x3e, 0x4e, 0xf5, 0x5c, 0xbe,
  0x2e, 0x92, 0x5b, 0xbe, 0xa7, 0x5d, 0x81, 0xbe, 0x3a, 0xef, 0x83, 0x3d,
  0x4e, 0xd1, 0x4b, 0x3e, 0xe0, 0x3b, 0x5b, 0xbe, 0x3d, 0x2c, 0x11, 0xbe,
  0xe3, 0x07, 0x02, 0x3e, 0xf4, 0x0f, 0x55, 0xbd, 0x69, 0xba, 0xf7, 0x3d,
  0xc4, 0xeb, 0xee, 0xbd, 0xf6, 0xc5, 0x37, 0xbe, 0xc8, 0x51, 0x3e, 0x3d,
  0x5e, 0x0b, 0x40, 0x3f, 0xe4, 0x24, 0x18, 0x3e, 0xdd, 0xa3, 0x00, 0x3e,
  0x58, 0x4d, 0x44, 0xbe, 0x14, 0xd7, 0x89, 0x3d, 0x83, 0x2d, 0x76, 0x3d,
  0xaf, 0xe2, 0x7b, 0x3d, 0xd3, 0xb7, 0x98, 0x3e, 0x2c, 0x32, 0x3a, 0xbe,
  0x78, 0xad, 0xa1, 0x3d, 0xba, 0x9a, 0xac, 0xbd, 0x5d, 0x50, 0x2e, 0x3d,
  0x6f, 0x0c, 0x31, 0x3e, 0x9e, 0x79, 0xa0, 0xbd, 0x67, 0x69, 0xa8, 0xbe,
  0x30, 0x04, 0x47, 0xbe, 0x0d, 0x2f, 0x33, 0x3f, 0x88, 0x06, 0xd8, 0x3d,
  0x85, 0xb2, 0x65, 0xbd, 0xf7, 0xad, 0x13, 0x3e, 0x22, 0xf9, 0xa5, 0xbe,
  0xe1, 0x36, 0xfd, 0xbd, 0x59, 0xc9, 0x2a, 0xbe, 0x9a, 0x8d, 0x35, 0x3e,
  0x50, 0x01, 0x4b, 0x3d, 0xe8, 0x2a, 0x2c, 0x3d, 0x8a, 0x18, 0x4f, 0x3d,
  0x9f, 0xb5, 0x1c, 0x3e, 0xdd, 0xd8, 0x19, 0x3e, 0x64, 0xca, 0xd0, 0xbc,
  0xf8, 0x54, 0xf7, 0xbc, 0x86, 0x0c, 0x44, 0xbc, 0xae, 0x83, 0x5c, 0x3f,
  0x2e, 0xe9, 0x44, 0xbe, 0x96, 0x2a, 0x88, 0xbe, 0xbc, 0x90, 0x12, 0xbf,
  0x97, 0x86, 0x51, 0xbe, 0x2f, 0xba, 0xba, 0xbe, 0xc2, 0x59, 0x1f, 0xbf,
  0x76, 0x1f, 0xcc, 0xbe, 0x1e, 0xf8, 0x32, 0x3e, 0xba, 0xe4, 0x38, 0xbe,
  0x99, 0x0f, 0x22, 0xbd, 0xd3, 0xe6, 0x20, 0xbe, 0xe0, 0x86, 0x8e, 0x3d,
  0x28, 0xfc, 0x9a, 0xbe, 0xe3, 0x36, 0xa3, 0xbe, 0x43, 0xcf, 0x03, 0xbf,
  0x69, 0x88, 0x3d, 0xbe, 0x81, 0x0c, 0x26, 0x3e, 0xb3, 0x34, 0x82, 0xbe,
  0x66, 0xdb, 0xae, 0x3e, 0x05, 0xca, 0x6e, 0x3c, 0x92, 0x03, 0xbd, 0x3d,
  0x9a, 0xb5, 0xf4, 0xbe, 0xe7, 0x5e, 0x83, 0x3e, 0x77, 0x97, 0x84, 0x3e,
  0xe3, 0x0c, 0x88, 0x3e, 0x39, 0x75, 0xcd, 0xbc, 0x1e, 0x1f, 0x28, 0xbe,
  0x72, 0x72, 0x82, 0x3e, 0x46, 0xe5, 0xf0, 0xbd, 0x3a, 0xd3, 0xde, 0xbd,
  0x98, 0x33, 0x5f, 0xbc, 0x07, 0xff, 0x88, 0xbe, 0x53, 0x26, 0x03, 0x3e,
  0xe9, 0x2a, 0x10, 0xbe, 0xaf, 0xed, 0x12, 0x3f, 0x4f, 0x12, 0x89, 0x3d,
  0x08, 0x33, 0x23, 0x3e, 0x2f, 0xd4, 0xcf, 0xbe, 0x23, 0x61, 0xf8, 0x3e,
  0xcb, 0xb2, 0x39, 0x3e, 0x77, 0x5f, 0x59, 0x3e, 0x0e, 0x75, 0x36, 0x3d,
  0x7a, 0xc0, 0xdc, 0xbe, 0x2a, 0xa4, 0x5d, 0x3e, 0x22, 0xee, 0x11, 0x3e,
  0x63, 0xdf, 0xb3, 0x3d, 0x5f, 0xc1, 0xa4, 0x3e, 0x95, 0x45, 0x46, 0xbe,
  0x48, 0x63, 0x81, 0x3e, 0x2b, 0x74, 0xd1, 0xbd, 0xcc, 0xcc, 0x0e, 0x3f,
  0x90, 0xb7, 0x8c, 0x3d, 0xfe, 0x85, 0x47, 0x3e, 0x5d, 0xa5, 0x99, 0xbe,
  0xd4, 0xb8, 0xab, 0x3e, 0x5b, 0x71, 0x31, 0x3e, 0xe4, 0x9c, 0xee, 0x3d,
  0x72, 0x82, 0xec, 0xbd, 0xee, 0x50, 0x94, 0xbe, 0xfe, 0x2b, 0x05, 0x3d,
  0x12, 0xf0, 0x11, 0x3e, 0x50, 0xed, 0x31, 0xbd, 0x9d, 0xab, 0x92, 0x3e,
  0xff, 0x91, 0xf8, 0xbd, 0x8d, 0x65, 0x38, 0x3e, 0xa2, 0xa9, 0x47, 0x3e,
  0xc1, 0x5c, 0xdb, 0x3e, 0x28, 0x4e, 0x6b, 0x3e, 0xb3, 0xe9, 0x99, 0x3e,
  0x5b, 0x27, 0xa4, 0xbe, 0xb6, 0xa5, 0x91, 0x3e, 0x6a, 0xb5, 0xbc, 0x3d,
  0x1e, 0x71, 0x00, 0xbe, 0x37, 0x13, 0x5a, 0x3e, 0x5d, 0xdd, 0x15, 0xbd,
  0x7a, 0x31, 0x2d, 0x3e, 0x1e, 0x7b, 0x2d, 0x3e, 0xde, 0xf0, 0x6b, 0xbc,
  0x5e, 0x1d, 0x85, 0xbc, 0xe1, 0xe9, 0xa7, 0xbe, 0x4e, 0x09, 0x8d, 0x3e,
  0x35, 0xdf, 0xcb, 0xbd, 0x8c, 0xa2, 0xba, 0x3e, 0x9d, 0x36, 0xe5, 0x3d,
  0x29, 0x38, 0xfe, 0x3d, 0x70, 0xc6, 0xb5, 0x3d, 0xf6, 0xc2, 0x6e, 0xbe,
  0x5a, 0x09, 0xcd, 0x3d, 0x53, 0xbd, 0xe1, 0xbd, 0x1c, 0x55, 0x1f, 0x3e,
  0xc5, 0xa9, 0x4f, 0xbe, 0xbc, 0x1a, 0xc2, 0x3e, 0x33, 0x91, 0xa7, 0x3d,
  0x5e, 0xc5, 0xf2, 0x3d, 0xf0, 0x10, 0xf5, 0x3e, 0x04, 0xd0, 0x29, 0xbe,
  0xa0, 0x82, 0xb6, 0x3d, 0x8f, 0x95, 0x20, 0x3c, 0x63, 0x80, 0xaa, 0xbe,
  0xc7, 0x90, 0x84, 0x3c, 0x4b, 0xb2, 0x2b, 0xbe, 0xc6, 0x04, 0x57, 0xbd,
  0x50, 0x49, 0x38, 0x3e, 0xc9, 0xaf, 0x17, 0xbe, 0xa3, 0xb1, 0xfa, 0xbc,
  0x63, 0xb2, 0xaa, 0xbd, 0x04, 0xa2, 0x8d, 0xbe, 0x84, 0x98, 0x82, 0x3e,
  0x03, 0xf0, 0x2b, 0x3e, 0xa9, 0x7c, 0x54, 0xbd, 0x17, 0xbe, 0x91, 0xbd,
  0xa4, 0xf7, 0xa6, 0xbd, 0x81, 0xc0, 0xd9, 0xbb, 0xcd, 0x9a, 0x00, 0x3e,
  0xb3, 0xb8, 0xd5, 0x3e, 0xaf, 0xcf, 0x29, 0x3d, 0x01, 0xa8, 0xe6, 0xbd,
  0xa6, 0xf8, 0xc9, 0x3e, 0xc8, 0x27, 0xb3, 0x3e, 0x30, 0x14, 0xce, 0xbc,
  0x04, 0x78, 0xc3, 0xbd, 0xc9, 0xee, 0x21, 0x3c, 0x2e, 0x25, 0x72, 0x3c,
  0x81, 0x5a, 0xed, 0x3e, 0xd1, 0xff, 0x05, 0xbd, 0x49, 0x60, 0x73, 0x3e,
  0xe1, 0xf6, 0x67, 0x3e, 0x87, 0xa7, 0x4a, 0x3f, 0x1d, 0xfb, 0x78, 0xbe,
  0x41, 0x37, 0x19, 0xbc, 0xe6, 0x0b, 0x2c, 0x3d, 0x4e, 0xd0, 0x71, 0x3d,
  0xea, 0x2b, 0x7a, 0x3e, 0x56, 0x15, 0xde, 0x3c, 0x99, 0xd2, 0xdb, 0xbd,
  0x5c, 0xe7, 0x26, 0x3d, 0xae, 0x1f, 0xf6, 0x3d, 0x5c, 0xbd, 0x01, 0xbc,
  0xc4, 0xed, 0x6e, 0xbe, 0xc9, 0x9f, 0x83, 0x3e, 0xd6, 0x0b, 0x9f, 0x3d,
  0xc1, 0x04, 0x21, 0x3d, 0x02, 0x2e, 0x16, 0x3e, 0x72, 0x9e, 0x73, 0x3f,
  0xe1, 0xd7, 0x1e, 0x39, 0x43, 0x4b, 0xe6, 0xbb, 0xb6, 0xcc, 0x41, 0xbd,
  0x51, 0x90, 0xc7, 0xbd, 0xd3, 0xb0, 0xb5, 0xbd, 0xa3, 0x14, 0x81, 0xbe,
  0xc0, 0x19, 0x80, 0x3d, 0x13, 0x38, 0x48, 0x3d, 0xb9, 0x4f, 0x47, 0xbe,
  0xd5, 0x9e, 0x4b, 0xbe, 0x51, 0x52, 0x40, 0x3d, 0xdc, 0x38, 0x10, 0x3e,
  0x8f, 0x9c, 0x74, 0xbc, 0x40, 0xcc, 0xfe, 0xbe, 0x7b, 0x62, 0x91, 0xbe,
  0x2a, 0x4c, 0x60, 0x3f, 0xf9, 0x5e, 0x11, 0xbc, 0x0b, 0x16, 0x87, 0xbd,
  0xcc, 0x6a, 0x9c, 0xbe, 0x60, 0x79, 0xce, 0xbd, 0xb9, 0x5e, 0xf4, 0xbd,
  0x6a, 0xab, 0xa9, 0x3c, 0x22, 0xaf, 0x96, 0x3e, 0x48, 0xf6, 0x8a, 0xbc,
  0xc5, 0xa5, 0xe2, 0x3d, 0x47, 0xa3, 0x40, 0xbe, 0x42, 0x21, 0xe9, 0xbd,
  0x67, 0xc5, 0x5b, 0x3e, 0x7a, 0x1f, 0xa1, 0xbd, 0x27, 0xfb, 0xdf, 0xbe,
  0xd9, 0x6a, 0x63, 0xbd, 0xce, 0xa8, 0x49, 0x3f, 0x84, 0x66, 0xa0, 0x3c,
  0xc3, 0x8e, 0xae, 0x3d, 0x6f, 0xa8, 0x86, 0xbd, 0x20, 0xd4, 0x18, 0xbe,
  0x81, 0x73, 0x41, 0xbd, 0xa1, 0x88, 0x1e, 0xbd, 0xf5, 0x1e, 0x94, 0x3e,
  0xfa, 0xda, 0x52, 0x3c, 0x0f, 0x5b, 0xd7, 0x3c, 0xe7, 0xc8, 0x4f, 0xbd,
  0x9b, 0x1d, 0xe6, 0x3d, 0xef, 0x12, 0x6a, 0x3e, 0xd4, 0x07, 0x13, 0xbc,
  0xa2, 0x6f, 0xa3, 0xbe, 0x53, 0x06, 0xe9, 0x3b, 0xa2, 0x44, 0x87, 0x3f,
  0xaf, 0x95, 0xee, 0x3d, 0xbd, 0x92, 0x27, 0xbb, 0x4d, 0x60, 0xa6, 0x3d,
  0x98, 0xaf, 0x0d, 0xbe, 0xc5, 0x14, 0xea, 0xbd, 0x27, 0xf8, 0xf4, 0x3d,
  0xec, 0x5c, 0x61, 0x3e, 0x74, 0xa4, 0x01, 0x3c, 0xb9, 0x5d, 0xee, 0xbc,
  0xbf, 0x46, 0x5a, 0xbe, 0x26, 0x0e, 0x0e, 0x3e, 0x60, 0x8b, 0xfd, 0x3e,
  0xd5, 0x3f, 0x08, 0xbe, 0xa1, 0xe1, 0xa0, 0xbd, 0x2f, 0x4c, 0x15, 0xbe,
  0xa7, 0x9e, 0x33, 0x3f, 0xca, 0x43, 0xb2, 0x3d, 0x0a, 0x71, 0xda, 0xbd,
  0x96, 0xa8, 0x8c, 0xbe, 0x40, 0xb8, 0xb0, 0xbd, 0x8f, 0x61, 0x6c, 0xbd,
  0x9b, 0xe2, 0x4d, 0xbe, 0x1e, 0x3c, 0xfa, 0xbd, 0x4a, 0x30, 0xb1, 0xbd,
  0x4b, 0x46, 0x22, 0x3e, 0x50, 0xd3, 0x77, 0xbd, 0x5a, 0xc5, 0x90, 0xbe,
  0xa2, 0xc9, 0xe7, 0xbd, 0xaf, 0x6c, 0x1f, 0xbe, 0xf7, 0xde, 0x44, 0xbe,
  0xf6, 0xd4, 0xdf, 0xbd, 0xae, 0x4b, 0x75, 0x3f, 0x1d, 0x00, 0xaf, 0xbc,
  0xf9, 0xec, 0x20, 0xbd, 0xcd, 0x56, 0xa2, 0xbd, 0x1c, 0x38, 0x66, 0xbe,
  0x92, 0x30, 0x60, 0xbe, 0xca, 0xe4, 0xd8, 0xbd, 0xa2, 0xc2, 0x99, 0x3d,
  0x84, 0xd0, 0x87, 0xbe, 0xd6, 0xf3, 0x87, 0x3d, 0xf7, 0xd3, 0x92, 0x3d,
  0x75, 0x3b, 0xc5, 0xbd, 0xba, 0xa0, 0x9a, 0x3e, 0x38, 0xed, 0x7d, 0x3c,
  0x6b, 0x46, 0x30, 0xbe, 0x71, 0xc9, 0x00, 0xbe, 0xe4, 0x95, 0x06, 0x3f,
  0xec, 0xd1, 0x67, 0xbe, 0xfb, 0xc6, 0x3b, 0xbd, 0x59, 0x7b, 0x59, 0xbe,
  0x12, 0x4b, 0xc0, 0xbd, 0xc2, 0xf3, 0xd3, 0xbd, 0x06, 0xdb, 0x18, 0x3e,
  0x78, 0x45, 0x76, 0x3e, 0x81, 0xa5, 0x37, 0xbe, 0x87, 0x29, 0x81, 0xbd,
  0x30, 0x0f, 0xe0, 0xbd, 0x8a, 0x2e, 0xc5, 0x3d, 0xfd, 0xc6, 0xad, 0x3d,
  0x93, 0xc8, 0xcc, 0x3b, 0x43, 0x08, 0x1e, 0xbe, 0x23, 0xca, 0x34, 0xbe,
  0xa6, 0x30, 0xe0, 0x3e, 0x63, 0x1c, 0xcc, 0xbc, 0x0f, 0xff, 0x35, 0xbe,
  0xc3, 0x68, 0xfe, 0x3d, 0x8a, 0xa2, 0x82, 0xbe, 0x15, 0x42, 0x91, 0x3d,
  0xc5, 0x18, 0x24, 0x3e, 0x95, 0x76, 0x23, 0x3e, 0xe7, 0xa5, 0x93, 0x3c,
  0xf4, 0xb1, 0x26, 0xbe, 0x4f, 0xb2, 0xd5, 0xbd, 0x4b, 0xc3, 0x30, 0x3e,
  0x02, 0xf9, 0x95, 0x3e, 0xc1, 0x1a, 0xd4, 0x3d, 0xf1, 0x02, 0x8c, 0xbe,
  0x42, 0xf6, 0x26, 0xbe, 0xfc, 0xc2, 0x05, 0x3f, 0xc6, 0xf1, 0x98, 0xbd,
  0xc7, 0xcf, 0xf5, 0x3d, 0xff, 0x70, 0x3d, 0xbe, 0xa9, 0xfb, 0x8d, 0xbe,
  0x64, 0x0d, 0xe6, 0xbd, 0xf2, 0x15, 0xee, 0x3d, 0xbb, 0x22, 0xfa, 0x3d,
  0x6f, 0xdf, 0xca, 0xbc, 0xfe, 0x67, 0x2a, 0x3e, 0x36, 0xe3, 0x57, 0x3d,
  0xda, 0x91, 0x19, 0xbe, 0x26, 0xaa, 0x5b, 0x3e, 0x43, 0x19, 0x99, 0xbd,
  0xd7, 0x4c, 0x2f, 0xbe, 0xc2, 0xcf, 0xc6, 0xbd, 0x7f, 0x20, 0xe5, 0x3e,
  0x26, 0xe4, 0x60, 0x3c, 0x45, 0x38, 0x99, 0xbd, 0xd9, 0x31, 0xcd, 0xbd,
  0xa0, 0xb1, 0x0d, 0xbe, 0x5d, 0x1a, 0x50, 0xbe, 0xd8, 0x6d, 0x05, 0xbe,
  0x36, 0xa5, 0xa2, 0x3d, 0xfc, 0x38, 0x01, 0xbe, 0x01, 0x79, 0x7c, 0x3d,
  0xc1, 0xea, 0xc4, 0xbc, 0x00, 0x2b, 0xc0, 0xba, 0xc7, 0xac, 0xa1, 0x3e,
  0xd5, 0xdb, 0xc3, 0x3c, 0xe2, 0x1d, 0xa7, 0xbd, 0x70, 0x20, 0x61, 0xbe,
  0x12, 0x68, 0xea, 0x3e, 0x02, 0x63, 0x61, 0xbd, 0xbe, 0x18, 0x18, 0xbc,
  0x74, 0x2a, 0x87, 0xbd, 0xb7, 0x16, 0x15, 0xbe, 0x2f, 0x8b, 0xdd, 0x3d,
  0x07, 0x9e, 0xdb, 0xbc, 0xb5, 0x56, 0x1c, 0x3e, 0xcc, 0xe2, 0x59, 0xbe,
  0xe6, 0x3a, 0xbe, 0x3d, 0x7a, 0xfa, 0x69, 0x3d, 0x51, 0xee, 0x03, 0xbe,
  0x0a, 0x20, 0x7d, 0x3e, 0x7c, 0xb6, 0xf5, 0xbd, 0xd3, 0x17, 0x08, 0xbe,
  0x27, 0xe3, 0x81, 0xbc, 0xee, 0x13, 0x99, 0x3e, 0xb1, 0x07, 0x5d, 0xbe,
  0x56, 0xe6, 0x2e, 0xbd, 0x2c, 0x5a, 0x37, 0xbb, 0x64, 0x8c, 0x4f, 0xbe,
  0xbe, 0x5c, 0x2a, 0xbd, 0x98, 0x77, 0x7d, 0xbe, 0x7d, 0xf5, 0x99, 0x3e,
  0xe0, 0x76, 0xe3, 0xba, 0xa8, 0x4a, 0x2b, 0x3d, 0x44, 0x10, 0x0a, 0xbe,
  0xdc, 0x41, 0x83, 0x3d, 0x87, 0x22, 0xb8, 0xbd, 0xc9, 0x05, 0xe8, 0x3d,
  0x62, 0xff, 0x10, 0xbe, 0x76, 0x8c, 0x24, 0xbe, 0xcb, 0xae, 0x94, 0x3e,
  0xb7, 0xc8, 0x29, 0xbe, 0x1c, 0x55, 0xb4, 0xbe, 0xb5, 0x81, 0xe5, 0xbd,
  0x7d, 0xe9, 0x2d, 0xbe, 0x4e, 0x83, 0x91, 0xbe, 0x95, 0x0d, 0xf7, 0xbe,
  0xb3, 0xc2, 0x81, 0xbe, 0xf6, 0x14, 0xf9, 0xbd, 0x48, 0x3d, 0x76, 0xbd,
  0xd6, 0x72, 0x15, 0xbe, 0xd7, 0x1d, 0xac, 0x3c, 0x58, 0x78, 0x17, 0xbd,
  0xfa, 0x80, 0x1b, 0xbe, 0xc4, 0x6e, 0x6e, 0xbe, 0x3e, 0x15, 0xd1, 0xbe,
  0xd7, 0x5f, 0x27, 0xbc, 0xb4, 0xff, 0x81, 0x3e, 0xd9, 0xae, 0x85, 0xbe,
  0xa4, 0x78, 0x85, 0x3e, 0xe3, 0x4c, 0x1f, 0xbd, 0xc4, 0x45, 0x93, 0xbd,
  0x10, 0x83, 0xef, 0xbe, 0xc8, 0x02, 0xb5, 0x3e, 0xe6, 0x20, 0xce, 0x3d,
  0x49, 0x05, 0x8b, 0xbd, 0xca, 0xb2, 0xdc, 0x3d, 0xd5, 0x43, 0x25, 0x3e,
  0x8a, 0xec, 0x84, 0x3e, 0xc3, 0xd6, 0x84, 0x3e, 0xd2, 0x7b, 0x02, 0xbd,
  0xc1, 0x48, 0xef, 0xbc, 0xed, 0xfb, 0x07, 0xbd, 0x62, 0xda, 0xf9, 0x3d,
  0xe6, 0x0a, 0xef, 0xbd, 0x8e, 0xd4, 0xd1, 0x3e, 0x94, 0xc5, 0x1a, 0x3e,
  0x6f, 0x33, 0x27, 0x3e, 0x67, 0xf9, 0x74, 0xbe, 0x2e, 0xbe, 0x8e, 0x3e,
  0xb7, 0xa3, 0x4b, 0x3e, 0x36, 0x39, 0x61, 0x3e, 0x37, 0x8d, 0x9e, 0xbc,
  0xd5, 0x69, 0xfb, 0x3c, 0xb3, 0x29, 0xc2, 0x3e, 0x7d, 0x33, 0x0b, 0x3e,
  0x5d, 0x02, 0x73, 0xbd, 0xd5, 0xc7, 0xab, 0x3d, 0x92, 0x48, 0x98, 0xbc,
  0xae, 0x49, 0xf0, 0x3d, 0x61, 0x3d, 0x15, 0xbe, 0xf7, 0xe8, 0x8f, 0x3e,
  0xfa, 0xf5, 0x28, 0x3e, 0xd3, 0x39, 0xc2, 0x3d, 0x0e, 0xf0, 0xa8, 0xbe,
  0x99, 0x37, 0xaa, 0x3d, 0xf1, 0x97, 0x35, 0x3e, 0x7b, 0x8f, 0x50, 0x3c,
  0x05, 0xb2, 0xca, 0x3d, 0x0b, 0xdd, 0x00, 0x3d, 0x87, 0x54, 0xdd, 0x3e,
  0x08, 0x82, 0x92, 0x3e, 0x80, 0x7a, 0x77, 0x3d, 0x64, 0x75, 0xd6, 0x3d,
  0xf6, 0x2e, 0x54, 0xbe, 0x17, 0xfe, 0xa8, 0x3d, 0x67, 0x0e, 0xb0, 0xbd,
  0xd9, 0xbd, 0xb7, 0x3e, 0x1b, 0x63, 0xf7, 0x3c, 0xd5, 0x11, 0x41, 0xbb,
  0x30, 0x0f, 0x46, 0xbd, 0x1a, 0x58, 0xc0, 0x3e, 0x07, 0xca, 0x80, 0x3e,
  0xd9, 0x8c, 0x9c, 0xbd, 0x3a, 0x19, 0x49, 0x3e, 0xbf, 0xc8, 0x73, 0x3d,
  0x72, 0x9a, 0xb8, 0x3e, 0x91, 0xd3, 0x77, 0x3e, 0x5e, 0x79, 0x3d, 0x3e,
  0x8c, 0x8c, 0x6a, 0x3e, 0x8d, 0x3c, 0x81, 0xbe, 0xe6, 0xa6, 0x35, 0x3e,
  0x15, 0x11, 0x69, 0xbe, 0xaf, 0xf3, 0xe5, 0x3e, 0x13, 0xa9, 0xbb, 0x3d,
  0xf3, 0xab, 0x2b, 0x3e, 0x6e, 0xb1, 0x38, 0xbe, 0xc6, 0x81, 0x8d, 0xbe,
  0xbf, 0x14, 0x24, 0x3e, 0x17, 0x86, 0x8a, 0xbd, 0xb1, 0xda, 0xe2, 0x3d,
  0x82, 0x0c, 0xfe, 0xbd, 0x00, 0x36, 0xaa, 0x3e, 0x06, 0x87, 0xa4, 0x3d,
  0xf5, 0x54, 0x92, 0x3c, 0xe4, 0xc6, 0xc4, 0x3e, 0xd1, 0xc4, 0x78, 0xbe,
  0xc7, 0xc0, 0xfc, 0xbc, 0x9f, 0xa8, 0xdb, 0x3d, 0x6e, 0xa0, 0x18, 0x3e,
  0x90, 0x08, 0x37, 0xbd, 0x9a, 0x44, 0x18, 0xbe, 0xb5, 0x82, 0x09, 0x3d,
  0x19, 0x36, 0x19, 0x3e, 0xac, 0xbb, 0xd8, 0xbd, 0x8e, 0xe1, 0x0e, 0xbd,
  0x1d, 0x2d, 0xd1, 0xbd, 0x20, 0x76, 0x9e, 0xbe, 0x43, 0x50, 0x8a, 0x3e,
  0xef, 0xd6, 0x1c, 0x3e, 0x31, 0x8e, 0x2a, 0xbe, 0xd3, 0x47, 0x18, 0xbe,
  0x0c, 0xe4, 0x84, 0x3d, 0xf2, 0x82, 0x0e, 0xbd, 0xd4, 0x10, 0x53, 0xbd,
  0xf7, 0x37, 0x61, 0x3c, 0xa7, 0xe4, 0x19, 0xbe, 0x3f, 0x58, 0x11, 0xbe,
  0xd5, 0x1d, 0x98, 0xbd, 0x94, 0x92, 0x32, 0xbe, 0x4a, 0xf7, 0x87, 0x3e,
  0x92, 0xd5, 0x0f, 0xbe, 0x7b, 0x87, 0x62, 0xbe, 0x34, 0x65, 0x2e, 0xbe,
  0x7d, 0x68, 0x21, 0x3e, 0x7f, 0x01, 0x97, 0x3d, 0x49, 0x53, 0x6d, 0xbe,
  0x6f, 0xf9, 0x2c, 0xbe, 0x73, 0xb4, 0x64, 0xbd, 0xdb, 0xb3, 0xa0, 0x3d,
  0xee, 0xc8, 0x8b, 0xbe, 0x15, 0xc1, 0x23, 0xbe, 0x46, 0x66, 0x2a, 0xbe,
  0x83, 0x8d, 0x4a, 0xbb, 0xfb, 0x1f, 0xc9, 0xbc, 0x10, 0x93, 0x2a, 0x3e,
  0x2b, 0x64, 0xa0, 0x3c, 0x84, 0xa0, 0x09, 0x3e, 0xd3, 0x44, 0x49, 0x3e,
  0x27, 0xec, 0x08, 0x3d, 0x36, 0xbc, 0x83, 0x3d, 0xc0, 0xa3, 0xee, 0xbd,
  0x3d, 0x89, 0x38, 0xbd, 0x9a, 0xc2, 0x5f, 0x3d, 0x1d, 0x61, 0x19, 0xbd,
  0x57, 0x54, 0x94, 0xbd, 0x07, 0x67, 0x03, 0xbe, 0x48, 0x89, 0xbe, 0x3d,
  0x0c, 0x4e, 0x0d, 0x3e, 0x1c, 0x7b, 0xe8, 0xbd, 0xfa, 0x43, 0x04, 0x3e,
  0x6e, 0xcf, 0x3d, 0x3e, 0x36, 0x35, 0x27, 0x3e, 0xcd, 0xa4, 0x81, 0xbd,
  0xc0, 0x72, 0x5d, 0x3e, 0x8f, 0xaa, 0xb5, 0xbd, 0x5c, 0x58, 0x29, 0x3e,
  0x07, 0x5c, 0x03, 0x3e, 0x2c, 0xcd, 0x31, 0xbe, 0xae, 0xdb, 0xf1, 0x3d,
  0xd4, 0x9b, 0x62, 0xbe, 0x2e, 0xc8, 0x69, 0x3e, 0x49, 0xbc, 0x1f, 0xbd,
  0x04, 0xce, 0x84, 0x3d, 0x47, 0x7f, 0x00, 0xbe, 0x9f, 0x53, 0x82, 0x3d,
  0x8c, 0xea, 0x23, 0xbd, 0x6e, 0xbe, 0x49, 0x3e, 0x16, 0x06, 0x39, 0x3c,
  0x72, 0xb8, 0x27, 0x3b, 0xe2, 0x01, 0x7e, 0x3d, 0xa7, 0x7f, 0x8c, 0x3c,
  0xb1, 0x95, 0xb8, 0x3d, 0x10, 0x22, 0x3a, 0x3e, 0xed, 0x7e, 0x8f, 0xbe,
  0x29, 0x46, 0x4a, 0x3e, 0x8b, 0x08, 0xdc, 0x3d, 0x82, 0x4c, 0x3b, 0x3e,
  0xcf, 0x3d, 0x85, 0xbe, 0x72, 0x15, 0x81, 0xbe, 0xed, 0xdb, 0x52, 0x3d,
  0x08, 0xe5, 0x09, 0x3e, 0x6a, 0xdd, 0xd1, 0x3d, 0xa8, 0x23, 0x1b, 0x3e,
  0x22, 0xfd, 0x09, 0x3d, 0x47, 0x76, 0x20, 0xbe, 0xd7, 0xbe, 0x34, 0xbe,
  0x21, 0x1c, 0x00, 0x3e, 0x10, 0x85, 0x0b, 0xbe, 0xdc, 0x02, 0x51, 0x3e,
  0xbb, 0xe8, 0x32, 0xbe, 0x6b, 0x7f, 0x93, 0xbd, 0xb1, 0x67, 0x77, 0xbe,
  0x3c, 0xc1, 0xcc, 0x3c, 0xf3, 0x7b, 0xf6, 0xbd, 0xf4, 0x57, 0xfd, 0xbd,
  0x27, 0xf2, 0x1a, 0x3e, 0x8a, 0x5a, 0x23, 0x3d, 0xbd, 0x1b, 0x6a, 0xbe,
  0x57, 0x52, 0x86, 0x3b, 0xb5, 0x97, 0xfb, 0xbd, 0xc6, 0x68, 0x0a, 0x3e,
  0x89, 0x82, 0x8d, 0xbd, 0x25, 0xc1, 0xa9, 0xbc, 0x44, 0xdd, 0xe7, 0x3d,
  0xa2, 0xe2, 0x8e, 0x3e, 0x8e, 0x0a, 0x8b, 0xbe, 0xd7, 0xda, 0x99, 0xbd,
  0x7f, 0xc1, 0x1f, 0xbe, 0x98, 0x28, 0x3a, 0x3e, 0x05, 0x22, 0xa8, 0xbd,
  0xb2, 0x0b, 0x39, 0x3e, 0x92, 0x66, 0x6e, 0xbc, 0x09, 0x50, 0x1b, 0xbe,
  0x48, 0xf9, 0x1c, 0x3d, 0x2b, 0x60, 0x23, 0x3e, 0x4b, 0x5d, 0x2c, 0x3e,
  0xfd, 0x67, 0x31, 0x3e, 0x6a, 0x4d, 0x08, 0xbe, 0xdd, 0x54, 0x3d, 0xbe,
  0x5b, 0x5d, 0x0f, 0x3d, 0x2c, 0x4f, 0x92, 0x3e, 0xd8, 0x07, 0xd9, 0x3d,
  0xd3, 0x87, 0xa5, 0x3d, 0x5b, 0x71, 0xf6, 0xbd, 0xb0, 0x92, 0x93, 0xbd,
  0x64, 0x64, 0x90, 0xbd, 0x7c, 0x9a, 0xac, 0xbe, 0x6e, 0xdd, 0x51, 0xbe,
  0x8e, 0xf3, 0x60, 0xbe, 0xb3, 0x94, 0x84, 0xbe, 0x51, 0xe1, 0x57, 0xbe,
  0xca, 0xb9, 0x8f, 0x3e, 0xd9, 0x53, 0xca, 0xbd, 0xc1, 0xca, 0x80, 0xbe,
  0x8b, 0x5a, 0x55, 0x3e, 0x78, 0xb6, 0xa8, 0xbc, 0x66, 0x6e, 0x57, 0x3e,
  0xbd, 0x68, 0x78, 0x3d, 0xdc, 0x15, 0xc4, 0xbe, 0xa1, 0xf8, 0xa7, 0xbd,
  0x0a, 0xba, 0x81, 0x3c, 0x1a, 0xc5, 0x90, 0xbe, 0x92, 0x45, 0xca, 0x3e,
  0x8d, 0xd2, 0x8d, 0xbd, 0x3c, 0xfa, 0x01, 0xbd, 0x65, 0x91, 0x03, 0xbe,
  0x39, 0x20, 0x0d, 0xbc, 0xca, 0x59, 0x67, 0x3e, 0x7d, 0x8a, 0x31, 0xbe,
  0xf3, 0x5b, 0x09, 0xbe, 0x55, 0xc6, 0x32, 0x3e, 0x72, 0xf5, 0x0e, 0x3e,
  0x2c, 0x00, 0x3d, 0x3c, 0x9d, 0x83, 0x06, 0x3e, 0xdc, 0x9e, 0x4f, 0xbe,
  0x00, 0xf2, 0x0b, 0x3e, 0x24, 0xc6, 0xe8, 0xbd, 0x1c, 0x4c, 0x8a, 0xbe,
  0x27, 0x46, 0x06, 0x3f, 0xfa, 0x57, 0xb7, 0xbc, 0x29, 0xa9, 0xfc, 0x3d,
  0xe1, 0x27, 0xc6, 0xbd, 0xea, 0x75, 0x5b, 0xbd, 0x79, 0x12, 0x31, 0xbc,
  0x49, 0x11, 0x8a, 0x3e, 0x56, 0x5e, 0x25, 0xbd, 0x2d, 0xeb, 0xf3, 0x3d,
  0xbf, 0x85, 0x06, 0xbe, 0x81, 0x4c, 0x40, 0x3e, 0xea, 0xf4, 0xa0, 0x3d,
  0xb9, 0x3d, 0x03, 0x3e, 0xca, 0x67, 0x57, 0xbe, 0x31, 0x16, 0xd3, 0xbc,
  0x3c, 0x3f, 0xa4, 0x3c, 0xfd, 0x38, 0x0a, 0x3f, 0x5b, 0x1f, 0x4d, 0x3e,
  0x9a, 0x72, 0x02, 0xbe, 0x57, 0xff, 0x7b, 0xbe, 0xb6, 0xd5, 0x1a, 0xbe,
  0x92, 0xd2, 0xe3, 0xbc, 0xbf, 0xce, 0x84, 0x3e, 0x4c, 0xb1, 0x43, 0x3e,
  0x7f, 0x22, 0x7a, 0x3d, 0xef, 0x1b, 0xe3, 0x3d, 0xd6, 0xb3, 0xa1, 0xbb,
  0xb1, 0xdd, 0x81, 0x3d, 0xf0, 0x3c, 0x3e, 0xb9, 0x3f, 0x98, 0x82, 0xbd,
  0x87, 0x08, 0x3b, 0x3e, 0x4e, 0x4f, 0x46, 0xbe, 0x63, 0xaa, 0x8a, 0x3d,
  0x60, 0xff, 0x45, 0x3e, 0x3b, 0x7c, 0x14, 0x3e, 0x57, 0x9d, 0x79, 0x3d,
  0x20, 0x08, 0x70, 0x3e, 0x7f, 0x18, 0xba, 0x3d, 0x25, 0x99, 0x72, 0xbc,
  0x4c, 0xa4, 0xf7, 0x3d, 0x51, 0x14, 0x84, 0x3e, 0xbb, 0xc9, 0xe2, 0x3d,
  0xd4, 0xe1, 0x8b, 0x3e, 0x09, 0x31, 0x37, 0xbe, 0x3e, 0xb9, 0x7f, 0xbc,
  0xdf, 0xdb, 0x4e, 0xbe, 0xa1, 0x5c, 0x9a, 0x3d, 0x63, 0xeb, 0x2e, 0xbe,
  0x77, 0x6a, 0xfb, 0x3e, 0x03, 0xf9, 0xfb, 0x3d, 0x6b, 0xd9, 0x3f, 0x3e,
  0x48, 0xa1, 0x6a, 0x3d, 0x1b, 0x8e, 0x9e, 0xbd, 0xe6, 0x8c, 0x85, 0x3e,
  0x17, 0xaf, 0xcc, 0xbd, 0xaa, 0xef, 0xc0, 0x3d, 0xc2, 0xd7, 0xf3, 0xbd,
  0xc3, 0x70, 0x86, 0x3e, 0x93, 0xc6, 0xd2, 0x3e, 0xde, 0x30, 0x0c, 0xbd,
  0x4c, 0xfb, 0xb2, 0x3d, 0x1b, 0xec, 0xa8, 0x3d, 0x34, 0xf3, 0xbb, 0xbc,
  0x79, 0xa8, 0x7b, 0xbe, 0x99, 0x46, 0xc5, 0xbd, 0xb3, 0xb1, 0xcb, 0xbd,
  0xe8, 0xca, 0xd3, 0x3c, 0x4f, 0x1f, 0xe6, 0x3d, 0x35, 0x18, 0xad, 0x3e,
  0xba, 0xf0, 0xe7, 0x3d, 0xaa, 0x3c, 0x10, 0x3d, 0x8e, 0xcf, 0x22, 0xbd,
  0x50, 0xfd, 0x1e, 0xbe, 0xb7, 0x90, 0x20, 0x3e, 0x28, 0xc7, 0x2f, 0xbe,
  0x6b, 0xa6, 0x15, 0xbe, 0x4b, 0x05, 0xc4, 0xbb, 0xc0, 0xfa, 0x82, 0xbd,
  0x91, 0x20, 0x1d, 0x3e, 0x4e, 0xfe, 0xff, 0xff, 0x10, 0x00, 0x00, 0x00,
  0x05, 0x00, 0x00, 0x00, 0x14, 0x00, 0x00, 0x00, 0x2c, 0x00, 0x00, 0x00,
  0x02, 0x00, 0x00, 0x00, 0x10, 0x00, 0x00, 0x00, 0x70, 0x00, 0x00, 0x00,
  0x17, 0x00, 0x00, 0x00, 0x73, 0x65, 0x71, 0x75, 0x65, 0x6e, 0x74, 0x69,
  0x61, 0x6c, 0x2f, 0x64, 0x65, 0x6e, 0x73, 0x65, 0x2f, 0x4d, 0x61, 0x74,
  0x4d, 0x75, 0x6c, 0x00, 0x3c, 0xfe, 0xff, 0xff, 0x32, 0xff, 0xff, 0xff,
  0x04, 0x00, 0x00, 0x00, 0x08, 0x00, 0x00, 0x00, 0xff, 0xff, 0xff, 0xff,
  0x70, 0x00, 0x00, 0x00, 0x00, 0x00, 0x0e, 0x00, 0x18, 0x00, 0x08, 0x00,
  0x07, 0x00, 0x0c, 0x00, 0x10, 0x00, 0x14, 0x00, 0x0e, 0x00, 0x00, 0x00,
  0x00, 0x00, 0x00, 0x02, 0x10, 0x00, 0x00, 0x00, 0x04, 0x00, 0x00, 0x00,
  0x10, 0x00, 0x00, 0x00, 0x2c, 0x00, 0x00, 0x00, 0x01, 0x00, 0x00, 0x00,
  0x02, 0x00, 0x00, 0x00, 0x18, 0x00, 0x00, 0x00, 0x73, 0x65, 0x71, 0x75,
  0x65, 0x6e, 0x74, 0x69, 0x61, 0x6c, 0x2f, 0x66, 0x6c, 0x61, 0x74, 0x74,
  0x65, 0x6e, 0x2f, 0x43, 0x6f, 0x6e, 0x73, 0x74, 0x00, 0x00, 0x00, 0x00,
  0xa4, 0xfe, 0xff, 0xff, 0x9a, 0xff, 0xff, 0xff, 0x04, 0x00, 0x00, 0x00,
  0x08, 0x00, 0x00, 0x00, 0xf7, 0x97, 0x46, 0xbe, 0xf5, 0x97, 0x46, 0x3e,
  0x0a, 0xff, 0xff, 0xff, 0x10, 0x00, 0x00, 0x00, 0x03, 0x00, 0x00, 0x00,
  0x10, 0x00, 0x00, 0x00, 0x3c, 0x00, 0x00, 0x00, 0x01, 0x00, 0x00, 0x00,
  0x02, 0x00, 0x00, 0x00, 0x29, 0x00, 0x00, 0x00, 0x73, 0x65, 0x71, 0x75,
  0x65, 0x6e, 0x74, 0x69, 0x61, 0x6c, 0x2f, 0x64, 0x65, 0x6e, 0x73, 0x65,
  0x5f, 0x31, 0x2f, 0x42, 0x69, 0x61, 0x73, 0x41, 0x64, 0x64, 0x2f, 0x52,
  0x65, 0x61, 0x64, 0x56, 0x61, 0x72, 0x69, 0x61, 0x62, 0x6c, 0x65, 0x4f,
  0x70, 0x00, 0x00, 0x00, 0x60, 0xff, 0xff, 0xff, 0x00, 0x00, 0x06, 0x00,
  0x08, 0x00, 0x04, 0x00, 0x06, 0x00, 0x00, 0x00, 0x04, 0x00, 0x00, 0x00,
  0x40, 0x00, 0x00, 0x00, 0xe1, 0xd4, 0x15, 0x40, 0x5c, 0xbb, 0x86, 0xbf,
  0xb0, 0xd3, 0x39, 0xbe, 0x5e, 0x43, 0x0c, 0x40, 0xf1, 0xfa, 0xa3, 0xbe,
  0xde, 0x05, 0x78, 0x3e, 0x48, 0x86, 0xd3, 0xbd, 0xd4, 0xde, 0x4f, 0x3f,
  0x16, 0xd1, 0xb4, 0xbe, 0x73, 0xc0, 0x3c, 0x3e, 0xcb, 0x8b, 0x48, 0xbd,
  0x50, 0x94, 0xe8, 0xbd, 0x94, 0xc9, 0x02, 0xbe, 0xb1, 0xfa, 0x27, 0x3e,
  0x1a, 0x56, 0x81, 0xbe, 0x8a, 0xaf, 0x28, 0x3e, 0xae, 0xff, 0xff, 0xff,
  0x10, 0x00, 0x00, 0x00, 0x02, 0x00, 0x00, 0x00, 0x10, 0x00, 0x00, 0x00,
  0x3c, 0x00, 0x00, 0x00, 0x01, 0x00, 0x00, 0x00, 0x10, 0x00, 0x00, 0x00,
  0x27, 0x00, 0x00, 0x00, 0x73, 0x65, 0x71, 0x75, 0x65, 0x6e, 0x74, 0x69,
  0x61, 0x6c, 0x2f, 0x64, 0x65, 0x6e, 0x73, 0x65, 0x2f, 0x42, 0x69, 0x61,
  0x73, 0x41, 0x64, 0x64, 0x2f, 0x52, 0x65, 0x61, 0x64, 0x56, 0x61, 0x72,
  0x69, 0x61, 0x62, 0x6c, 0x65, 0x4f, 0x70, 0x00, 0x04, 0x00, 0x06, 0x00,
  0x04, 0x00, 0x00, 0x00, 0x00, 0x00, 0x0e, 0x00, 0x14, 0x00, 0x04, 0x00,
  0x00, 0x00, 0x08, 0x00, 0x0c, 0x00, 0x10, 0x00, 0x0e, 0x00, 0x00, 0x00,
  0x10, 0x00, 0x00, 0x00, 0x01, 0x00, 0x00, 0x00, 0x1c, 0x00, 0x00, 0x00,
  0x2c, 0x00, 0x00, 0x00, 0x04, 0x00, 0x00, 0x00, 0x01, 0x00, 0x00, 0x00,
  0x40, 0x00, 0x00, 0x00, 0x03, 0x00, 0x00, 0x00, 0x01, 0x00, 0x00, 0x00,
  0x0c, 0x00, 0x00, 0x00, 0x63, 0x6f, 0x6e, 0x76, 0x32, 0x64, 0x5f, 0x69,
  0x6e, 0x70, 0x75, 0x74, 0x00, 0x00, 0x00, 0x00, 0xfc, 0xff, 0xff, 0xff,
  0x04, 0x00, 0x04, 0x00, 0x04, 0x00, 0x00, 0x00
};

//unsigned int _content_midproject_model_model_tflite_len = 11940;
unsigned int model_tflite_len = 12248;// Fill the int in `src/model.cc` here